<unk>	0
<s>	0
</s>	0
ː	-1.86996
i	-2.45956
ʉ	-3.0691
ɑ	-4.3938
.	-4.40644
ɒ	-4.5247
▁the	-4.66436
▁	-5.07142
ejejejejejejejej	-5.14058
,	-5.1788
ajajajajajajajaj	-5.19765
s	-5.2136
••••••••••••••••	-5.28456
owowowowowowowow	-5.57344
▁of	-5.60451
ejejejejejejej	-5.64355
•••	-5.67073
▁a	-5.71166
▁and	-5.73457
ajajajajajajaj	-5.7774
▁in	-5.823
▁to	-5.85453
ejejejejejej	-5.88751
sssssssssss	-5.90434
ssssssssssss	-5.90473
thththththththth	-5.93974
ajajajajajaj	-5.96945
•••••••••••••••	-5.9788
zzzzzzzz	-6.02921
owowowowowowow	-6.03793
sssssssssssss	-6.05165
ssssssssss	-6.05423
▁is	-6.05639
▁was	-6.18176
awawawawawawawaw	-6.21471
owowowowowow	-6.23657
••••••••••••••	-6.26244
khkhkhkhkhkhkhkh	-6.26648
ssssssssssssss	-6.27242
tʃtʃtʃtʃtʃtʃtʃtʃ	-6.3199
sssssssss	-6.33807
▁he	-6.372
ɪɪɪɪɪɪɪɪ	-6.38024
zzzzzzzzz	-6.38055
phphphphphphphph	-6.40294
••••••••	-6.4099
▁it	-6.43374
ejejejejej	-6.44071
nnnnnnnn	-6.44925
dʒdʒdʒdʒdʒdʒdʒdʒ	-6.45067
zzzzzzzzzz	-6.45486
ththththththth	-6.48789
ɪɪɪɪɪɪɪ	-6.50517
d̪d̪d̪d̪d̪d̪d̪d̪	-6.52184
zzzzzzz	-6.53785
khkhkhkhkhkhkh	-6.54545
əəəəə	-6.55849
sssssssssssssss	-6.57309
d̪d̪d̪d̪d̪d̪	-6.57388
zzzzzzzzzzz	-6.59323
tjtjtjtjtjtjtjtj	-6.61567
ssssssss	-6.61844
əəəəəəəə	-6.61962
ssssssssssssssss	-6.63915
'	-6.65062
əəəəəə	-6.65611
d̪d̪d̪d̪d̪d̪d̪	-6.65695
mmmmmmmm	-6.66733
•••••••	-6.68979
nnnnnnn	-6.69921
ɪɪɪɪɪɪ	-6.70449
thththththth	-6.70859
••••	-6.71174
əəəəəəə	-6.71307
ɪɪɪɪɪ	-6.74176
▁for	-6.74996
dd	-6.75418
zzzzzzzzzzzz	-6.76955
awawawawawawaw	-6.77065
•••••••••••••	-6.78412
phphphphphphph	-6.80396
•••••	-6.81168
••••••	-6.81396
ɹɹɹɹɹɹɹɹ	-6.81885
mmmmmmm	-6.82136
tjtjtjtjtjtjtj	-6.82504
tttttttt	-6.82509
khkhkhkhkhkh	-6.82827
tʃtʃtʃtʃtʃtʃtʃ	-6.82904
owowowowow	-6.83235
ed	-6.83467
dʒdʒdʒdʒdʒdʒdʒ	-6.84745
chchchchchchchch	-6.85726
əəəə	-6.87498
ajajajajaj	-6.88035
tʃtʃtʃtʃtʃtʃ	-6.89575
nnnnnnnnn	-6.89876
••••••••••••	-6.90595
ɪɪɪɪɪɪɪɪɪ	-6.91075
əəə	-6.92181
ɛɛɛɛɛɛɛɛ	-6.92255
zzzzzzzzzzzzz	-6.93328
▁his	-6.97241
nnnnnnnnnn	-6.98314
tjtjtjtjtjtj	-6.98338
ɹɹɹɹɹɹɹ	-6.98609
d̪d̪d̪d̪d̪	-6.98872
▁are	-6.99951
•••••••••••	-7.00154
ææææææææææ	-7.00559
ɪɪɪɪ	-7.00762
dʒdʒdʒdʒdʒdʒ	-7.00965
phphphphphph	-7.01136
ttttttt	-7.01891
æææææææææææ	-7.02023
••••••••••	-7.02045
▁as	-7.03269
kkkkkkkk	-7.03477
nnnnnn	-7.03613
zzzzzzzzzzzzzz	-7.03651
•••••••••	-7.05047
æææææææææ	-7.05226
phphphphph	-7.05991
▁that	-7.06365
▁with	-7.0757
▁on	-7.07962
zzzzzzzzzzzzzzz	-7.08021
▁this	-7.08092
mmmmmm	-7.08764
ɪɪɪɪɪɪɪɪɪɪ	-7.09046
ing	-7.0905
awawawawawaw	-7.09101
ɪɪɪ	-7.10111
nnnnnnnnnnn	-7.10311
ææææææææææææ	-7.1141
▁d̪d̪d̪d̪d̪d̪	-7.1336
ɹɹɹɹɹɹ	-7.14031
zzzzzzzzzzzzzzzz	-7.14057
ththththth	-7.14288
ɐɐɐɐɐɐɐɐ	-7.14761
zzzzzz	-7.15735
ɛɛɛɛɛɛɛ	-7.16742
tʃtʃtʃtʃtʃ	-7.16894
nnnnnnnnnnnn	-7.17675
mmmmmmmmm	-7.17919
▁by	-7.1837
iiiiiiiiiiiiiiii	-7.19478
fjfjfjfjfjfjfjfj	-7.20028
ɛɛɛɛɛɛɛɛɛ	-7.20159
ɐɐɐɐɐɐɐ	-7.20874
fffffffffff	-7.21007
tttttt	-7.2166
nnnnn	-7.22176
ffffffffff	-7.22621
ɕ	-7.23291
ææææææææ	-7.2381
sssssss	-7.24004
ɹɹɹɹɹɹɹɹɹ	-7.24425
▁d̪d̪d̪d̪d̪d̪d̪	-7.24635
▁be	-7.25502
ɹɹɹɹɹɹɹɹɹɹ	-7.27282
fffffffff	-7.27695
mmmmm	-7.28072
æææææææææææææ	-7.28242
▁at	-7.29504
ɹɹɹɹɹ	-7.30007
tjtjtjtjtj	-7.30149
ɹɹɹɹɹɹɹɹɹɹɹ	-7.30243
ffffffff	-7.30419
ttttttttt	-7.30663
nnnnnnnnnnnnn	-7.314
ɪɪɪɪɪɪɪɪɪɪɪ	-7.31571
iiiiiiii	-7.31645
əəəəəəəəə	-7.32148
ttt	-7.32674
ffffffffffff	-7.33291
ejejejej	-7.3373
ɐɐɐɐɐɐ	-7.34934
mjmjmjmjmjmjmjmj	-7.35107
▁also	-7.35283
chchchchchchch	-7.36297
tttttttttt	-7.37179
ɛɛɛɛɛɛɛɛɛɛ	-7.37926
ttttt	-7.37975
kkkkkkk	-7.38649
mmmmmmmmmm	-7.40194
▁were	-7.40661
nnnnnnnnnnnnnn	-7.40834
kkkkkkkkk	-7.42015
fffffffffffff	-7.42916
ɹɹɹɹɹɹɹɹɹɹɹɹ	-7.43341
▁she	-7.43947
ɐɐɐɐɐ	-7.44164
▁not	-7.44786
owowowow	-7.45173
ttttttttttt	-7.45791
▁d̪d̪d̪d̪d̪	-7.47353
kkkkkkkkkk	-7.47382
ɛɛɛɛɛɛ	-7.48017
llllllll	-7.48053
əəəəəəəəəə	-7.48464
ɫɫɫɫɫɫɫɫ	-7.48491
nnnn	-7.48953
ɚɚɚɚɚɚɚɚ	-7.48968
æææææææ	-7.48978
t	-7.4939
▁they	-7.49543
d̪d̪d̪d̪əəəə	-7.4958
ææææææææææææææ	-7.50213
djdjdjdjdjdjdj	-7.50915
▁from	-7.51188
tttt	-7.51353
pppppppp	-7.5179
mjmjmjmjmjmjmj	-7.52403
chchchchchch	-7.53327
▁has	-7.53965
e	-7.5435
bbbbbbbb	-7.55276
▁an	-7.55382
nnn	-7.55813
n	-7.55925
tttttttttttt	-7.56051
mmmm	-7.56293
nnnnnnnnnnnnnnn	-7.56542
bbbbb	-7.56635
ɪɪɪɪɪɪɪɪɪɪɪɪ	-7.56695
dddddddd	-7.57096
ɚɚɚɚɚɚɚ	-7.57372
ddd	-7.57721
ɹɹɹɹɹɹɹɹɹɹɹɹɹ	-7.5816
ɹɹɹɹ	-7.58915
əəəəəəəəəəəəəəəə	-7.58959
n̪	-7.58991
bjbjbjbjbjbjbjbj	-7.59138
▁have	-7.59219
ɑɑɑɑɑɑɑɑ	-7.59719
iiiiiii	-7.59807
djdjdjdjdjdj	-7.59812
ʃʃʃʃʃʃʃʃʃʃʃʃʃ	-7.60224
vvvvvvvv	-7.60274
djdjdjdjdjdjdjdj	-7.60514
ʃʃʃʃʃʃʃʃʃʃʃʃ	-7.6084
mmmmmmmmmmm	-7.61185
dddd	-7.61488
ffffffffffffff	-7.62121
ɔjɔjɔjɔjɔjɔjɔjɔj	-7.62273
▁her	-7.62352
lllllll	-7.62359
ɚɚɚɚɚɚɚɚɚɚ	-7.62806
ddddd	-7.63794
d	-7.64654
d̪d̪d̪d̪d̪əəəə	-7.65017
ɛɛɛɛɛɛɛɛɛɛɛ	-7.6526
ɚɚɚɚɚɚɚɚɚ	-7.65482
ɛɛɛɛɛ	-7.65835
ɚɚɚɚɚɚɚɚɚɚɚ	-7.66194
ttttttttttttt	-7.66247
ʃʃʃʃʃʃʃʃʃʃʃʃʃʃ	-7.66345
zzzzz	-7.66766
ddddddd	-7.66926
ɑɑɑɑɑɑɑɑɑɑ	-7.66969
vvvvvvv	-7.67083
▁had	-7.67521
kkkkkkkkkkk	-7.67521
fjfjfjfjfjfjfj	-7.67581
əəəəəəəəəəə	-7.68058
bjbjbjbjbjbjbj	-7.68094
dddddd	-7.68573
ppppppp	-7.68814
bbbbbbb	-7.68885
y	-7.69299
ʃʃʃʃʃʃʃʃʃʃʃ	-7.69463
ɐɐɐɐɐɐɐɐɐ	-7.69583
ly	-7.6984
nnnnnnnnnnnnnnnn	-7.70814
ɐɐɐɐ	-7.70921
ɚɚɚɚɚɚɚɚɚɚɚɚ	-7.7095
ɫɫɫɫɫɫɫ	-7.71191
ɫɫɫɫɫɫɫɫɫ	-7.71977
owowow	-7.72172
ɑɑɑɑɑɑɑɑɑɑɑ	-7.72331
bbbbbb	-7.73159
ɚɚɚɚɚɚɚɚɚɚɚɚɚɚ	-7.73284
θθθθθθθθ	-7.73608
ɹɹɹ	-7.73635
wwwwwwww	-7.73647
əəəəəəəəəəəəəə	-7.73759
ɹɹɹɹɹɹɹɹɹɹɹɹɹɹ	-7.74088
ɫɫɫɫɫɫɫɫɫɫɫɫ	-7.74228
ɚɚɚ	-7.74344
ɫɫɫɫɫɫɫɫɫɫ	-7.74513
ppppppppp	-7.747
əəəəəəəəəəəəəəə	-7.75255
ɫɫɫɫɫɫɫɫɫɫɫ	-7.75275
iiiiiiiiiii	-7.7531
▁you	-7.75361
ɚɚɚɚɚɚɚɚɚɚɚɚɚ	-7.75598
əəəəəəəəəəəə	-7.7605
iiiiiiiiiiii	-7.7642
ɫɫɫɫɫɫɫɫɫɫɫɫɫ	-7.77613
vvvvv	-7.7779
ejejej	-7.77825
fffffff	-7.78118
ɫɫɫɫɫɫɫɫɫɫɫɫɫɫ	-7.7883
tttttttttttttt	-7.7892
ssssss	-7.79193
ɑɑɑɑɑɑɑɑɑ	-7.79353
t̪t̪t̪t̪t̪t̪t̪t̪	-7.79414
▁one	-7.79552
d̪d̪d̪d̪əəə	-7.79588
ɚɚɚɚɚɚ	-7.7964
kkkkkk	-7.79783
vvvvvv	-7.801
əəəəəəəəəəəəə	-7.80107
▁there	-7.80156
æææææææææææææææ	-7.80404
ɑɑɑɑɑɑɑ	-7.8069
ɝɝɝɝɝɝɝɝɝɝ	-7.80896
iiiiii	-7.81045
fjfjfjfjfjfj	-7.81221
▁but	-7.81226
iiiiiiiiii	-7.81843
ɑɑɑɑɑɑɑɑɑɑɑɑ	-7.8205
ɚɚɚɚɚɚɚɚɚɚɚɚɚɚɚ	-7.823
mmm	-7.82365
d̪d̪d̪d̪	-7.82396
ææææææ	-7.82526
ɚɚɚɚɚ	-7.82703
ɪɪɪɪɪɪɪɪɪɪɪɪɪ	-7.82768
phphphph	-7.82891
ɝɝɝɝɝɝɝɝɝ	-7.83723
dʒdʒdʒ	-7.83833
mmmmmmmmmmmm	-7.84463
iiiiiiiiiiiii	-7.84476
iiiiiiiiiiiiii	-7.84586
dʒdʒdʒdʒdʒ	-7.84926
kkkkkkkkkkkk	-7.85244
pjpjpjpjpjpjpjpj	-7.85266
ɝɝɝɝɝɝɝɝɝɝɝ	-7.85492
khkhkhkhkh	-7.86927
tʃtʃtʃtʃ	-7.87237
d̪d̪d̪d̪d̪əəə	-7.8725
ɫɫɫɫɫɫɫɫɫɫɫɫɫɫɫ	-7.87308
d̪d̪d̪d̪əəəəə	-7.87418
ɚɚɚɚɚɚɚɚɚɚɚɚɚɚɚɚ	-7.88042
iiiii	-7.88317
vvvv	-7.88381
ɛɛɛɛɛɛɛɛɛɛɛɛ	-7.88698
wwwwwwwww	-7.89135
▁all	-7.89534
er	-7.90128
ɫɫɫɫɫɫ	-7.90421
ajajajaj	-7.90759
ɚɚɚɚ	-7.90894
ʃʃʃʃʃʃʃʃʃʃ	-7.91111
llllll	-7.9166
wwwwwwwwww	-7.91701
ʊʊʊ	-7.92169
bbbb	-7.92637
ɝɝɝɝɝɝɝɝ	-7.92856
s̪s̪s̪s̪s̪s̪s̪s̪	-7.93094
pppppppppp	-7.94101
ɛɛɛɛ	-7.9437
fffffffffffffff	-7.94687
ɫɫɫɫɫ	-7.95177
nnnnnnnndd	-7.95305
iiiiiiiiiiiiiii	-7.95665
ɝɝɝɝɝɝɝɝɝɝɝɝ	-7.96026
mjmjmjmjmjmj	-7.96849
bbbbbbbbb	-7.97096
wwwwwww	-7.97506
djdjdjdjdj	-7.97593
ɐɐɐɐɐɐɐɐɐɐ	-7.97764
ɑɑɑɑɑɑɑɑɑɑɑɑɑ	-7.98172
ɐɐɐ	-7.98199
▁two	-7.98449
awawawawaw	-7.98673
?	-7.99121
d̪d̪d̪d̪d̪d̪əəəə	-7.99597
thththth	-7.9973
ɛɛɛ	-7.99758
ʃʃʃʃʃʃʃʃʃʃʃʃʃʃʃ	-7.99912
n̩n̩n̩n̩n̩n̩n̩n̩	-7.99944
ɹɹɹɹɹɹɹɹɹɹɹɹɹɹɹ	-8.00061
ttttttttttttttt	-8.00137
ɡɡɡɡɡɡɡ	-8.004
ʊʊʊʊ	-8.00407
ɫɫɫɫɫɫɫɫɫɫɫɫɫɫɫɫ	-8.01157
ɫɫɫ	-8.01559
t̪t̪t̪t̪t̪t̪t̪	-8.02155
ɡɡɡɡɡɡɡɡ	-8.02609
ɪɪɪɪɪɪɪɪɪɪɪɪɪɪ	-8.0286
ɑɑɑɑɑɑ	-8.02929
▁been	-8.03094
iiiiiiiii	-8.03385
▁their	-8.03906
kkkkkkkkkkkkk	-8.04007
ðððððððððððððððð	-8.04908
▁we	-8.05241
es	-8.05508
ajajaj	-8.05589
ææææææææææææææææ	-8.06219
ʊʊʊʊʊ	-8.06397
▁or	-8.07177
sssss	-8.07366
lllll	-8.07991
wwwwwwwwwww	-8.08355
ɝɝɝɝɝɝɝɝɝɝɝɝɝ	-8.09157
▁no	-8.09459
pppppp	-8.10207
sss	-8.11235
ɫɫɫɫ	-8.11285
lllllllll	-8.11472
ppppp	-8.11489
mmmmmmmmmmmmm	-8.12378
d̪d̪d̪d̪d̪əəəəə	-8.12555
tttttttttttttttt	-8.12759
vvvvvvvvv	-8.14101
t̪t̪t̪t̪t̪t̪	-8.15245
ɑɑɑɑɑ	-8.1536
æææææ	-8.15794
▁its	-8.16002
ɑɑɑɑɑɑɑɑɑɑɑɑɑɑ	-8.16087
▁can	-8.16816
ʃʃʃʃʃʃʃʃʃ	-8.16874
ɛɛɛɛɛɛɛɛɛɛɛɛɛ	-8.17374
d̪d̪d̪d̪i	-8.18635
zzz	-8.19611
bjbjbjbjbjbj	-8.19671
vvv	-8.20056
ɒɒɒɒɒɒɒɒɒɒɒɒ	-8.20391
s̪	-8.20757
hhhhhhhhhh	-8.20806
hhhhhhhhhhh	-8.2116
ɡɡɡɡɡɡ	-8.21202
d̪d̪d̪d̪d̪i	-8.21305
t̪t̪t̪t̪t̪	-8.21606
ɒɒɒɒɒɒɒɒɒɒɒ	-8.21861
ddddddddd	-8.21899
chchchchch	-8.2198
ɹɹɹɹɹɹɹɹɹɹɹɹɹɹɹɹ	-8.22361
hhhhhhhhh	-8.22482
pjpjpjpjpjpjpj	-8.22808
θθθθθθθθθ	-8.22947
ɲɲɲɲɲɲɲɲ	-8.23237
ʃʃʃʃʃʃʃʃ	-8.2333
əəənnn	-8.23958
θθθθθθθ	-8.24175
d̪d̪d̪d̪d̪d̪əəə	-8.2466
d̪d̪d̪əəəə	-8.24707
▁him	-8.24979
ppppppppppp	-8.25131
wwwwwwwwwwww	-8.25859
bbbbbbbbbb	-8.26165
ɔjɔjɔjɔjɔjɔjɔj	-8.26231
ʃʃʃʃʃʃʃʃʃʃʃʃʃʃʃʃ	-8.26233
ffffffffffffffff	-8.26504
θθθθθθθθθθ	-8.26851
llll	-8.27299
d̪d̪d̪əəə	-8.273
m	-8.27509
d̪d̪d̪	-8.27538
ɝɝɝɝɝɝɝɝɝɝɝɝɝɝ	-8.27733
kkkkkkkkkkkkkk	-8.2795
▁first	-8.27995
ɪɪɪɪɪɪɪɪɪɪɪɪɪɪɪ	-8.28031
ʊʊʊʊʊʊ	-8.28133
æææ	-8.28671
ffffff	-8.28695
kkkkk	-8.28951
hhhhhhhh	-8.29008
▁these	-8.29307
ɒɒɒɒɒɒɒɒɒɒ	-8.29322
nnnnnnndd	-8.29374
ɐɐɐɐɐɐɐɐɐɐɐ	-8.29556
llllllllll	-8.30283
ɒɒɒɒɒɒɒɒɒɒɒɒɒ	-8.30603
r	-8.30806
vjvjvjvjvjvjvj	-8.32582
▁after	-8.33111
zzzz	-8.3328
vjvjvjvjvjvjvjvj	-8.3334
t̪s̪t̪s̪t̪s̪t̪s̪	-8.33368
ɑɑɑ	-8.33535
▁will	-8.34437
sssssssstttttt	-8.34599
mmmmmmmmmmmmmm	-8.35172
ɑɑɑɑ	-8.35546
ɑɑɑɑɑɑɑɑɑɑɑɑɑɑɑɑ	-8.35793
▁some	-8.35975
▁other	-8.36024
▁so	-8.36468
▁time	-8.36517
s̪s̪s̪s̪s̪s̪s̪	-8.37908
ɒɒɒɒɒɒɒɒɒɒɒɒɒɒ	-8.38177
ɲɲɲɲɲɲɲ	-8.38232
ɛɛɛɛɛɛɛɛɛɛɛɛɛɛ	-8.38678
vvvvvvvvvv	-8.38877
bjbjbjbjbj	-8.3904
θθθθθθθθθθθ	-8.39652
wwwwww	-8.39886
www	-8.39966
!	-8.40034
hhhhhhhhhhhh	-8.40133
ʔʔʔʔʔʔʔʔ	-8.4032
ɑɑɑɑɑɑɑɑɑɑɑɑɑɑɑ	-8.40608
pppppppppppp	-8.40648
▁new	-8.40719
əəəɫɫɫ	-8.40766
ssss	-8.40854
ææææ	-8.41444
ɒɒɒɒɒɒɒɒɒɒɒɒɒɒɒɒ	-8.42164
dʒdʒdʒdʒ	-8.43035
▁up	-8.4312
dddddddddd	-8.43264
fffff	-8.44496
ɲ	-8.45114
al	-8.45212
▁would	-8.45371
lll	-8.45505
;	-8.46305
ɾɾɾɾɾ	-8.46522
ʊʊʊʊʊʊʊ	-8.46561
n̪n̪n̪n̪n̪n̪n̪n̪	-8.4715
▁which	-8.47423
pppp	-8.47468
ɪɪɪɪɪɪɪɪɪɪɪɪɪɪɪɪ	-8.47491
n̪n̪n̪n̪n̪n̪n̪	-8.47942
a	-8.48322
ɝɝɝɝɝɝɝɝɝɝɝɝɝɝɝ	-8.48497
ɲɲɲɲɲɲ	-8.48655
əəəənnnnnnnn	-8.4869
vjvjvjvjvjvj	-8.4905
bbbbbbbbbbb	-8.49181
lllllllllll	-8.49496
tjtjtjtj	-8.49663
▁into	-8.50129
▁then	-8.50216
kkk	-8.50822
▁many	-8.50907
ppppppppppppp	-8.50941
▁out	-8.51015
nnnnnnnnndd	-8.51054
ɝɝɝɝɝɝɝ	-8.51176
ɡɡɡɡɡ	-8.51185
kkkkkkkkkkkkkkk	-8.51418
th	-8.51681
▁my	-8.52124
əəəənnnnn	-8.52179
tʃtʃtʃ	-8.5261
wwwwwwwwwwwww	-8.52734
ɾɾɾɾɾɾ	-8.52755
əəəəənnnnnnnn	-8.53031
▁me	-8.53368
wwww	-8.53603
θθθθθθ	-8.53887
ʊʊʊʊʊʊʊʊ	-8.53988
θθθθθθθθθθθθ	-8.54373
▁do	-8.54783
ffff	-8.54897
ɔjɔjɔjɔjɔjɔj	-8.5508
əəəənnnnnnn	-8.55641
▁ççççççççi	-8.5575
əəənnnnn	-8.5592
mmmmmmmmmmmmmmm	-8.56026
ʔʔʔ	-8.56038
▁said	-8.56078
əəənnnn	-8.56309
əəəənnnnnn	-8.57016
ʔʔʔʔʔʔʔ	-8.57355
ɒɒɒɒɒɒɒɒɒɒɒɒɒɒɒ	-8.5736
ɲɲɲɲɲ	-8.57375
kwkwkwkwkwkwkwkw	-8.57672
▁only	-8.57705
ɪɪɪɪɪɪɪɪdd	-8.57874
wwwww	-8.57941
s̪s̪s̪s̪s̪s̪	-8.57983
d̪d̪d̪əəəəə	-8.58007
▁.	-8.58588
▁more	-8.58873
cccccccc	-8.59069
▁when	-8.59132
sjsjsjsjsjsjsjsj	-8.5919
▁three	-8.59928
▁d̪d̪d̪d̪	-8.60014
ddddddddddd	-8.60244
▁however	-8.60245
d̪d̪d̪d̪əəəəəə	-8.60303
ɐɐɐɐɐɐɐɐɐɐɐɐ	-8.60604
bbb	-8.60934
vvvvvvvvvvv	-8.6159
əəənnnnnn	-8.61767
ʎʎʎʎʎʎʎ	-8.62057
hhhhhhh	-8.62783
khkhkhkh	-8.62932
n̪n̪n̪n̪n̪n̪	-8.6338
hhhhhhhhhhhhh	-8.64136
ŋŋŋŋŋŋŋŋŋŋ	-8.64553
ɾɾɾɾɾɾɾ	-8.65513
ʉʉʉʉʉʉʉʉ	-8.65569
ɛɛɛɛɛɛɛɛɛɛɛɛɛɛɛ	-8.65751
ʔʔʔʔʔ	-8.66481
ɾɾɾɾ	-8.66622
o	-8.66711
əəəəəənnnnnnnn	-8.6714
ɡɡɡɡɡɡɡɡɡ	-8.67187
▁them	-8.67536
kkkk	-8.67779
▁most	-8.68337
pjpjpjpjpjpj	-8.68438
θθθθθ	-8.68517
▁what	-8.68817
ɝɝɝɝɝɝɝɝɝɝɝɝɝɝɝɝ	-8.68825
▁school	-8.6892
kkkkkkkkkkkkkkkk	-8.69172
əəənnnnnnnn	-8.69323
▁very	-8.69728
ssssssssttttttt	-8.69795
ɪɪɪɪɪɪɪɪzzzzzzzz	-8.6987
nnnnnnnnnndd	-8.70038
nnnnnndd	-8.70055
ŋŋŋŋŋŋŋŋŋ	-8.70193
əəəəənnnnnnn	-8.70196
phphph	-8.70243
▁later	-8.70467
ɲɲɲɲ	-8.70594
djdjdjdjdjɪɪɪɪ	-8.70619
əəənnnnnnn	-8.70771
▁man	-8.70939
t̪t̪t̪t̪	-8.7101
d̪d̪d̪d̪d̪əəəəəə	-8.71037
ɲɲɲɲɲɲɲɲɲ	-8.7119
ŋŋŋŋŋŋŋŋŋŋŋ	-8.71201
ssssssssttttt	-8.71221
▁used	-8.71375
ʎʎʎʎʎʎʎʎ	-8.71694
▁в	-8.72163
əəəənnnn	-8.72405
ɪɪɪɪɪɪɪɪnnnnnnnn	-8.72621
ʔʔʔʔ	-8.72826
ɒɒɒɒɒɒɒɒɒ	-8.73392
p	-8.74191
θθθθθθθθθθθθθ	-8.74255
▁over	-8.74546
▁re	-8.74646
▁now	-8.74713
ʃʃʃʃʃʃʃ	-8.76352
əəəəəəəənnnnnnnn	-8.76541
▁about	-8.76604
fff	-8.76648
vvvvvvvvvvvv	-8.76661
əəəəəəənnnnnnnn	-8.77063
ɪɪɪɪɪɪɪzzzzzzzz	-8.77249
▁did	-8.77573
mmmmmmmmmmmmmmmm	-8.78208
ththth	-8.7844
ccccccccc	-8.78841
ɾɾɾɾɾɾɾɾ	-8.78854
əəəəənnnnnn	-8.79718
bbbbbbbbbbbb	-8.79948
ŋŋŋŋŋŋŋŋŋŋŋŋ	-8.80329
ʔʔʔʔʔʔ	-8.80349
llllllllllll	-8.80408
▁who	-8.80589
ccccccc	-8.81712
pppppppppppppp	-8.8185
sssssssssstttttt	-8.82182
s̪s̪s̪s̪s̪	-8.82337
▁both	-8.82463
n̪n̪n̪n̪n̪	-8.83019
ɒɒɒɒɒɒɒɒɹɹɹɹɹɹɹɹ	-8.83053
dddddddddddd	-8.83093
ɐɐɐɐɐɐɐɐɐɐɐɐɐ	-8.84771
▁well	-8.85069
▁may	-8.85331
ʎʎʎʎʎʎ	-8.85456
ers	-8.85573
ɾɾɾ	-8.85589
c	-8.85796
ʔʔʔʔʔʔʔʔʔ	-8.85818
▁if	-8.86859
djdjdjdjdjɪɪɪɪɪ	-8.87053
▁'	-8.87055
əəəəɫɫɫɫɫɫɫɫ	-8.87382
▁çççççççi	-8.87602
g	-8.87758
▁made	-8.87921
jjjjjjjj	-8.88071
djdjdjdj	-8.88188
ssssssssstttttt	-8.8823
▁не	-8.8849
əəəəənnnnn	-8.88536
ɪɪɪɪɪɪɪdd	-8.88811
jjjjjjj	-8.8923
l	-8.89383
ŋŋŋŋŋŋŋŋŋŋŋŋŋ	-8.89559
▁several	-8.89703
or	-8.89835
wwwwwwwwwwwwww	-8.90015
sj	-8.90108
▁could	-8.90264
ɪɪɪɪɪɪɪɪnnnnnnn	-8.90738
cccccccccc	-8.90969
ɛɛɛɛɛɛɛɛɛɛɛɛɛɛɛɛ	-8.91357
θθθ	-8.91744
z̪z̪z̪z̪z̪z̪z̪z̪	-8.91783
chchchch	-8.91994
ch	-8.9206
jjjj	-8.92385
ʎʎʎʎʎʎʎʎiiiiiiii	-8.92736
ççççççççi	-8.92771
hhhhhhhhhhhhhh	-8.92866
re	-8.92901
▁during	-8.93387
ppp	-8.93395
▁city	-8.93627
ɲɲɲ	-8.93707
əəəəəənnnnnnn	-8.93838
nnnnndd	-8.94067
djdjdjdjdjɪɪɪ	-8.94468
ɪɪɪɪɪɪɪnnnnnnnn	-8.94675
eeeee	-8.94708
▁years	-8.94958
vvvvvvvvvvvvv	-8.95039
mjmjmjmjmj	-8.95243
ɪɪɪɪɪɪzzzzzzzz	-8.95489
ɹɹɹɪɪɪ	-8.95658
θθθθθθθθθθθθθθ	-8.96129
sssssssstttttttt	-8.96388
ʔʔʔʔʔʔʔʔʔʔ	-8.96882
▁people	-8.96933
ɪɪɪɪɪɪɪɪnnnnnn	-8.96957
ɡɡɡɡɡɡɡɡɡɡ	-8.97005
cwcwcwcwcwcwcwcw	-8.97225
jjjjjjjjʉ	-8.97244
djdjdjdjdjdjɪɪɪɪ	-8.9737
nnnnnnnnnnndd	-8.9747
▁на	-8.97493
ŋŋŋŋŋŋŋŋŋŋŋŋŋŋ	-8.97752
tjtjtjtjiiiiiiii	-8.97933
θθθθ	-8.98398
ɲɲɲɲɲɲɲɲɲɲ	-8.98478
ɪɪɪɪɪzzzzzzzz	-8.98751
ʉʉʉʉʉʉʉ	-8.99158
ɡɡɡɡ	-8.99286
əəəənnn	-8.99293
▁year	-8.99301
eeeeeeee	-8.99348
əəəəɫɫɫ	-8.99387
▁like	-8.99458
dddddddddddddddd	-8.99543
ɒɒɒɒɒɒɒɒ	-8.99994
t̪t̪t̪	-9.00681
ɪɪɪɪɪɪɪɪnnnnn	-9.00878
ssssssstttttt	-9.01258
▁çççççççççi	-9.01348
eeeeee	-9.01403
eeeeeee	-9.01572
thththththththʉ	-9.01576
jjjjj	-9.01709
əəəəənnnn	-9.01826
ɪɪɪɪɪɪɪɪzzzzzzz	-9.01916
djdjdjdjɪɪɪɪ	-9.02343
khkhkh	-9.02356
▁d̪d̪d̪d̪d̪əəəə	-9.03002
▁по	-9.03305
fjfjfjfjfj	-9.0341
ŋŋŋŋŋŋŋŋŋŋŋŋŋŋŋ	-9.04004
▁known	-9.04101
▁d̪d̪d̪d̪d̪əəə	-9.04148
▁work	-9.04311
▁d̪d̪d̪d̪d̪d̪əəə	-9.04601
jjjjjj	-9.04628
ɪɪɪɪɪɪnnnnnnnn	-9.04779
ʉʉʉʉʉʉʉʉʉʉʉʉʉʉʉʉ	-9.04819
dj	-9.04856
əəəəvvvvvvvv	-9.04902
aaaaaaaa	-9.04962
eeee	-9.0499
sjsjsjsjsjsjsj	-9.05339
vjvjvjvjvj	-9.05439
ddddddddddddd	-9.0569
əəəəəənnnnnn	-9.05784
ɪɪɪɪɪɪɪnnnnnnn	-9.05855
jjj	-9.06291
ion	-9.06875
ɪɪɪɪɪɪɪɪɪdd	-9.0717
ʎʎʎʎʎ	-9.07179
n̩n̩n̩n̩n̩n̩n̩	-9.07309
▁un	-9.0744
əəəəvvvvv	-9.07481
hhhhhh	-9.07778
ɔɔɔɔɔ	-9.07987
е	-9.08115
ðððð	-9.08595
ɪɪɪɪɪɪɪzzzzzzz	-9.08714
ɪɪɪɪɪɪɪnnnnnn	-9.08869
əəəəvvvvvv	-9.0922
b	-9.09458
əəəəəvvvvvvvv	-9.09504
æææææææænnnnn	-9.09514
tjtjtjtjtjtjɪɪɪ	-9.09521
▁than	-9.0961
tjtjtjɪɪɪ	-9.09624
ɔɔɔɔɔɔ	-9.10166
ɪɪɪɪɪɪɪnnnnn	-9.10266
▁each	-9.10336
ɪɪɪɪɪɪnnnnnnn	-9.10382
æææææææænnnnnnnn	-9.10505
▁part	-9.10604
ɪɪɪɪɪnnnnnnnn	-9.10607
djdjdjdjɪɪɪɪɪ	-9.10825
djdjdjdjdjɪɪɪɪɪɪ	-9.10969
ɡɡɡ	-9.10984
▁de	-9.11016
əəəəvvvvvvv	-9.11067
ccccccccccc	-9.11197
sssssssssttttttt	-9.11303
▁became	-9.11367
əəəəəəəənnnnnnn	-9.11424
əəəəəəənnnnnnn	-9.11468
tjtjtjtjtjtjɪɪɪɪ	-9.11878
▁war	-9.1188
ddddddddddddddd	-9.11955
ɪɪɪɪɪŋŋŋŋŋŋŋŋ	-9.12113
ɐɐɐɐɐɐɐɐɐɐɐɐɐɐ	-9.12204
ppppppppɹɹɹɹ	-9.12383
ɪɪɪɪɪnnnnnnn	-9.12414
ation	-9.12448
kwkwkwkwkwkwkw	-9.12575
▁such	-9.12693
▁name	-9.12699
əəəəɫɫɫɫɫɫɫ	-9.12746
▁any	-9.12806
vvvvvvvvvvvvvv	-9.13259
ɪɪɪɪɪnnnnnn	-9.13344
▁before	-9.1341
▁four	-9.1349
sssssssssttttt	-9.13521
djdjdjdjdjdjɪɪɪ	-9.13664
ɪɪɪɪɪɪŋŋŋŋŋŋŋŋ	-9.14158
▁through	-9.14334
▁ɪɪɪɪɪɪɪɪ	-9.14693
▁good	-9.14729
ʔʔʔʔʔʔʔʔʔʔʔ	-9.14871
tjtjtjtjɪɪɪɪɪɪɪɪ	-9.14916
ɔɔɔɔɔɔɔ	-9.14973
▁go	-9.15099
ic	-9.15465
jjjjjjjjj	-9.15555
ɪɪɪɪɪɪnnnnnn	-9.15575
əəəəɫɫɫɫɫɫ	-9.15824
n̪n̪n̪n̪	-9.15908
▁day	-9.15929
djdjdjdjɪɪɪɪɪɪɪ	-9.16308
w	-9.16798
▁back	-9.16867
əəəəɫɫɫɫɫ	-9.17046
z̪z̪z̪z̪z̪z̪z̪	-9.17134
▁high	-9.1737
ŋŋŋŋŋŋŋŋ	-9.17472
d̪d̪d̪d̪əəəəəəə	-9.17669
əəəəəənnnnn	-9.17706
▁long	-9.17983
aaaaaaa	-9.18138
tjtjtjtjtjɪɪɪɪɪ	-9.18344
ɹɹɹɹɹɹɹɹiiiiiiii	-9.1837
kwkwkwkwkwkw	-9.1847
tjtjtjtjtjɪɪɪɪ	-9.18541
æææææææænnnnnn	-9.1864
st	-9.18752
bbbbbbbbbbbbb	-9.18773
θθθθθθθθθθθθθθθ	-9.18852
hhh	-9.18872
əəəəəvvvvvvv	-9.18941
dddddddddddddd	-9.1896
lllllllllllll	-9.1906
ɪɪɪɪɪɪnnnnn	-9.19315
tjtjtjtjɪɪɪɪɪɪɪ	-9.19403
sjsjsjsjsjsj	-9.19432
əəəəɫɫɫɫ	-9.19556
ɪɪɪɪɪɪɪŋŋŋŋŋŋŋŋ	-9.19593
æææææææænnnn	-9.19673
▁still	-9.19826
ʊʊʊʊʊʊʊʊʊ	-9.19865
▁и	-9.19889
əəəəəvvvvvv	-9.19964
əəəəəvvvvv	-9.20136
ɡɡɡɡɡɡɡɡɡɡɡ	-9.2038
▁ɪɪɪɪɪɪɪɪɪɪ	-9.20632
æææææææænnnnnnn	-9.20719
ɝɝɝɝɝɝ	-9.2091
n̩n̩n̩	-9.21014
ll	-9.2117
tjtjtj	-9.21515
▁area	-9.21579
ɔɔɔɔɔɔɔɔ	-9.21621
tjtjtjtjtjɪɪɪ	-9.21636
ththththththʊʊʊ	-9.21771
cccccc	-9.21777
ɟɟɟɟɟɟɟɟ	-9.21897
ɪɪɪɪɪɪzzzzzzz	-9.22015
▁university	-9.22073
f	-9.22119
ɪɪɪɪɪɪɪɪŋŋŋŋŋŋŋŋ	-9.22466
ɪ	-9.22725
ʉʉʉʉʉʉʉʉʉʉ	-9.22777
:	-9.22875
▁little	-9.22937
ɪɪɪɪɪnnnnn	-9.22991
▁never	-9.23111
ɟɟɟɟɟɟɟ	-9.23118
hhhhhhhhhhhhhhh	-9.23228
▁under	-9.23235
ððððð	-9.23751
əəəɫɫɫɫ	-9.2385
▁ɪɪɪɪɪɪɪɪɪ	-9.2391
thththʊʊʊ	-9.24258
▁home	-9.24391
▁ççççççççççi	-9.24421
▁ððððððððððððððð	-9.24472
cccccccccccc	-9.24485
я	-9.24613
ssssssssssttttt	-9.24726
▁down	-9.24869
▁town	-9.24943
k	-9.25056
ŋŋŋŋŋŋŋŋŋŋŋŋŋŋŋŋ	-9.25114
əəəəəəənnnnnn	-9.25445
twtwtwtwtwtwtwtw	-9.25502
jjjjjjjjjj	-9.25761
ppppppppppppppp	-9.25809
j	-9.2594
an	-9.26175
cwcwcwcwcwcwcw	-9.26206
ɪɪɪnnn	-9.26242
əəəəəəəəvvvvvvvv	-9.26298
nnnnnnnnnnnndd	-9.26302
wwwwwwwwwwwwwww	-9.26433
▁life	-9.26762
▁just	-9.26803
ɒɒɒɒɒɒɒɹɹɹɹɹɹɹɹ	-9.26815
əəəəəəəənnnnnn	-9.26884
əəəənnnnnnnnn	-9.26944
djdjdjdjɪɪɪɪɪɪɪɪ	-9.27128
ɪɪɪɪnnnnnnnn	-9.27443
on	-9.27868
ʉʉʉʉʉʉ	-9.28055
ɔjɔjɔjɔjɔj	-9.28067
sssssssttttttt	-9.28379
hhhhh	-9.28535
djdjdjdjɪɪɪɪɪɪ	-9.28551
thththʉ	-9.28555
ɪɪɪɪɪɪɪɪnnnn	-9.28658
əəəəənnnnnnnnn	-9.28682
ɲɲɲɲɲɲɲɲɲɲɲ	-9.2892
awawawaw	-9.28946
ɒɒɒɒɒɒɒɒɹɹɹɹɹɹɹ	-9.28994
▁see	-9.29199
ʉʉʉʉʉʉʉʉʉʉʉ	-9.29436
▁same	-9.29681
ʎʎʎʎʎʎʎʎi	-9.29892
й	-9.3019
▁world	-9.30313
ɪɪɪɪnnnnnnn	-9.30406
ʎʎʎʎ	-9.30528
ɪɪɪɪnnnnn	-9.30614
ððð	-9.30643
le	-9.3085
ʃʃʃʃʃʃʃʃʃʃʃʃəəə	-9.30875
əəəəəəvvvvvvvv	-9.31027
ʔʔʔʔʔʔʔʔʔʔʔʔ	-9.31188
ɔɔɔɔ	-9.31209
ɪɪɪɪɪzzzzzzz	-9.31315
vvvvvvvvvvvvvvv	-9.3143
ɪɪɪɪnnnnnn	-9.31655
əəəɫɫɫɫɫɫɫɫ	-9.31878
▁state	-9.31993
tjtjtjtjɪɪɪɪ	-9.32045
▁much	-9.32093
ʉʉʉʉʉʉʉʉʉ	-9.32423
tttəəə	-9.32435
▁found	-9.32536
sssssssttttt	-9.32838
▁water	-9.33285
ɒɒɒɒɒɒɒɒɹɹɹɹ	-9.33314
sssssssssssttttt	-9.33496
tjtjtjtjtjɪɪɪɪɪɪ	-9.3369
ity	-9.33778
ʃʃʃʃʃʃʃʃʃʃʃʃʃəəə	-9.33952
ŋŋŋŋŋŋŋ	-9.33989
▁əəəəəəəə	-9.33992
jjjjjjjʉ	-9.34029
əəəɫɫɫɫɫ	-9.34183
ʃʃʃʃʃʃʃʃʃʃʃəəə	-9.34185
▁second	-9.34254
▁where	-9.34264
ɨɨɨɨ	-9.34371
tttttttəəəə	-9.34385
▁great	-9.34422
ccccccccccccc	-9.34484
ɛɛɛɛɛɛɛɛnnnnnnnn	-9.34697
ɒɒɒɹɹɹɹɹɹɹɹ	-9.34912
▁за	-9.34962
pppppppppɹɹɹɹ	-9.35005
djdjdjdjɪɪɪ	-9.35045
ɪɪɪɪɪŋŋŋŋŋŋŋ	-9.35421
ton	-9.35487
ttttttəəəə	-9.3558
ʊʊʊʊʊʊʊʊʊʊ	-9.35888
rrrrrr	-9.35941
ɪɪɪɪɪɪɪɪɪɪdd	-9.36206
oooooooo	-9.36582
ɹɹɹɹɹɹɹɹɪɪɪɪ	-9.36679
djdjdjdjiiiiiiii	-9.36802
tjtjtjtjɪɪɪɪɪ	-9.36862
▁often	-9.37016
▁named	-9.37091
▁county	-9.37124
▁must	-9.37306
çççççççi	-9.37429
ʉʉʉʉʉ	-9.37473
▁your	-9.37502
əəəəənnn	-9.37504
▁national	-9.37513
əəəənnnnnnnnnn	-9.37571
əəəɹɹɹ	-9.37584
ɹɹɹɹɹɹɹɹɪɪɪɪɪ	-9.37827
ɪɪɪɪɪɪɪnnnn	-9.37903
nnnndd	-9.38031
ɝɝɝ	-9.38135
ɪɪɪɪɪɪŋŋŋŋŋŋŋ	-9.38164
ttttttttəəəə	-9.38206
əəəəəəənnnnn	-9.38265
▁called	-9.38298
▁children	-9.38351
cwcwcwcwcwcw	-9.3853
əəəəmmmmmmmm	-9.38634
d̪d̪d̪əəəəəə	-9.38724
tj	-9.38732
x	-9.38758
θθθθθθθθθθθθθθθθ	-9.38766
əəəəəənnnn	-9.39147
tjtjtjtjɪɪɪ	-9.39216
▁əəəəəəə	-9.39321
▁should	-9.3954
ne	-9.39643
ɒɒɒɒɹɹɹɹɹɹɹɹ	-9.39815
mmmmmmmmejejejej	-9.40014
ɪɪɪɪŋŋŋŋŋŋŋŋ	-9.40034
djdjdjɪɪɪ	-9.40112
▁house	-9.40624
▁ɪɪɪɪɪɪɪɪɪɪɪ	-9.40693
ʃʃʃʃʃʃʃʃʃʃʃəəəə	-9.40766
us	-9.41066
ɪɪɪɪzzzzzzzz	-9.41175
▁being	-9.41451
n̩n̩n̩n̩n̩n̩	-9.41508
ʔʔʔʔʔʔʔʔʔʔʔʔʔ	-9.41628
əəəəəənnnnnnnnn	-9.41711
man	-9.41783
ɪɪɪɪɪnnnn	-9.41834
ththththʉ	-9.42091
jjjʉ	-9.42181
▁con	-9.42254
rrrrr	-9.42271
ðððððð	-9.42296
ɛɛɛɛɛɛɛɛnnnnnnn	-9.42315
ɹɹɹəəə	-9.42323
▁way	-9.42373
tjtjtjɪɪɪɪ	-9.42412
▁у	-9.42415
ve	-9.42428
ɛɛɛɛɛɛɛɛnnnnnn	-9.42454
ʃʃʃʃʃʃ	-9.42644
əəəəəəəvvvvvvvv	-9.42704
ɟɟɟɟɟɟ	-9.4274
ttttttttɹɹɹɹ	-9.4279
▁last	-9.43105
able	-9.43146
rrrr	-9.4328
ɒɒɒɒɒɒɹɹɹɹɹɹɹɹ	-9.43367
ry	-9.43398
▁five	-9.43423
ppppppppppɹɹɹɹ	-9.43445
▁ajajajajajajaj	-9.4361
tttttəəəə	-9.43663
ɒɒɒɒɒɒɒɒɹɹɹɹɹ	-9.43697
ooooooo	-9.43721
kwkwkwkwkw	-9.43751
vvvvvvvvvvvvvvvv	-9.44174
▁between	-9.44199
əəəəəəəənnnnn	-9.44326
ɾɾɾɾɾɾɾɾɾ	-9.44431
n̪n̪n̪	-9.44459
▁born	-9.44575
ðððððððð	-9.44863
ɒɒɒɒɒɒɒ	-9.44928
ɪɪɪɪɪɪnnnn	-9.44987
▁located	-9.45061
əəəəənnnnnnnnnn	-9.45114
ɒɒɒɒɒɒɒɒɹɹɹɹɹɹ	-9.45286
ʃʃʃʃʃʃʃʃʃʃʃʃəəəə	-9.45318
▁old	-9.45325
jjjjjjjjjjj	-9.45328
х	-9.45376
▁came	-9.4551
▁while	-9.45651
▁public	-9.45776
ththththththʉ	-9.45792
u	-9.45854
djdjdj	-9.45948
▁co	-9.45963
▁music	-9.45977
▁different	-9.46018
▁off	-9.46137
▁с	-9.46148
əəəvvvvvvvv	-9.46177
z̪z̪z̪z̪z̪z̪	-9.46351
▁own	-9.46449
ю	-9.46505
əəəəəəəəvvvvvvv	-9.46516
у	-9.46602
▁film	-9.46642
ʎʎʎʎʎʎʎʎʎʎʎʎʎ	-9.46842
ɐɐɐɐɐɐɐɐɐɐɐɐɐɐɐ	-9.46845
▁played	-9.46881
ɛɛɛɛɛɛɛɛnnnnn	-9.46888
ɒɒɒɒɒɹɹɹɹɹɹɹɹ	-9.4698
▁another	-9.47091
ʎʎʎʎʎʎʎʎʎ	-9.47153
sssssssstttt	-9.47153
pjpjpjpjpj	-9.47196
ɪɪɪɪɪɪdd	-9.47238
м	-9.47267
ʎʎʎʎʎʎʎʎʎʎʎ	-9.47726
ɲɲɲɲɲɲɲɲɲɲɲɲ	-9.47767
ððððððð	-9.47968
▁use	-9.48026
thththththʉ	-9.48234
ɹɹɹɹɹɹɹɪɪɪɪ	-9.48248
ʉʉʉʉʉʉʉʉʉʉʉʉ	-9.48297
▁ajajaj	-9.48416
əəəəəəənnnnnnnnn	-9.48485
ɪɪɪɪɪŋŋŋŋŋŋ	-9.48537
əəəəəəvvvvvvv	-9.48609
ɛɛɛɹɹɹ	-9.48722
▁number	-9.48735
bjbjbjbjbjiiiiii	-9.48783
əəəəəɫɫɫ	-9.48799
ɝɝɝɝɝ	-9.48975
▁place	-9.49079
▁our	-9.4926
ʎʎʎʎʎʎʎʎʎʎʎʎ	-9.49481
s̪s̪s̪s̪	-9.49701
tjtjtjɪɪɪɪɪ	-9.49702
eee	-9.4992
hhhh	-9.49995
▁end	-9.50662
əəəɫɫɫɫɫɫɫ	-9.50749
ли	-9.50821
▁north	-9.50856
▁south	-9.51147
ɪɪɪɪɪɪɪŋŋŋŋŋŋŋ	-9.51177
ɪɪɪɪɪɪɪzzzzzzzzz	-9.51216
ʎʎʎʎʎʎʎʎʎʎ	-9.51276
ɒɒɒɹɹɹɹɹɹɹ	-9.51306
▁come	-9.51341
ш	-9.51395
ɪɪɪɪɪdd	-9.5154
▁how	-9.51568
ʒʒʒʒʒʒʒʒ	-9.51569
ɫɫɫɫɫɫɫɫdd	-9.51586
ɪɪɪnnnnnnnn	-9.5163
▁game	-9.51648
▁here	-9.51725
▁album	-9.5193
▁small	-9.51997
jjjjjjjjjʉ	-9.52013
əəəəmmmmmmm	-9.5217
▁men	-9.52379
ar	-9.5256
əəəəənnnnnnnnnnn	-9.52667
te	-9.52888
jjjjjjjjjjjj	-9.53015
əəəvvvvvv	-9.53033
▁again	-9.53228
ɹɹɹɹɪɪɪɪ	-9.53263
əəəvvvvvvv	-9.53304
▁know	-9.53327
nnndd	-9.53405
ла	-9.53426
əəəɫɫɫɫɫɫ	-9.53446
ɒɒɒɒɒɒɒɹɹɹɹɹɹɹ	-9.53683
ɪɪɪnnnnn	-9.53692
chchchchejejejej	-9.53767
ɹɹɹɹɹɹɹɪɪɪɪɪ	-9.53777
ʉʉʉʉʉʉʉʉʉʉʉʉʉ	-9.5383
ɑɑɑɑɑɑɑɑɹɹɹɹɹɹɹɹ	-9.53904
tɕtɕtɕtɕtɕtɕtɕtɕ	-9.53912
▁too	-9.53942
▁make	-9.54096
▁college	-9.54114
▁family	-9.54199
əəəənnnnnnnnnnn	-9.54325
əəəvvvvv	-9.54375
ɪɪɪɪɪɪɪɪɪɪɪdd	-9.54411
ɪɪɪɪnnnn	-9.54637
в	-9.54769
▁don	-9.54835
əəəəəənnnnnnnnnn	-9.54896
llllllllejejejej	-9.54971
▁upon	-9.55096
awawaw	-9.55157
▁father	-9.55204
▁team	-9.55299
ɨɨɨɨɨ	-9.55307
jjjjjjjjjjjʉ	-9.55386
ra	-9.55434
əəəəvvvv	-9.55486
▁went	-9.55548
▁white	-9.55583
əəəəəəəəvvvvvv	-9.55764
jjjjjjjjjjjjjjjj	-9.55839
ɪɪɪnnnnnn	-9.55977
h	-9.55999
ththththʊʊʊ	-9.56025
ɪɪɪɪɪssssssss	-9.56291
ɪɪɪɪɪɪŋŋŋŋŋŋ	-9.56306
ɪɪɪnnnn	-9.56469
t̪s̪t̪s̪t̪s̪	-9.56619
▁am	-9.56652
ɟɟɟɟɟɟɟɟɟ	-9.56664
ssssssstttttttt	-9.56696
hhhhhhhhhhhhhhhh	-9.57103
bjbjbjbji	-9.57339
əəəəəmmmmmmmm	-9.57478
▁take	-9.5748
▁ɪɪɪɪɪɪɪ	-9.5753
tsjtsjtsjtsjtsj	-9.57568
ɹɹɹɹɹɪɪɪɪ	-9.57582
əəəəəəvvvvvv	-9.57609
ɹɹɹɪɪɪɪ	-9.57757
jjjjjjjjjjʉ	-9.57785
ɪɪɪnnnnnnn	-9.57813
ccccc	-9.58025
ɾɾɾɾɾɾɾɾɾɾ	-9.58285
əəəənnnnnnnnnnnn	-9.58324
ɡɡɡɡɡɡɡɡɡɡɡɡ	-9.58358
▁local	-9.5848
ʎʎʎʎʎʎʎʎɪɪɪɪ	-9.5871
ɛɛɛɛɛɛɛnnnnn	-9.58817
thththththʊʊʊ	-9.58922
и	-9.58929
vvvvvvvvdd	-9.58977
bbbbbbbbbbbbbb	-9.58978
cccccccccccccc	-9.59014
əəənnnnnnnnn	-9.59027
▁river	-9.59041
əəəəphphphphphph	-9.59119
▁took	-9.59278
ʃʃʃʃʃʃʃʃʃʃəəəə	-9.59285
əəənnnnnnnnnnn	-9.59286
ʎʎʎʎʎʎʎʎiiiiiii	-9.59319
wwwwwwwwwwwwwwww	-9.59413
əəəəəəvvvvv	-9.59447
əəəəkhkhkhkhkhkh	-9.59542
ttttəəəə	-9.59562
ʎʎʎ	-9.59627
ttttttttttɹɹɹɹ	-9.59674
ʔʔʔʔʔʔʔʔʔʔʔʔʔʔ	-9.59707
jjjjjjʉ	-9.59811
ɛɛɛɛɛɛɛnnnnnnnn	-9.59904
çççççççççi	-9.59992
ʎʎʎʎʎʎʎiiiiiiii	-9.60044
pppppppppppɹɹɹɹ	-9.6005
▁red	-9.60135
ʊʊʊʊʊʊʊʊʊʊʊ	-9.60141
d̪d̪d̪i	-9.60144
▁dd	-9.60443
▁since	-9.60458
ɝɝɝɝ	-9.60475
əəəəəəəvvvvvvv	-9.60544
aaaaaa	-9.60571
tjtjtjtjɪɪɪɪɪɪ	-9.60727
▁left	-9.60744
а	-9.6092
▁station	-9.60969
ʎʎʎʎʎiiiiiiii	-9.61034
əəəəəɫɫɫɫɫɫɫɫ	-9.6116
əəəmmmmmmm	-9.61215
tttttttttɹɹɹɹ	-9.61309
▁çççççççççççi	-9.61331
ent	-9.61444
ddejejejejejejej	-9.61489
ttttttttəəə	-9.61535
▁does	-9.61616
ɛɛɛɛɛɛɛnnnnnn	-9.61652
▁-	-9.6172
ɒɒɒɒɹɹɹɹɹɹɹ	-9.61887
rrrrrrr	-9.61921
ɪɪɪɪɪɪɪzzzzzz	-9.62012
▁following	-9.6211
bjbjbjbjbji	-9.62113
tjtjtjiiiiiiiiii	-9.62144
oooooo	-9.62197
▁çççççç	-9.62376
llllllllllllll	-9.62428
ppppppppɹɹɹɹɹ	-9.62592
▁park	-9.62656
▁even	-9.62657
▁ççççi	-9.62928
ɪɪɪɪɪɪɪɪɪnnnnnnn	-9.63029
ɪɪɪɪŋŋŋŋŋŋŋ	-9.63033
▁e	-9.63288
ɪɪɪɪɪɪɪɪzzzzzz	-9.63461
▁ɪɪɪɪɪɪɪɪɪɪɪɪ	-9.63565
▁black	-9.63588
tjtjtjtjtjiiiiii	-9.63716
▁play	-9.64172
əəəəəəənnnn	-9.64188
kkkkkkkkssssssss	-9.64291
wwwwwwɪɪɪɪɪ	-9.64347
▁large	-9.64365
ththththththʊʊʊʊ	-9.64371
ies	-9.6448
əəəmmmmmmmm	-9.64602
nnnnnnnnnnnnndd	-9.6465
lllllllejejejej	-9.65088
əəəəəphphphphph	-9.65225
pppppppppppppppp	-9.65231
ɟɟɟɟɟ	-9.65235
chchchchchejejej	-9.65276
ɛɛɛɛɛɛɛnnnnnnn	-9.65487
▁company	-9.65653
əəənnnnnnnnnn	-9.65745
ɹɹɹɹɹɹɪɪɪɪ	-9.65782
pjpjpjpj	-9.65875
▁group	-9.65909
ɒɒɒɒɒɒɒɒɹɹɹ	-9.65939
sssssstttttt	-9.66011
tttəəəə	-9.66035
▁young	-9.66163
ɛɛɛɛɛɛɛɛɹɹɹɹɹɹɹɹ	-9.66186
tɕtɕtɕtɕtɕ	-9.66196
ɪɪɪɪzzzzzzz	-9.66211
▁every	-9.66256
▁я	-9.66325
vjvjvjvj	-9.66443
ɟɟɟɟ	-9.66508
ʉʉʉʉʉʉʉʉʉʉʉʉʉʉ	-9.66526
ɪɪɪɪɪɪɪɪŋŋŋŋŋŋŋ	-9.66714
ɔɔɔ	-9.66806
▁d̪d̪d̪d̪d̪əəəəə	-9.66808
ɹɹɹɹɪɪɪ	-9.66857
ɑɑɑɹɹɹɹɹɹɹɹ	-9.66924
əəənnnnnnnnnnnnn	-9.66939
с	-9.67057
▁government	-9.67089
aaaaaaaaa	-9.67106
jjjjjjjjjjjjʉ	-9.6714
ɒɒɒɒɒɒ	-9.67205
wwwwwɪɪɪɪ	-9.67245
ɾɾɾɾɾɾɾɾɾɾɾ	-9.67288
ʎʎʎʎʎʎʎʎʎiiiiiii	-9.67367
▁main	-9.67531
▁think	-9.67589
zzzzzzzzəəəəə	-9.67603
▁served	-9.6766
tttttttəəə	-9.67676
twtwtwtwtwtwtw	-9.67763
▁within	-9.68018
▁won	-9.68039
son	-9.68227
ttttttəəə	-9.68239
ness	-9.68256
əəəəbbbbbbbb	-9.68298
▁began	-9.68365
ment	-9.68672
djdjdjɪɪɪɪ	-9.68737
əəəəəəəənnnn	-9.68764
əəəəəənnn	-9.68773
▁united	-9.6902
▁air	-9.6907
ɪɪɪɪɪɪssssssss	-9.6919
ŋŋŋŋŋŋ	-9.69278
kkkkkkkssssssss	-9.69423
el	-9.6943
ɫ̩ɫ̩ɫ̩ɫ̩ɫ̩ɫ̩ɫ̩ɫ̩	-9.6946
ɹɹɹɹɹɹɹɹɪɪɪɪɪɪ	-9.69502
uuuuuuuu	-9.69526
▁get	-9.6958
▁head	-9.69662
р	-9.69899
ssssssssttt	-9.6997
əəəəɫɫɫɫɫɫɫɫɫ	-9.70048
zzzzzzzəəəəə	-9.70149
kkkkkkssssssss	-9.70178
▁without	-9.70236
ææææææænnnnn	-9.70239
wwwwwwwwɪɪɪɪɪ	-9.70241
bjbjbjbjɪɪɪɪ	-9.70308
▁з	-9.70354
sjsjsjsjsj	-9.70742
əəənnnnnnnnnnnn	-9.7076
əəəəəvvvv	-9.70832
chchchejejejejej	-9.70957
▁right	-9.70987
ɪɪɪɪɪɪŋŋŋŋŋ	-9.71056
ææææææænnnnnnnn	-9.71123
▁received	-9.7115
▁band	-9.71367
jjjjʉ	-9.71694
▁show	-9.717
jjjjjʉ	-9.7173
▁west	-9.71774
▁light	-9.71833
ɛɛɛɛɛɛɛɛnnnn	-9.7191
ʔʔʔʔʔʔʔʔʔʔʔʔʔʔʔ	-9.71938
▁us	-9.71941
▁states	-9.72007
d̪d̪d̪d̪əəəəəəəə	-9.72082
uuuuuuu	-9.72215
ththththʉʉʉʉʉʉʉʉ	-9.72239
▁six	-9.72345
ted	-9.72367
de	-9.72433
ʊʊʊʊʊʊʊʊʊʊʊʊ	-9.72615
ɹɹɹɹɪɪɪɪɪ	-9.72643
ɪɪɪɪɪɪɪssssssss	-9.72685
əəəəəəəvvvvvv	-9.72714
wwwwwɪɪɪɪɪ	-9.7273
ɪɪɪɪɪŋŋŋŋŋ	-9.72742
ɒɒɒɒɒɒɒɹɹɹɹɹɹɹɹɹ	-9.72756
əəəəssssssssssss	-9.72806
ɒɒɒɒɒɒɹɹɹɹɹɹɹ	-9.72882
ɹɹɹɹɹɪɪɪɪɪ	-9.73027
▁church	-9.7307
ʎʎʎʎʎʎʎʎʎʎʎʎʎʎ	-9.73131
▁few	-9.73158
æææææææænnn	-9.73256
ɪɪɪɪɪɪɪŋŋŋŋŋŋ	-9.73327
ʎʎʎʎʎʎʎʎɪɪɪɪɪ	-9.73335
ççççççççççi	-9.73378
z̪z̪z̪z̪z̪	-9.73421
ɐɐɐɐɐɐɐɐɐɐɐɐɐɐɐɐ	-9.73588
ttttəəə	-9.73759
əəəəəəəəvvvvv	-9.73759
▁thought	-9.73818
ɹɹɹɹɹɹɹɹiiiiiii	-9.73894
ɒɒɒɒɒɒɒɹɹɹɹɹɹ	-9.73939
▁next	-9.74027
ɪɪɪɪɪɪɪɪɪɪɪɪdd	-9.74065
ate	-9.74261
tjtjtjɪɪɪɪɪɪ	-9.74263
tttttəəə	-9.74349
▁p	-9.74607
▁party	-9.74677
ɒɒɒɹɹɹɹɹɹ	-9.74721
ʎʎʎʎiiiiiiii	-9.74824
▁night	-9.75065
nnnnnnnnowowowow	-9.75089
ɑɑɑɑɑɑɑɑɹɹɹɹ	-9.75139
▁those	-9.75191
ɪɪɪŋŋŋŋŋŋŋŋ	-9.75339
ɒɒɒɒɒɒɒɒɒɹɹɹɹɹɹɹ	-9.75434
ɲɲɲɲɲiiiiiiii	-9.75441
ɒɒɒɒɒɹɹɹɹɹɹɹ	-9.75525
ɹɹɹɹɹɹɪɪɪɪɪ	-9.75603
ɲɲɲɲɲɲɲɲʉ	-9.75756
ɪɪɪɪɪɪɪɪɪnnnnnn	-9.75793
sssssssspppppppp	-9.75823
əəəəəɫɫɫɫ	-9.75844
djdjdjdjdjiiiiii	-9.75867
ɪɪɪɪɪkkkkkkkk	-9.75941
ææææææææænnnnn	-9.75962
▁dis	-9.75973
tɕ	-9.75998
wwwwwwwɪɪɪɪɪ	-9.76051
tjtjtjtjiiiiiii	-9.76065
əəəvvvv	-9.76276
ʎʎʎʎʎʎʎiiiiiii	-9.76289
əəəmmmmmm	-9.76308
əəəəsssssssssss	-9.7638
əəəəəsssssssssss	-9.76521
ɲɲɲɲɲɲɲɲɲɲɲɲɲ	-9.76535
əəəəthththththth	-9.76552
tttttttttttɹɹɹɹ	-9.76644
tjtjtjɪɪɪɪɪɪɪɪdd	-9.77115
pppppppɹɹɹɹ	-9.77203
əəəəmmmmmm	-9.77304
▁d̪d̪d̪d̪əəə	-9.77393
ʉʉʉʉʉʉʉʉʉʉʉʉʉʉʉ	-9.77403
bjbjbjbjbjɪɪɪɪ	-9.77492
z	-9.77588
▁song	-9.77686
jjjjjjjjjjjjj	-9.77783
ɪɪɪɪɪɪɪɪnnn	-9.77858
▁s	-9.77877
wwwɪɪɪ	-9.78045
ist	-9.78046
▁line	-9.7807
rrr	-9.78197
uuuuuu	-9.78211
ppppppppppppɹɹɹɹ	-9.78253
▁against	-9.78344
ɹɹɹɹɹɹɹiiiiiiii	-9.78423
ɪɪɪɪɪɪɪɪɪzzzzzzz	-9.78425
ɪɪɪɪɪɪzzzzzzzzz	-9.78455
ma	-9.78502
age	-9.78514
ttttttttssssssss	-9.78574
ɛɛɛɛɛɛɛnnnn	-9.78715
▁system	-9.78788
ʎʎʎʎʎʎiiiiiiii	-9.78793
ɪɪɪɪɪɪɪnnn	-9.78834
wwwwwwɪɪɪɪ	-9.78888
ʎʎʎʎʎʎʎʎiiiiii	-9.79031
ææææææænnnnnn	-9.79034
ppppppppllll	-9.79221
en	-9.79437
ɛɛɛɛɛɛɛɹɹɹɹɹɹɹɹ	-9.79712
djdjdjɪɪɪɪɪ	-9.79986
ææææææææænnnnnnn	-9.80025
ooooo	-9.80131
ɪɪɪɪnnn	-9.80142
ce	-9.80176
ɪɪɪɪɪzzzzzzzzz	-9.80203
wwwwɪɪɪɪ	-9.80244
ɨɨɨ	-9.80265
▁open	-9.80396
ɒɒɒɒɒ	-9.80509
▁american	-9.80768
ððððððððð	-9.80905
ʎʎʎʎʎʎʎi	-9.81017
▁series	-9.8111
ɒɒɒɒɒɒɒɒɒɹɹɹɹ	-9.81204
▁side	-9.81248
ejejejejmmmmmmmm	-9.81367
▁himself	-9.81418
ɛɛɛɛɛɛɛkkkkkkkk	-9.81701
ssssssttttttt	-9.81726
▁village	-9.81756
▁around	-9.81797
əəəəəəəvvvvv	-9.81831
jjjjjjjjjjjjjʉ	-9.81852
▁hand	-9.81854
ɒɒɒɒɒɒɒɹɹɹɹɹ	-9.81903
əəəəəththththth	-9.81989
ɟɟɟɟɟɟɟɟɟɟ	-9.8206
ɑɑɑɑɑɑɑɹɹɹɹɹɹɹɹ	-9.82088
t̪s̪	-9.8211
ææææææææænnnn	-9.82115
ʔʔʔʔʔʔʔʔʔʔʔʔʔʔʔʔ	-9.82212
llllllllajajajaj	-9.82232
▁pre	-9.82244
ɪɪɪɪɪɪzzzzzz	-9.82248
ççççççi	-9.82426
▁early	-9.82527
▁law	-9.82541
▁car	-9.82548
ʒʒʒʒʒʒʒʒʒ	-9.82556
kkkkkssssssss	-9.8257
na	-9.82661
ææææææænnnn	-9.82685
ine	-9.82725
ɲɲɲɲɲɲɲɲɪ	-9.82848
▁general	-9.82854
ɫɫɫɫɫɫɫɫɫɫɫdd	-9.82871
nnnnnnnowowowow	-9.82928
ɒɒɒɒɒɒɒɒɒɒɒɒɹɹɹɹ	-9.83097
▁include	-9.83101
▁best	-9.83354
▁short	-9.8344
ur	-9.83684
ɑɑɑɑɹɹɹɹɹɹɹɹ	-9.83726
ɒɒɒɒɒɒɒɹɹɹɹ	-9.83746
ʎʎʎʎʎiiiiiii	-9.83751
т	-9.83802
ææææææææænnnnnn	-9.83906
▁ssssssssssssss	-9.83913
▁currently	-9.83919
▁death	-9.83943
thththʊʊʊʊ	-9.84041
ɪɪɪɪɪɪnnn	-9.8411
əəəəɫɫɫɫɫɫɫɫɫɫ	-9.84172
▁book	-9.843
hhhhhhhhææææææææ	-9.84307
mmmmmmmmɛɛɛɛɛɛɛ	-9.84342
ʎʎʎʎʎʎʎiiiiiiiii	-9.84344
ɪɪɪɪɪnnn	-9.84387
ɔjɔjɔj	-9.84396
ɪɪɪɪɪsssssssss	-9.84422
ɛɛɛɛɛɛɛɛkkkkkkkk	-9.84485
▁set	-9.845
tttttttssssssss	-9.84619
▁o	-9.84637
▁до	-9.84675
▁times	-9.84731
▁form	-9.84737
ðððəəə	-9.84798
▁ççççç	-9.84811
ɫɫɫɫɫɫɫɫɫɫɫɫdd	-9.84917
wwwwwwwwɪɪɪɪ	-9.85153
æææææææææænnnnn	-9.85164
uuuuu	-9.85237
▁bbbbb	-9.85256
▁mother	-9.85319
bjbjbjbjɪɪɪɪɪ	-9.85457
▁son	-9.85464
ɪɪɪɪɪɪɪɪɪɪɪɪɪdd	-9.85492
ɫɫɫɫɫɫɫɫɫɫdd	-9.85569
▁away	-9.85695
bbbbbbbbbbbbbbb	-9.85742
ɲɲɲɲɪɪɪɪɪɪ	-9.85754
ææææææænnnnnnn	-9.85761
▁green	-9.85824
ejejejejzzzzzzzz	-9.85854
ɾɾɾɾɾɾɾɾɾɾɾɾ	-9.8589
əəəəəəənnn	-9.85991
ло	-9.86001
▁major	-9.86028
mmmmmmmmɛɛɛɛɛɛɛɛ	-9.86098
▁once	-9.86106
cccc	-9.86123
ro	-9.86139
əəəəssssssssss	-9.86168
▁among	-9.8627
ejejʃʃʃʃʃʃʃʃʃʃʃʃ	-9.8632
ʋʋʋʋʋʋʋʋ	-9.86394
ɪɪɪɪɪɪɪɪɪnnnnn	-9.86548
ɒɒɒɹɹɹɹɹ	-9.86553
▁service	-9.86597
ŋŋŋŋŋ	-9.86646
ɹɹɹɹɹɹɹɹɪɪɪɪɪɪɪ	-9.86777
ɫɫɫɫɫɫɫɫɫdd	-9.86809
twtwtwtwtwtw	-9.86913
ated	-9.87429
ʃʃʃʃʃʃʃʃʃʃʃəəəəə	-9.87621
ççççççççççç	-9.8763
к	-9.87635
▁sssssssssssss	-9.87753
ɒɒɒɹɹɹ	-9.87829
n̩n̩n̩n̩	-9.87836
tttttssssssss	-9.87949
▁pro	-9.88026
▁because	-9.88084
ч	-9.88128
jjjjjjjjjjjjjj	-9.88196
ɹɹɹɹɹʉ	-9.88287
▁mr	-9.8839
▁building	-9.88474
і	-9.88478
kkkkkkkkəəəə	-9.88603
▁per	-9.88623
bjbjbjbjbjbjiiii	-9.88655
ɟɟɟɟɟɟɟɟɟɟɟ	-9.88806
əəəəəəmmmmmmmm	-9.88836
ccc	-9.88841
▁season	-9.88937
ððððððððððððððð	-9.89038
æææææææææænnnnnn	-9.89221
bjbjbjbjiiiiiiii	-9.89274
ɲɲɲɲɪɪɪɪɪɪɪ	-9.89284
ive	-9.89297
▁free	-9.89318
ʎʎʎʎʎʎiiiiiii	-9.89389
ɪɪɪɪɪɪɪŋŋŋŋŋ	-9.89406
ɲɲɲɲɪɪɪɪɪ	-9.89523
ɪɪɪɪɪɪɪsssssssss	-9.89604
sssssssssssɪɪɪɪɪ	-9.89736
▁soon	-9.89759
▁wwwwwwww	-9.89769
ddd̪d̪d̪d̪d̪d̪d̪	-9.8999
▁wwwwwww	-9.89997
zzzzzzzzəəəəəə	-9.90077
əəəəəɫɫɫɫɫɫɫ	-9.90094
hhhhhhhhæææææææ	-9.90111
ɹɹɹɹɹɹɹɪɪɪɪɪɪ	-9.90172
ɪɪɪɪɪɪɪɪɪɪɪɪɪɪdd	-9.90173
ɹɹɹɹɹiiiiiiii	-9.90214
▁common	-9.90327
ɒɒɒɒɒɒɒɒɒɒɹɹɹɹ	-9.90432
ck	-9.90462
▁east	-9.90491
ка	-9.90511
zzzzzzzəəəəəə	-9.90555
ʎʎʎʎʎʎʎɪɪɪɪ	-9.90746
əəəəəɫɫɫɫɫ	-9.90857
ɪɪɪɪɪɪɪɪɪɪnnnnnn	-9.9086
▁based	-9.90917
▁english	-9.90977
ɪɪɪɪŋŋŋŋŋŋ	-9.91146
▁sssssssssssssss	-9.91149
tʂ	-9.9119
ʊʊʊʊʊʊʊʊʊʊʊʊʊ	-9.91227
ɹɹɹɹɹɹɹɹɹiiiiiii	-9.91392
aaaaa	-9.91458
▁held	-9.91504
ɪɪɪɪssssssss	-9.91541
ɛɛɛɛɛɛnnnnn	-9.916
▁при	-9.91827
▁got	-9.91849
əəəəəəəənnn	-9.9195
æææææææææænnnn	-9.92038
bjbjbjbjɪɪɪ	-9.92063
л	-9.92154
▁john	-9.9216
ɪɪɪɪɪɪɪɪssssssss	-9.92204
ɑɑɑɑɑɹɹɹɹɹɹɹɹ	-9.92208
ddawawawawawawaw	-9.9221
fjfjfji	-9.9225
ɪɪɪɪɪzzzzzz	-9.92303
ia	-9.92349
ɑɑɑɑɑɑɑɑɹɹɹ	-9.92432
ɪɪɪɪɪŋŋŋŋŋŋŋŋŋ	-9.92591
▁various	-9.92655
ɛɛɛɛɛɛɹɹɹɹɹɹɹɹ	-9.92722
ous	-9.9278
ts	-9.92864
ʊʊʊʊʊʊʊʊʊʊʊʊʊʊ	-9.9287
əəəəəɫɫɫɫɫɫ	-9.92912
ɨɨɨɨɨɨ	-9.92917
ɪɪɪɪɪɪɪnnnnnnnnn	-9.92999
▁court	-9.93004
ʎʎʎʎʎʎʎʎɪɪɪɪɪɪ	-9.93033
ling	-9.93051
əəəəəmmmmmmm	-9.93077
▁died	-9.93091
▁community	-9.93154
wwwwwwwɪɪɪɪ	-9.93197
▁today	-9.93243
ʃʃʃʃʃʃʃʃʃʃəəənnn	-9.93258
ism	-9.93306
awawawawnnnnnnn	-9.93306
ɲɲɲɲɲɲiiiiiiii	-9.93349
ʎʎʎʎʎʎʎʎʎi	-9.9344
▁king	-9.93455
əəəəəəɫɫɫ	-9.93509
▁ajajajajajaj	-9.93544
ph	-9.93631
▁country	-9.93632
но	-9.93641
jjjjjjjjjjjjjjʉ	-9.93694
ɛɛɛɛɛɛnnnnnn	-9.9374
▁d̪d̪d̪d̪əəəə	-9.9375
awawawawawnnnnn	-9.93798
ɛɛɛɛɛɹɹɹɹɹɹɹɹ	-9.9394
əəəəbbbbbbb	-9.94018
khkhkhkhɑɑɑɑɑɑɑɑ	-9.94072
ssssssssssɪɪɪɪ	-9.94191
▁b	-9.94191
ɛɛɛɛɛɛnnnnnnnn	-9.94197
ɫ̩ɫ̩ɫ̩	-9.94224
▁point	-9.94297
▁always	-9.94336
əəəəəssssssssss	-9.94337
▁ʃʃʃʃʃʃʃʃʃʃʃʃʃʃʃ	-9.94348
ɲɲɲɲiiiiiiii	-9.94558
▁considered	-9.94595
bjbjbjbjbjɪɪɪ	-9.94769
ɫɫɫɫɫɫɫɫɫɫɫɫɫdd	-9.94795
ɹɹɹɹɹɹɹɹɪɪɪɪɪɪɪɪ	-9.94912
▁woman	-9.94964
▁members	-9.95009
▁say	-9.95106
ttttttssssssss	-9.95137
wwwwwwwwɐɐɐɐɐɐɐ	-9.95273
əəəvvv	-9.95299
ttttttəəəəə	-9.95415
▁і	-9.95421
ɒɒɒɒɹɹɹɹɹɹ	-9.95487
bjbjbjbjbjɪɪɪɪɪ	-9.9552
ɒɒɒɒɒɒɹɹɹɹɹɹ	-9.95552
▁ʃʃʃʃʃʃʃ	-9.95574
ɡɡɡɡɡɡɡɡɡɡɡɡɡ	-9.95625
ти	-9.95637
nnnnəəəəəə	-9.95684
ʎʎʎʎʎʎʎɪɪɪɪɪ	-9.95751
aaaaaaaaaa	-9.95871
▁council	-9.95942
ʎ	-9.96007
ʋʋʋʋʋʋʋ	-9.96014
tttttəəəəə	-9.96109
çççççççççççç	-9.96198
ɪɪɪɪɪssssssssss	-9.96222
tttttttəəəəə	-9.96227
ɪɪɪɪɪɪzzzzzzzzzz	-9.96256
mmmmmmmejejejej	-9.96352
ɪɪɪɪɪɪɪŋŋŋŋŋŋŋŋŋ	-9.96503
ssssssssssɪɪɪɪɪ	-9.96676
ɹɹɹɹɹɹiiiiiiii	-9.96681
wwwwwwwwɐɐɐɐɐɐɐɐ	-9.96833
vvvvvvvdd	-9.96842
ɪɪɪɪɪɪɪɪŋŋŋŋŋŋ	-9.96845
t̪	-9.96853
ɑɑɑɑɑɑɹɹɹɹɹɹɹɹ	-9.96862
ɪɪɪɪɪɪsssssssss	-9.96875
ɛɛɛɛɛɛkkkkkkkk	-9.96961
v	-9.96968
əəəəphphphphph	-9.96984
ary	-9.97059
ssssssssstttt	-9.9706
ʎʎʎʎʎʎʎʎiiiii	-9.97225
ɹɹɹɹɹɹɹɹejejejej	-9.97229
əəəəəəəəɫɫɫ	-9.97293
ance	-9.97315
ɛɛɛɛɛɛnnnnnnn	-9.97365
▁fire	-9.97377
▁əəəəəəəəə	-9.97416
ɪɪɪŋŋŋŋŋŋŋ	-9.97418
ææææææææææænnnnn	-9.97535
thththajajajajaj	-9.97538
eeeeeeeee	-9.97544
▁blue	-9.9756
ppppppppəəəə	-9.97632
ɲɲɲɲɲɪɪɪɪɪɪ	-9.97692
wwwwwwwwɪɪɪɪɪɪ	-9.97833
əəəəɹɹɹɹɹɹɹɹ	-9.97876
▁power	-9.97914
▁а	-9.9792
fjfjfjfji	-9.97953
▁club	-9.98119
▁member	-9.98166
awawawawawnnnnnn	-9.98178
ant	-9.98181
▁ever	-9.98377
ɛɛɛɛɛɛɛɛɹɹɹɹɹɹɹ	-9.98498
▁ten	-9.98538
▁saint	-9.98548
ʎʎʎʎʎʎʎiiiiii	-9.98581
▁post	-9.986
ɟɟɟ	-9.9864
tjtjtjɪɪɪɪɪɪɪ	-9.98686
ʎʎʎʎʎʎʎiiiii	-9.98693
ɛɛɛɹɹɹɹɹɹɹɹ	-9.98733
ffffffffɹɹɹɹ	-9.98808
▁ɪɪɪɪɪɪɪɪɪɪɪɪɪ	-9.98852
ttttəəəəə	-9.98901
ɲɲɲɲɲɪɪɪɪɪɪɪ	-9.98931
zzzzzzzzdd	-9.98958
sh	-9.99008
rjrjrjrjrjrjrjɪ	-9.99037
ttttttttttttɹɹɹɹ	-9.99133
wwwwɪɪɪɪɪ	-9.9914
ɛɛɛɛɛɛɛɹɹɹɹɹɹɹ	-9.99149
ɪɪɪɪɪɪssssssssss	-9.99159
sjsjsjsj	-9.99287
ɲɲɲɲɲɲejejejejej	-9.99303
awawawawnnnnnnnn	-9.99392
ssssssssɪɪɪɪ	-9.99407
ɔjɔjɔjɔj	-9.99486
ɲɲɲɲɪɪɪɪɪɪɪɪ	-9.99494
ь	-9.99588
ɲɲɲɲɲɲɲejejejej	-9.9971
kwkwkwkw	-9.99732
zzzzzzzzzzzdd	-9.99771
▁included	-9.99771
ley	-9.99776
zzzzzzzzəəəə	-9.99847
ɛɛɛɛɹɹɹɹɹɹɹɹ	-10.0005
less	-10.0014
ɹɹɹɹɹɪɪɪɪɪɪ	-10.0028
djdjdjɪɪɪɪɪɪ	-10.0036
▁released	-10.0044
ʎʎʎʎʎʎiiiiii	-10.0046
▁put	-10.0046
го	-10.0046
▁career	-10.0049
ʎʎʎʎʎʎʎʎɪɪɪ	-10.0051
chchch	-10.0051
ttttttttəəəəə	-10.0053
ɛɛɛɛɛɛnnnn	-10.0063
hhhæææ	-10.0066
nnnnnnnssssssss	-10.0068
ssssssttttt	-10.0069
▁к	-10.007
ty	-10.0072
▁love	-10.0074
lllllllllllllll	-10.0079
▁important	-10.0079
ccccccccccccccc	-10.008
ter	-10.0087
sssssssssssɪɪɪɪ	-10.0093
ɹɹɹəəəə	-10.0094
mmmmmmməəəəə	-10.0094
jjjjjjjjjjjjjjj	-10.0101
zzzzzzzzzzdd	-10.0111
thththththʊʊʊʊ	-10.0118
nnnnnnssssssss	-10.0122
▁york	-10.0125
n̩n̩n̩n̩n̩	-10.0127
çççççççççççi	-10.0131
ɒɒɒɒ	-10.0139
nnnnəəəəə	-10.0141
hhhhhhhhæææææ	-10.0149
wwwwwwwwɐɐɐɐɐ	-10.0157
ssssssssssɪɪɪɪɪɪ	-10.0161
▁live	-10.0162
▁might	-10.0174
▁business	-10.0181
▁ssssssssssss	-10.0185
s̪s̪s̪	-10.0186
əəəəɫɫɫɫɫɫɫɫɫɫɫ	-10.0186
tjtjtjɪɪɪɪɪɪɪɪ	-10.0189
ajajajajajajdddd	-10.0192
ɹɹɹɹɹɹɹiiiiiii	-10.0193
mjmjmjmjmjmjɪɪɪɪ	-10.0195
mjmjmjmj	-10.0197
wwwwwwwwɐɐɐɐɐɐ	-10.0198
▁top	-10.0202
на	-10.0213
dddəəəəə	-10.0214
ɪɪɪɪŋŋŋŋŋ	-10.0217
fffffffffɹɹɹɹ	-10.0218
ɾɾɾɾɾɾɾɾɾɾɾɾɾ	-10.0222
bjbjbj	-10.023
ɒɒɒɒɒɒɒɒɒɒɹɹɹɹɹɹ	-10.0235
▁single	-10.0242
▁history	-10.0248
▁про	-10.0256
ɲɲɲɲɲɲɲʉ	-10.0275
ɒɒɒɹɹɹɹ	-10.029
▁built	-10.0292
ççççççççççççç	-10.0292
ть	-10.03
▁ççççççççççççi	-10.0313
ɹɹɹɹɹɹɹɪɪɪɪɪɪɪ	-10.0315
▁mar	-10.0316
tsj	-10.0319
▁district	-10.0323
ʎʎʎʎʎiiiiii	-10.0329
ssssssssppppppp	-10.0341
▁mo	-10.0342
um	-10.0353
ʎʎʎʎʎʎiiiii	-10.0358
ɔɔɔɔɔɔɔɔɔ	-10.0358
ææææææææææænnnn	-10.0367
nnnnnnnnnnnnnndd	-10.0374
ðððððððððð	-10.0376
▁worked	-10.0379
ɲɲɲɲɲɲɲɲejejejej	-10.0379
▁land	-10.0388
ɪɪɪɪɪɪkkkkkkkk	-10.0396
ʊʊʊʊʊʊʊʊʊʊʊʊʊʊʊ	-10.0399
ɪɪɪɪɪsssssssssss	-10.04
ting	-10.0402
mmmmmmməəəə	-10.0413
çççççççççççççççç	-10.0415
▁help	-10.0423
ssssssssɪɪɪɪɪ	-10.0427
pjpjpj	-10.0427
mjmjmji	-10.0436
ɪɪɪɪɪkkkkkkk	-10.044
at	-10.0451
▁usually	-10.0459
ɒɒɒɒɒɒɒɒɒɒɒɹɹɹɹɹ	-10.0467
да	-10.0474
tttttttɹɹɹɹ	-10.0482
hhhhhhhhææææææ	-10.049
▁along	-10.0494
sssssssssɪɪɪɪ	-10.0496
ɫɫɫɫɫɫɫdd	-10.0499
ɲɲɲɲɲɪɪɪɪɪɪɪɪ	-10.0503
ejejejejmmmmmmm	-10.051
ŋŋŋŋ	-10.0523
▁near	-10.0524
▁together	-10.0526
ffffffffffɹɹɹɹ	-10.0533
▁th	-10.0536
ɲɲɲɲɲɪɪɪɪɪ	-10.0539
▁london	-10.054
est	-10.0542
▁things	-10.0545
н	-10.0554
▁k	-10.0558
ththththajajajaj	-10.0559
pppppppppɹɹɹɹɹ	-10.0573
fjfjfjɪɪɪɪ	-10.0573
▁face	-10.0574
tɕtɕtɕtɕtɕtɕ	-10.0576
ы	-10.0576
▁going	-10.0578
ʃʃʃʃʃʃʃʃʃʃəəəəə	-10.059
tion	-10.0594
▁d̪d̪d̪	-10.0603
▁continued	-10.0605
▁li	-10.0606
nnnnnssssssss	-10.0609
▁days	-10.0615
▁popular	-10.0615
▁road	-10.0615
ɲɲɲɲɲejejejejej	-10.0617
▁third	-10.0628
d̪d̪d̪əəəəəəə	-10.0633
▁saw	-10.0634
▁nothing	-10.0639
əəəmmmmm	-10.0644
▁island	-10.0645
▁let	-10.0653
mmmmmmmmdd	-10.0664
ɪɪɪŋŋŋŋŋŋŋŋŋŋŋŋŋ	-10.0668
▁available	-10.0671
xxxxxxxx	-10.0675
▁final	-10.0679
bbbbbbbbbbbbbbbb	-10.0689
sssssstttttttt	-10.0691
ɒɒɒɒɒɒɒɒɒɒɒɹɹɹɹ	-10.0694
▁original	-10.0699
bjbjbjbjɪɪɪɪɪɪ	-10.07
ɹɹɹɪɪɪɪɪ	-10.0714
ɪɪɪɪkkkkkkkk	-10.0724
▁о	-10.0725
ɛɛɛɛɛnnnnn	-10.0729
ʎʎʎʎʎʎʎʎɪɪɪɪɪɪɪ	-10.0732
əəəəmmmmm	-10.0735
▁ajajajaj	-10.0739
▁full	-10.075
ɹɹɹɹɹɹɪɪɪɪɪɪ	-10.0763
oooo	-10.0764
ɹɹɹɹɹɹɹɹiiiiii	-10.0768
ʎʎʎʎʎʎʎʎʎʎʎʎʎʎʎ	-10.0782
əəəəəvvvvvvvvv	-10.0783
ɐɐɐɐɐɐɐɐnnnnnnnn	-10.0783
nnnnnnnnssssssss	-10.079
hhhhhhhhææææ	-10.0791
▁until	-10.0795
khkhkhkhkhkhəəə	-10.0796
ɒɒɒɒɒɒɒɒɫɫɫɫɫɫɫɫ	-10.08
▁president	-10.0801
lllllajajajajaj	-10.0806
▁street	-10.0819
ɑɑɑɑɑɑɑɑɹɹɹɹɹɹɹ	-10.0827
ɹɹɹɹɹɪɪɪ	-10.0834
ttttssssssss	-10.0836
əəəəəkhkhkhkhkh	-10.0849
əəəəvvvvvvvvv	-10.0851
kkkkkkkkəəə	-10.0859
д	-10.0862
▁international	-10.0863
ки	-10.0867
wwwwwwɪɪɪɪɪɪ	-10.0868
▁round	-10.0871
lllllllajajajaj	-10.0873
ɚɚɚɚɚɚɚɚzzzzzzzz	-10.0877
tttəəəəə	-10.0883
land	-10.0892
ɪɪɪɪɪɪŋŋŋŋŋŋŋŋŋ	-10.0898
▁want	-10.09
▁far	-10.0901
ɫɫɫɫɫɫɫɫɫɫɫɫɫɫdd	-10.0913
ɹɹɹɹʉ	-10.0917
п	-10.0919
ɹɹɹɹɪɪɪɪɪɪ	-10.0919
▁seen	-10.0923
sssssssssstttt	-10.0925
▁term	-10.0934
ɒɒɒɒɒɹɹɹɹɹɹ	-10.094
rs	-10.0948
zzzzzzəəəəə	-10.0955
ke	-10.0961
ɪɪɪɪɪzzzzzzzzzz	-10.0968
zzzzzzzzɪɪɪɪɪɪɪɪ	-10.0973
ɪɪɪɪɪɪɪɪɪɪnnnnn	-10.0977
awawawawawawnnnn	-10.098
çççççççççççççç	-10.0981
wwwwwwwɐɐɐɐɐ	-10.0984
ʎʎʎʎʎʎʎʎʎʎi	-10.0986
ssssssstttt	-10.0995
ʎʎʎʎʎiiiii	-10.1001
əəəəəəəɫɫɫ	-10.1004
ɨɨɨɨɨɨɨ	-10.1004
ththththʊʊʊʊ	-10.1007
əəəthththththth	-10.1008
ɪɪɪzzzzzzzz	-10.1009
ɒɒɒɒɒɒɒɒɒɹɹɹɹɹ	-10.1017
▁women	-10.1018
ççççççççʉ	-10.1019
ʎʎʎiii	-10.1021
ɪɪɪɪɪɪŋŋŋŋ	-10.1025
ɪɪɪɪɪŋŋŋŋŋŋŋŋŋŋ	-10.1026
ɪɪɪɪɪɪnnnnnnnnn	-10.1029
om	-10.1034
ʎʎʎʎʎʎɪɪɪɪ	-10.1045
ɑɑɑɑɑɑɑɑɹɹɹɹɹ	-10.1053
ejejejejejnnnnn	-10.1058
ttttttttɹɹɹɹɹ	-10.1064
▁support	-10.107
nnnnnnnnthththth	-10.1074
ðððððððððððððð	-10.1094
ver	-10.1101
▁married	-10.1102
ɒɒɒɒɒɒɒɹɹɹ	-10.1104
wwwwwwwɪɪɪɪɪɪ	-10.1116
▁look	-10.1121
ɪɪɪɪɪŋŋŋŋ	-10.1122
se	-10.1123
ssssssssssssɪɪɪɪ	-10.114
ɒɒɒɒɹɹɹɹɹ	-10.1149
▁wife	-10.1149
æææææænnnnn	-10.1151
▁sometimes	-10.1155
▁art	-10.1155
fffffffffffɹɹɹɹ	-10.1157
ppppppppəəə	-10.116
ddzzzzzzzz	-10.1163
əəəmmm	-10.1192
ɪɪɪɪɪɪɪɪɹɹɹɹɹɹɹɹ	-10.1196
tttttttɚɚɚ	-10.1211
▁football	-10.1215
ɪɪɪŋŋŋŋŋŋ	-10.1215
▁period	-10.1221
ʎʎʎʎʎʎʎʎʎʎiiiiii	-10.1223
▁run	-10.1235
ɹɹɹɹɹɹɹiiiiiiiii	-10.1236
ppppppɹɹɹɹ	-10.1238
ɲɲɲɲɲɲɲɲɲɲɲɲɲɲ	-10.1251
▁given	-10.1265
wwwwwwwɐɐɐɐɐɐɐ	-10.1267
▁f	-10.1292
ppppppppppɹɹɹɹɹ	-10.1297
ɑɑɑɑɑɑɑɑɑɑɑɑɹɹɹɹ	-10.13
nnnnnəəəəəə	-10.1301
ɒɒɒɒɒɒɒɒɒɹɹɹ	-10.1302
▁center	-10.1305
▁sea	-10.1308
ejejejzzzzzzzz	-10.1308
ffffffffɚɚɚɚ	-10.1323
bjbjbjbjɪɪɪɪɪɪɪ	-10.1331
əəəəəəəəssssssss	-10.1334
▁ththththththth	-10.1335
wwwwwwwəəəəə	-10.1341
▁become	-10.1344
ʎʎʎʎʎʎɪɪɪɪɪ	-10.1353
ɪɪɪɪɪɪɪɪɪnnnn	-10.136
dddəəəəəə	-10.136
ʃʃʃʃʃ	-10.1364
ʊʊʊʊʊʊʊʊʊʊʊʊʊʊʊʊ	-10.1366
ɹɹɹɹɹɹɹɪɪɪɪɪɪɪɪ	-10.1373
ejejejejtttttttt	-10.1377
wwwwwɪɪɪɪɪɪ	-10.1382
pppppppɹɹɹɹɹ	-10.1391
nnnnəəəəəəə	-10.1404
ɲɲɲɲɲɲɲɪ	-10.1404
zzzzzzzzzzzzdd	-10.1407
zzzzzzzzzdd	-10.1414
əəəəɫɫɫɫɫɫɫɫɫɫɫɫ	-10.1414
əəəəsssssssss	-10.1415
əəəəəəvvvv	-10.1419
ajajajajmmmmmmmm	-10.1426
▁yet	-10.1427
ɛɛɛɛɛnnnn	-10.1429
ɛɛɛɛɛnnnnnnn	-10.1433
▁works	-10.1437
ian	-10.1443
dʒdʒdʒdʒdʒdʒdʒdd	-10.1444
la	-10.145
ɑɑɑɑɑɑɑɹɹɹɹɹɹɹɹɹ	-10.1452
rrrrrrrr	-10.1455
thththththajajaj	-10.1458
▁present	-10.146
tttttsssssss	-10.1463
tjtjtjiiiiiiii	-10.1464
ɹɹɹɹi	-10.1465
et	-10.1476
sssssssttt	-10.1482
▁due	-10.1501
z̪z̪z̪z̪	-10.1506
djdjdjɪɪɪɪɪɪɪ	-10.1506
tjtjtjtjtjtjiiii	-10.1506
ɹɹɹɹɹɪɪɪɪɪɪɪ	-10.1523
▁done	-10.1527
ɛɛɛɛɛɛɹɹɹɹɹɹɹ	-10.1527
ssssssssssowowow	-10.153
əəəəəsssssssss	-10.1536
ful	-10.1545
ɪɪɪɪɪɪɪɪɪɪɪnnnnn	-10.1554
ʎʎʎiiiiiiii	-10.1554
ɪɪɪɪzzzzzzzzz	-10.1562
khkhkhkhkhkhəəəə	-10.1562
sssssssssɪɪɪɪɪ	-10.1564
▁case	-10.1572
▁though	-10.1579
çççççi	-10.1586
tjtjtjɪɪɪɪɪɪɪdd	-10.1592
▁sub	-10.1592
tɕtɕtɕtɕtɕtɕtɕ	-10.1593
mmmmmmmɛɛɛɛɛɛɛɛ	-10.1593
ssssstttttt	-10.1603
ль	-10.1607
ɑɑɑɹɹɹɹɹɹɹ	-10.161
æææææænnnnnnnn	-10.161
ɹɹɹɹiiiiiiii	-10.1612
▁something	-10.1619
əəəəəbbbbbbbb	-10.1623
▁half	-10.1626
▁throughout	-10.1635
ʃʃʃ	-10.1636
ʒʒʒʒʒʒʒ	-10.1644
▁others	-10.1646
wwwwwwwɐɐɐɐɐɐ	-10.165
zzzzzzzzəəəəəəə	-10.1657
wwwwɪɪɪ	-10.1658
ff	-10.1664
co	-10.1665
tttttttsssssss	-10.1678
ttttttttɚɚɚ	-10.1679
bjbjbjbjbjbjɪɪɪɪ	-10.1679
ɲɲɲɪɪɪ	-10.168
ɛɛɛɛɛɛɛɛɹɹɹ	-10.1683
ɪɪɪŋŋŋ	-10.1688
nnnnnnnnzzzzzzzz	-10.1696
ttttttsssssss	-10.17
əəəəəssssssss	-10.1702
ʎʎʎɪɪɪ	-10.1723
▁na	-10.1725
▁british	-10.173
ɛɛɛɛɛɹɹɹɹɹɹɹ	-10.1732
ɪɪɪɪɪnnnnnnnnn	-10.1732
ɟɟɟɟɟɟɟejejejej	-10.1742
zzzzzzzəəəə	-10.1762
mjmjmjmjmjmjɪɪɪ	-10.1768
əəəəvvv	-10.177
wwwɪɪɪɪ	-10.1774
ɒɒɒɒɒɒɹɹɹɹɹ	-10.1778
jjjjjjjjjjjjjjjʉ	-10.1778
ɲɲɲɲɲiiiiiii	-10.1782
▁mmmmmmm	-10.1806
▁mmmmmmmm	-10.1809
ʎʎʎʎʎʎʎʎɪɪɪɪɪɪɪɪ	-10.1813
▁ʃʃʃʃʃʃʃʃʃʃʃʃʃʃi	-10.1819
llləəə	-10.1835
▁why	-10.1841
nnnəəə	-10.1844
əəəɫɫɫɫɫɫɫɫɫ	-10.1845
ʒʒʒʒʒʒʒʒʒʒ	-10.1846
ɹɹɹɹɹɹɹejejejej	-10.1849
əəəəəəəmmmmmmmm	-10.185
æææææææææææænnnn	-10.1851
▁seven	-10.1856
▁eight	-10.1858
ɒɒɒɒɒɒɒɒɒɒɒɒɒɹɹɹ	-10.1858
ejejejejejnnnnnn	-10.1868
ɛɛɛɛɛɛɛkkkkkkk	-10.1868
ɐɐɐɐɐɐɐmmmmmmmm	-10.1872
ejejʃʃʃʃʃʃʃʃʃʃʃ	-10.1874
ɛɛɛɹɹɹɹɹɹɹ	-10.1878
ʎʎʎʎʎʎʎʎiiii	-10.188
▁lake	-10.1881
▁league	-10.1884
▁hard	-10.1891
rjrjrjrjrjrjɪ	-10.1896
▁story	-10.1897
ɛɛɛɛɛɛɛɛkkkkkkk	-10.1899
▁almost	-10.19
ɪɪɪɪssssssssss	-10.1903
▁give	-10.1911
wwwwwwəəəəə	-10.1911
nnnnnnnttt	-10.1911
wwwwwwwɐɐɐɐɐɐɐɐ	-10.1911
▁england	-10.1916
ajajajajajddddd	-10.1926
▁produced	-10.1928
ttttttɚɚɚɚɚɚɚɚ	-10.1928
▁list	-10.1934
ooooooooo	-10.1936
▁child	-10.1936
ʋʋʋʋʋʋ	-10.1936
hhhhhhhææææææææ	-10.1937
əəəəəəəəənnnnnnn	-10.1942
ʎʎʎʎʎʎʎɪɪɪɪɪɪ	-10.1944
▁ma	-10.1947
op	-10.1949
əəəəssssssss	-10.1961
vvvəəə	-10.1961
ɛɛɛɹɹɹɹ	-10.1972
ççççi	-10.1973
əəəəəəssssssssss	-10.1973
bbbbbajajaj	-10.1984
mmmmmmmmɛɛɛɛɛɛ	-10.1988
▁ra	-10.1989
chchchchææææææææ	-10.199
dddəəəə	-10.1997
as	-10.1997
bbbbbajajajajaj	-10.2
▁written	-10.2001
ɪɪɪɪsssssssss	-10.2003
ɛɛɛɛɹɹɹ	-10.201
mmmmmmmɛɛɛɛɛɛɛ	-10.2013
hhhhhhhæææææææ	-10.2014
ɛɛɛɛɛnnnnnn	-10.2019
ɪɪɪɪɪɪɪɪzzzzz	-10.2021
ɒɒɒɒɒɒɒɒɒɒɹɹɹ	-10.2021
▁lo	-10.2022
ol	-10.2027
ffffffffɚɚɚ	-10.2032
▁research	-10.2037
▁lost	-10.204
▁board	-10.2044
ɪɪɪɪɪɪŋŋŋŋŋŋŋŋŋŋ	-10.2053
ɪɪɪɪŋŋŋŋŋŋŋŋŋ	-10.2059
ɪɪɪɪɪɪɪɪŋŋŋŋŋ	-10.2061
ɛɛɛɛɛɛɛɛɛnnnnnnn	-10.2062
▁al	-10.2068
phphphphɑɑɑɑɑɑɑɑ	-10.2077
ɑɑɑɑɑɑɑɑɹɹɹɹɹɹ	-10.2082
ɪɪɪɪɪɪɪzzzzz	-10.2093
▁boy	-10.2098
▁office	-10.2099
wwwwwɪɪɪ	-10.2102
ɪɪɪɪŋŋŋŋŋŋŋŋŋŋ	-10.2109
çççɪɪɪ	-10.211
ɛɛɛɛɛnnnnnnnn	-10.211
mjmjmjmji	-10.2129
▁со	-10.2133
mmmmmməəəə	-10.2137
▁g	-10.2145
ssssssssɪɪɪɪɪɪ	-10.2147
mmmmmmmmɒ	-10.215
ow	-10.2161
ɪɪɪɪŋŋŋŋŋŋŋŋŋŋŋŋ	-10.2162
▁result	-10.2163
nnnnnəəəəə	-10.2163
▁need	-10.2165
ɒɒɒɒɒɒɹɹɹɹ	-10.2171
nnnnnəəəəəəə	-10.2174
ɟɟɟɟɟɟɟɟejejejej	-10.2174
ʎʎʎʎiiiiii	-10.2176
ра	-10.2182
ɪɪɪɪɪɪɪŋŋŋŋ	-10.2184
▁çççi	-10.2199
▁du	-10.2202
ʎʎʎʎʎʎʎʎɪ	-10.2203
ððððððððððð	-10.2214
mmmmmməəəəə	-10.222
nnnnnnnnttt	-10.2224
ɒɒɒɒɹɹɹɹɹɹɹɹɹ	-10.2228
▁course	-10.223
pppppppplll	-10.2231
▁body	-10.2236
il	-10.2236
▁returned	-10.2237
▁real	-10.2238
▁la	-10.2247
ле	-10.2248
ppppppppɹɹɹəəə	-10.2249
əəəəəəɫɫɫɫ	-10.2254
ɒɒɒɒɒɒɒɒɒɒɹɹɹɹɹ	-10.2262
va	-10.2269
ва	-10.2272
▁wwwwwwi	-10.2279
bjbjbjbjbjɪɪɪɪɪɪ	-10.228
ttttttttsssssss	-10.2281
ɪɪɪɪɪkkkkkk	-10.2282
wwwwwwwəəəə	-10.2283
ical	-10.2285
sssssssssɪɪɪɪɪɪ	-10.2295
ɒɒɒɒɒɹɹɹɹɹ	-10.2297
▁process	-10.2297
ɒɒɒɒɒɒɹɹɹɹɹɹɹɹɹɹ	-10.23
llllllejejejejej	-10.2301
bjbjbjbjɪɪɪɪɪɪɪɪ	-10.2303
▁order	-10.2304
ejejejʃʃʃʃʃʃʃʃʃʃ	-10.2307
▁brother	-10.231
▁further	-10.2313
▁special	-10.2317
ttttttɚɚɚɚ	-10.2321
ɑɑɑɑɑɑɑɑɑɹɹɹɹ	-10.2323
ʎʎʎʎʎɪɪɪɪ	-10.2328
zzzzzzəəəəəə	-10.2328
ffffffffɹɹɹəəə	-10.2331
tjtjtjtji	-10.2333
▁species	-10.2334
▁moved	-10.2337
ssssssssəəəə	-10.2341
ssssssssssəəəə	-10.2343
ɒɒɒɒɒɒɒɒɒɹɹɹɹɹɹ	-10.235
▁heart	-10.236
dddəəə	-10.2365
ɛɛɛnnn	-10.2376
ɟɟɟɟɟɟɟɟɟɟɟɟ	-10.2384
ʐʐʐʐʐʐʐʐ	-10.2385
æææææænnnnnn	-10.2393
▁ʃʃʃʃʃʃ	-10.2393
ɹɹɹɹɹɪɪɪɪɪɪɪɪ	-10.2394
əəəəəəəəəvvvvvvv	-10.2395
kkkkkksssssss	-10.2405
uuuu	-10.2411
ɾɾɾɾɾɾɾɾɾɾɾɾɾɾ	-10.2412
ɪɪɪdd	-10.2414
▁room	-10.2414
ejejejejtjtjtjtj	-10.2415
jjjɪ	-10.2417
fjfjfjɪɪɪ	-10.2423
▁age	-10.2425
ɹɹɹɹɹɹɹɹɪɪɪ	-10.2426
ɪɪɪɪdd	-10.2432
ж	-10.2434
ʎʎʎʎʎʎiiiiiiiiii	-10.2434
ajajajajajajddd	-10.2442
▁field	-10.2443
▁schools	-10.2444
pppppppppllll	-10.2449
ɒɒɒɹɹɹɹɹɹɹɹɹ	-10.246
nnnnnnnntttt	-10.246
ɹɹɹɹɹɹɪɪɪɪɪɪɪ	-10.2461
wwwwwəəəəə	-10.2463
▁thing	-10.2464
ɲɲɲɲɪɪɪɪ	-10.2469
ssssssssɪɪɪɪɪɪɪɪ	-10.2481
ɛɛɛɛɹɹɹɹɹɹɹ	-10.2489
ɹɹɹɹɹɹɹɹɹɪɪɪɪ	-10.2497
▁find	-10.2502
▁tell	-10.2502
ɛɛɛɛɛɛɛɛɹɹɹɹɹɹ	-10.2505
mmmmmmməəə	-10.2513
▁se	-10.2518
ððððððððððððð	-10.2523
zzzzzzzzɪɪɪɪɪɪɪ	-10.2523
bjbjbjbjbjbji	-10.2535
sssssttttttt	-10.2537
fjfjfjɪɪɪɪɪ	-10.2538
wwwwwwɐɐɐɐɐ	-10.2539
ʎʎʎʎʎʎʎiiii	-10.2548
ем	-10.2553
tttttttɚɚɚɚ	-10.2554
ææææææænnn	-10.2554
vvvvvvvɚɚɚɚɚɚɚɚ	-10.2565
▁central	-10.2566
ɑɑɑɑɑɑɑɹɹɹɹɹɹɹ	-10.2567
ppppppppppllll	-10.2577
fffffffffffɒɒɒ	-10.2582
wwwwwwəəəə	-10.2585
nt	-10.259
əəəəəəɫɫɫɫɫɫɫɫ	-10.2593
nnnnnntttt	-10.2597
▁similar	-10.26
no	-10.26
ɑɑɑɑɑɑɑɹɹɹɹ	-10.2603
▁political	-10.2606
▁ex	-10.2619
əəəəllllllll	-10.2622
hhhhhhhæææææ	-10.2624
ʃʃʃʃʃʃʃʃʃəəənnn	-10.2628
vvvvvvɚɚɚɚɚɚɚɚ	-10.2628
tttttttɚɚɚɚɚɚɚɚ	-10.2631
ɪɪɪɪkkkkkkk	-10.2632
ɛɛɛɹɹɹɹɹ	-10.2634
hhhhæææ	-10.2644
ɹɹɹɹɹɹɹɹɹɪɪɪɪɪ	-10.2645
ɪɪɪɪɪŋŋŋŋŋŋŋŋŋŋŋ	-10.2651
ɫ̩ɫ̩ɫ̩ɫ̩ɫ̩ɫ̩ɫ̩	-10.2655
▁taken	-10.266
ʎʎʎʎʎʎiiii	-10.2661
əəəəəəəvvvvvvvvv	-10.2664
ejejejejejmmmmmm	-10.2666
ся	-10.2668
ççççççççɪɪɪɪɪɪ	-10.2671
▁games	-10.2672
▁bbbbbb	-10.2681
▁students	-10.269
▁french	-10.2716
▁sun	-10.2719
ççççççççççççi	-10.2722
to	-10.2728
▁big	-10.2733
▁wwwwww	-10.2735
d̪	-10.2736
æææææænnnn	-10.2737
ɑɑɑɑɹɹɹɹɹɹɹɹɹ	-10.274
ɪɪɪɪɪsssssss	-10.2742
ssssssssɪɪɪɪɪɪɪ	-10.2749
ʎʎʎʎiiiii	-10.2753
▁ʃʃʃʃʃʃʃʃʃʃʃʃʃi	-10.2761
zzzzzzzzɪɪɪɪɪɪ	-10.2761
hhhhhhhhæææ	-10.2767
ɑɑɑɹɹɹɹɹɹɹɹɹ	-10.2771
▁published	-10.2772
ssssssssɛɛɛɛɛɛɛɛ	-10.2775
əəəbbbbbbbb	-10.2776
ɪɪɪɪɪzzzzzzzzzzz	-10.2779
æææææææækkkkkkkk	-10.2792
ɑɑɑɑɑɑɑɑɑɑɹɹɹɹ	-10.2806
hhhhhhhææææ	-10.2812
ми	-10.2816
nnnnnnntttt	-10.2816
kkkkkkkəəəə	-10.2825
əəəəəəvvvvvvvvv	-10.2827
ɪɪɪɪɪɪɪɪɪɪnnnn	-10.2827
fj	-10.283
ɹɹɹɹɪɪɪɪɪɪɪ	-10.2831
chchejejejejejej	-10.2832
mmmmmmməəəəəə	-10.2833
▁site	-10.2839
vvvvvvdd	-10.2844
ɪɪɪɪɪɪɪkkkkkkkk	-10.285
▁development	-10.2851
▁appeared	-10.2853
rjrjrjrjrjɪ	-10.2859
ɛɛɛɛɛkkkkkkkk	-10.2866
▁quite	-10.2876
ææææææææænnn	-10.2883
ʊʊʊʊʊʊʊʊdd	-10.2885
▁bar	-10.2886
ɑɑɑɹɹɹɹɹɹɹɹɹɹ	-10.289
ц	-10.2893
▁star	-10.2894
æææææænnnnnnn	-10.2899
▁less	-10.2915
▁eyes	-10.2917
▁production	-10.2918
є	-10.2925
▁win	-10.2941
ɑɑɑɑɹɹɹɹɹɹɹ	-10.2941
ɒɒɒɒɒɒɹɹɹɹɹɹɹɹɹ	-10.2964
ɪɪɪŋŋŋŋŋ	-10.2965
nnnəəəəəə	-10.2967
əəəlll	-10.2976
rjrjrjrjrjrjrjrj	-10.2979
eeeeeeeeee	-10.298
vvvvvəəəə	-10.2981
▁attended	-10.2999
▁sta	-10.3001
▁w	-10.3004
▁seat	-10.3005
ʎʎʎʎʎʎi	-10.301
ɑɑɑɑɑɑɑɹɹɹ	-10.3013
ɛɛɛɛɛɛɛɛnnn	-10.3022
▁ɪɪɪɪɪɪɪɪʔʔʔʔ	-10.3028
ʎʎʎʎʎʎʎʎʎɪɪɪɪ	-10.3035
▁rock	-10.3039
▁khkhkhkhkhkhkh	-10.3039
əəəəəɹɹɹɹɹɹɹɹ	-10.3041
▁thus	-10.3042
ɪɪɪɪɪɪkkkkkkk	-10.3048
ɡɡɡɡɡɡɡɡɡɡɡɡɡɡ	-10.3051
way	-10.3052
▁c	-10.3053
djdjdjdjiiiiiii	-10.3054
ɹɹɹɛɛɛ	-10.3054
ре	-10.3056
▁girl	-10.3067
əəəəəəəəmmmmmmmm	-10.3072
ɑɑɑɑɑɑɑɑɑɑɑɑɑɹɹɹ	-10.3074
ɛɛɛɛɛɛɛɹɹɹɹɹɹ	-10.3076
ççççççççɪɪɪɪɪ	-10.3081
led	-10.309
▁generally	-10.3092
▁asked	-10.3105
▁wwwwwwwww	-10.3114
men	-10.3115
kkkkkkksssssssss	-10.3115
wwwwwwwɐɐɐɐ	-10.3116
ɐɐɐɐɐɐɐɐmmmmmmmm	-10.3121
▁started	-10.3132
▁success	-10.3133
ет	-10.3135
ɪɪɪɪsssssssssss	-10.3138
nnnnnnnnmmmm	-10.3138
ɪɪɪɪzzzzzz	-10.3141
▁di	-10.3141
▁eventually	-10.3147
ɒɒɒɒɒɒɒɒɒɒɒɹɹɹ	-10.3147
▁police	-10.3158
əəəɹɹɹɹ	-10.3158
ish	-10.3164
llllllajajajajaj	-10.3167
▁control	-10.3172
hhhhhhhææææææ	-10.3178
sssssssssttt	-10.3179
d̪d̪d̪d̪ɪɪɪɪɪɪɪ	-10.3189
▁human	-10.319
ssssssssssstttt	-10.319
▁brown	-10.319
mmmmmmmmbbbb	-10.3191
wwwwwwwwɐɐɐɐ	-10.3195
ɒɒɒɒɒɹɹɹɹɹɹɹɹɹ	-10.3202
mjmjmjɪɪɪ	-10.3212
ɹɹɹɹɹɹɪɪɪɪɪɪɪɪ	-10.3215
▁sssssssssss	-10.3218
əəəəɹɹɹɹɹɹɹ	-10.322
ɛɛɛɛɛɛɛɛɛnnnnnn	-10.3223
▁hhhhhhhhhh	-10.3223
nnnnntttt	-10.3224
fjfjfjɪɪɪɪɪɪ	-10.3224
pppppppppppɹɹɹɹɹ	-10.3232
əəəəəmmmmmm	-10.3249
▁hall	-10.3252
ɪɪɪttt	-10.3258
▁мы	-10.326
zzzzzzzzɪɪɪɪɪ	-10.3263
bjbjbjbjbjbjɪɪɪ	-10.3266
ɛɛɛɛɛɛkkkkkkk	-10.3268
▁level	-10.3271
▁close	-10.3274
▁better	-10.3285
sssssssssəəəə	-10.3293
ɲɲɲɲɲɲɪɪɪɪɪɪɪɪ	-10.3303
ɹɹɹɹiiii	-10.3307
aaaaaaaaaaa	-10.3309
ʎʎʎʎiiiiiii	-10.3312
zzzzzzzəəəəəəə	-10.3321
▁так	-10.3328
ɹɹɹɹɹɹɪɪɪ	-10.3336
iiiiiiiiəəəəəəəə	-10.3339
▁money	-10.3343
▁songs	-10.3351
▁d	-10.3353
ɪɪɪzzzzzzz	-10.3355
ɲɲɲɲɲɲɲɲɲɲɲɲɲɲɲ	-10.3363
ни	-10.3363
о	-10.3365
lllllejejejejej	-10.3365
aaaa	-10.3366
ɛɛɛɛɛɛɛɛɛnnnnn	-10.3367
ththththɝɝɝɝɝɝɝɝ	-10.3367
fffffffffffffɒɒɒ	-10.3368
ɒɒɒɒɒɒɒɫɫɫɫɫɫɫɫ	-10.3371
ɛɛɛɛɹɹɹɹɹɹ	-10.3373
ɲɲɲɪɪɪɪɪ	-10.338
mjmjmjɪɪɪɪɪ	-10.3381
əəəəəəmmmmmmm	-10.3382
▁moment	-10.3393
ɦɦɦɦɦɦɦɦ	-10.3396
ɲɲɲɲɲɪɪɪɪ	-10.3396
▁strong	-10.3399
ttttttttɚɚɚɚɚɚɚɚ	-10.34
▁remains	-10.3405
ɑɑɑɑɑɑɹɹɹɹɹɹɹɹɹɹ	-10.3406
ʃʃʃʃʃʃʃʃʃəəəə	-10.3412
ɲɲɲɲɲɲɪɪɪɪɪɪɪ	-10.3416
be	-10.3431
ɪɪɪŋŋŋŋŋŋŋŋŋŋŋ	-10.3433
dddəəəəəəə	-10.3434
ffffffffɚɚɚɚɚ	-10.3435
▁ro	-10.3439
▁gold	-10.3444
ɑɑɑɑɑɑɹɹɹɹɹɹɹ	-10.3447
ко	-10.345
▁former	-10.3457
ɛɛɛɛɹɹɹɹɹ	-10.3459
та	-10.346
ejejejtjtjtjtjtj	-10.3465
ʐʐʐʐʐʐʐ	-10.3469
sssssssssɪɪɪɪɪɪɪ	-10.3475
ɪɪɪɪɪtjtjtjtj	-10.3477
▁rest	-10.3477
▁position	-10.3478
ʎʎʎʎʎɪɪɪɪɪ	-10.3481
fjfjfjfjɪɪɪɪɪɪɪ	-10.3482
əəəəvvvvvvvvvv	-10.3482
ajajajajtttttttt	-10.3485
▁german	-10.3486
ʎʎʎʎʎiiii	-10.3486
▁cross	-10.3486
ɹɹɹɹɹɹiiiiiii	-10.3493
ɛɛɛɛɛɛɛɹɹɹ	-10.3494
ooo	-10.3501
▁kind	-10.3502
▁gave	-10.3507
▁voice	-10.351
djdjdjɪɪɪɪɪɪɪɪ	-10.351
vvvvvvvvvdd	-10.351
nnnttt	-10.352
d̪d̪d̪d̪ɪɪɪɪɪɪɪɪ	-10.352
vjvjvjvjvjɪɪɪɪɪ	-10.3525
▁design	-10.3525
ɹɹɹɹɹiiiiiii	-10.353
ɪɪɪɪɪɪnnnnnnnnnn	-10.3531
▁including	-10.3532
khkhkhkhɑɑɑɑɑɑɑ	-10.3535
z̪z̪z̪	-10.3536
kkkkssssssss	-10.3545
ejejejejnnnnnnn	-10.3546
▁en	-10.3553
ðððððððððððð	-10.3556
ɔɔɔɔɔɔɔɔɔɔ	-10.3562
ɛɛɛɹɹɹɹɹɹ	-10.3574
▁çççççççççççççi	-10.3588
ɪɪɪɪɪɪɪɪɪɪzzzzzz	-10.359
rjrjrjrjrj	-10.3591
▁education	-10.3597
▁mmmmmmmmm	-10.3598
əəəəəllllllll	-10.3601
əəəɫɫɫɫɫɫɫɫɫɫ	-10.3601
▁books	-10.3604
г	-10.361
з	-10.3612
lllllllləəəəə	-10.3613
ʎʎʎʎʎʎʎɪɪɪ	-10.3622
ɪɪɪɪɪɪɪsssssss	-10.3629
ɐɐɐɐɐɐmmmmmmmm	-10.3633
ççççɪɪɪɪɪɪ	-10.3636
▁change	-10.3639
ʎʎʎʎʎʎʎɪɪɪɪɪɪɪ	-10.3641
▁ground	-10.3641
ffffffffffffɹɹɹɹ	-10.3647
▁player	-10.3651
nnnnəəəəəəəə	-10.3653
ttttttɚɚɚɚɚɚɚ	-10.3663
▁style	-10.3668
llllllllllllllll	-10.3671
ejejejejnnnnnnnn	-10.3672
▁front	-10.3674
ddd̪d̪d̪d̪d̪d̪	-10.3674
ççççççççɪɪɪɪɪɪɪ	-10.368
ççççççççɪɪɪɪɪɪɪɪ	-10.3685
kkkkkkksssssss	-10.3687
ɪɪɪɪɪɪsssssss	-10.3696
çççɪɪɪɪɪɪ	-10.3697
əəəəəvvvvvvvvvv	-10.3698
mjmjmjmjmjmjmjɪ	-10.3699
ta	-10.3704
ɛɛɛɛnnnnn	-10.3706
zzzzzzzzzzzzzdd	-10.371
tjtjtjtjiiii	-10.371
ɐɐɐɐɐɐɐɐnnnnnnn	-10.3711
▁то	-10.3712
wwwwwwwwəəəə	-10.3714
▁whole	-10.3715
nnnnnəəəəəəəə	-10.3718
nnnnssssssss	-10.3722
ttttttɚɚɚɚɚ	-10.3723
tʃtʃtʃtʃɚɚɚɚɚɚɚɚ	-10.3724
ththajajajajajaj	-10.3731
ɹɹɹɹɪɪɪɪɪɪɪɪ	-10.3741
əəəɹɹɹɹɹɹɹɹ	-10.3743
ca	-10.3749
nnnntttt	-10.375
ні	-10.3751
zzzzzzzzəəəəəəəə	-10.3756
ɛɛɛɛɛɛɛnnn	-10.3765
б	-10.3778
▁playing	-10.3781
ʎʎʎʎʎʎɪɪɪɪɪɪ	-10.3787
▁features	-10.3792
kkkkksssssss	-10.3801
wwwwwwwwejejejej	-10.3805
tjtjtjiiiiiiiii	-10.3808
wwwwwwɐɐɐɐɐɐ	-10.3809
khkhkhkhkhəəəə	-10.3812
▁wrote	-10.3818
▁turn	-10.3821
iiiiiiiiəəəəə	-10.3821
ɛɛɛɛɛɹɹɹɹɹɹ	-10.3824
▁areas	-10.383
ɹɹɹɹɹɹɹɪɪɪ	-10.3832
xxxxxxxxx	-10.3841
əəəəəəththththth	-10.3846
əəəkhkhkhkhkhkh	-10.3852
nnnnnnd̪d̪d̪d̪	-10.3853
tttttttɚɚɚɚɚ	-10.3855
▁sir	-10.3866
ʃʃʃʃʃʃʃʃəəənnn	-10.3872
əəəəəəəəvvvv	-10.3875
vjvjvjvjvjɪɪɪɪ	-10.3878
ɲɲɲɲɲɲɪɪɪɪɪɪ	-10.388
▁low	-10.3884
ththththejejejej	-10.3885
▁sa	-10.3889
əəəəəəəəɫɫɫɫ	-10.3889
▁language	-10.389
æææææææææænnn	-10.3893
əəəəəəəvvvv	-10.3894
nnnnnnnnttttt	-10.39
əəəəəəphphphphph	-10.3905
əəəphphphphphph	-10.3906
▁ɪɪɪɪɪɪɪɪʔʔʔ	-10.391
ççççɪɪɪɪɪ	-10.3917
nnnnnntttttttt	-10.3923
ɪɪɪɪzzzzzzzzzz	-10.3932
ɨɨɨɨɨɨɨɨ	-10.3938
▁includes	-10.394
thththʉʉʉʉʉʉʉʉʉʉ	-10.3944
▁shall	-10.3945
ɪɪɪɪɪɪzzzzz	-10.3946
ри	-10.3948
ʎʎʎʎʎʎʎʎʎʎʎi	-10.3959
əəəəfjfjfjfjfjfj	-10.3973
ajajajajajdddddd	-10.3982
bjbjbjbjbjiiiii	-10.3982
ttttttɚɚɚɚɚɚ	-10.3986
dʒdʒdʒdʒdʒdʒdd	-10.3986
▁non	-10.3988
ɪɪɪɪɪtjtjtjtjtj	-10.3989
əəəəəəssssssss	-10.3994
djdjdjiiiiiiii	-10.3999
ɹɹɹɹɹɹɹɹajajajaj	-10.4005
▁led	-10.4011
ions	-10.4012
ɹɹɹɹɹɹiiiiiiiiii	-10.4013
▁above	-10.4016
ajajajajmmmmmmm	-10.4017
ɲɲɲɪɪɪɪɪɪ	-10.4019
ssssssssssttt	-10.4021
mmmmmmmməəəə	-10.4023
khkhkhɑ	-10.4027
mjmjmjmjmjɪɪɪɪɪ	-10.4031
ɹɹɹɹəəəə	-10.4032
nnnnnnttt	-10.4034
ɪɪɪɪɪɪkkkkkk	-10.4035
▁services	-10.4036
ha	-10.4038
nnnnnnnsssssssss	-10.4044
əəəəəbbbbbbb	-10.4048
▁stage	-10.4057
ttttttttɚɚɚɚ	-10.4058
pppppppllll	-10.406
twtwtwtwtw	-10.4066
nnnnnnnntttttttt	-10.4069
ɪɪɪɪnnnnnnnnn	-10.4069
▁wwwwwwwwww	-10.4091
ɑɑɑɑɑɑɑɑɑɑɑɹɹɹɹ	-10.4092
əəəəəəvvvvvvvvvv	-10.4092
▁person	-10.4093
bjbjbjbjiiiiiii	-10.4103
ʎʎʎʎʎi	-10.4105
ɑɑɑɑɑɑɑɑɑɑɹɹɹ	-10.411
ɪɪɪɪkkkkkk	-10.4113
▁lu	-10.4114
çççɪɪɪɪɪɪɪ	-10.412
wwwwwwɐɐɐɐɐɐɐ	-10.4125
ʃʃʃʃʃʃʃʃʃəəəəə	-10.4125
əəəəəəəəəvvvvvv	-10.4135
▁от	-10.4135
pppppppəəəə	-10.4136
ля	-10.4142
əəəəəəəɫɫɫɫ	-10.4145
ɲɲɲɲɲɲɲɲɲɪ	-10.4153
khkhkhkhkhɑɑɑɑɑɑ	-10.4154
çççççççççç	-10.416
ɹɹɹɹejejejejejej	-10.4163
ɑɑɑɹɹɹ	-10.4173
əəəəɹɹɹ	-10.4174
wwwwwwwwɪɪɪɪɪɪɪ	-10.4181
▁ca	-10.4187
os	-10.4188
əəənnnttt	-10.4192
▁title	-10.4192
▁əəəəəəəəəə	-10.4192
▁modern	-10.4194
▁military	-10.4194
vvvvvvəəəə	-10.42
tttttssssss	-10.4202
ster	-10.4205
ttttttɚɚɚ	-10.421
ɛɛɛɛɛɛɹɹɹɹɹɹ	-10.4213
vvvvvəəəəə	-10.4214
khkhkhkhkhkhɑɑɑɑ	-10.422
mmmmmmmməəəəə	-10.4221
ɑɑɑɑɑɹɹɹɹɹɹɹ	-10.4224
ɒɒɒɒɹɹɹɹɹɹɹɹɹɹ	-10.4225
ɛɛɛɛɫɫɫɫɫɫɫɫ	-10.4229
ɛɛɛɛɛɛɛɛɹɹɹɹ	-10.4229
hhhhhhhhawawawaw	-10.4238
nnnnnnnthththth	-10.4244
ized	-10.425
ʂ	-10.425
▁inter	-10.4252
xxxxxxxxxx	-10.4253
ttttɚɚɚɚɚɚɚɚ	-10.4258
ɒɒɒɒɒɹɹɹɹ	-10.4262
ssssssspppppppp	-10.4264
çççççççɪɪɪɪɪɪ	-10.4265
▁это	-10.4266
wwwwwwwwɝɝɝɝɝɝɝɝ	-10.4267
▁followed	-10.4269
ʋʋʋʋʋ	-10.4272
▁months	-10.4272
ssssssssɪɪɪ	-10.4274
ors	-10.4281
fjfjfjfjɪɪɪɪɪɪɪɪ	-10.4282
wwwwwwwwəəəəə	-10.4284
llllllllowowowow	-10.4287
ɑɑɑɑɹɹɹɹɹɹɹɹɹɹ	-10.429
əəəɫɫɫɫɫɫɫɫɫɫɫ	-10.429
ɛɛɛɛɛɹɹɹɹ	-10.4299
tjtjtjtjiiiiii	-10.4306
əəəəmmmmmmmmm	-10.4307
pppppppppppllll	-10.4309
kkkkkksssssssss	-10.431
tjtjtjɪɪɪɪɪɪɪɪɪ	-10.4317
vjvjvjvjvjvjɪɪɪɪ	-10.4318
ɛɛɛɛnnnn	-10.4319
nnnəəəəə	-10.4322
▁space	-10.4332
ɪɪɪɪɪzzzzz	-10.4339
▁across	-10.4346
▁social	-10.4354
nnnnnttttt	-10.4354
▁project	-10.436
▁god	-10.4363
▁working	-10.4365
▁phphphphphphph	-10.4365
ɑɑɑɑɑɹɹɹɹɹɹɹɹɹɹɹ	-10.4372
ddzzzzzzz	-10.4373
▁mind	-10.4375
ppppppppplll	-10.4376
▁looked	-10.4381
▁western	-10.4387
fjfjfjɪɪɪɪɪɪɪ	-10.439
nnnnntttttttt	-10.4391
▁museum	-10.4395
mjmjmjɪɪɪɪ	-10.44
tttttttɚɚɚɚɚɚɚ	-10.4407
ɪɪɪɪŋŋŋŋŋŋŋŋŋŋŋ	-10.4416
ŋŋŋ	-10.4418
ɪɪɪɪɪɪɪɪdʒdʒdʒdʒ	-10.4427
tttttttttəəəə	-10.4429
ʐ	-10.4438
ffffffffffffɒɒɒ	-10.4439
wwwwwəəəə	-10.4446
▁об	-10.4448
əəəmmmm	-10.4449
thththʊʊʊʊʊ	-10.445
▁dʒdʒdʒdʒdʒdʒdʒ	-10.445
kkkkkkkkəəəəə	-10.445
ɹɹɹɹɹejejejejej	-10.4455
vvvvvvvvvvdd	-10.4462
ɛɛɛɛɛɛɹɹɹ	-10.4466
ɛɛɛɛɛɹɹɹɹɹ	-10.4472
bjbjbjbjiiiiii	-10.4472
çççççççɪɪɪɪɪ	-10.4473
▁video	-10.4476
əəəəəəəssssssss	-10.448
wwwwwɐɐɐɐɐ	-10.4481
əəəəəəəsssssssss	-10.4482
ɒɒɒɒɒɒɒɒɫɫɫɫɫɫɫ	-10.4483
ɪɪɪɪŋŋŋŋ	-10.4483
▁private	-10.4483
ɐɐɐɐɐɐɐmmmmmmm	-10.4484
ɲɲɲɪɪɪɪɪɪɪ	-10.449
▁army	-10.4498
▁current	-10.4503
ejejejejzzzzzzz	-10.4504
▁что	-10.4508
ɛɛɛɛɛɛɛɹɹɹɹɹɹɹɹɹ	-10.4509
▁largest	-10.451
tttttɚɚɚɚɚɚɚɚ	-10.4512
tjtjtjtjtjtjɹɹɹɹ	-10.4516
ɛɛɛɛɛɛɛɛɹɹɹɹɹ	-10.4518
▁vi	-10.4519
ʎʎʎʎʎʎʎʎʎʎʎʎʎʎʎʎ	-10.4522
ttttttssssss	-10.4523
▁ssssssssss	-10.4526
ɹɹɹɪɪɪɪɪɪ	-10.4529
mmmmmmmɛɛɛɛɛɛ	-10.4532
ʎʎʎʎʎʎʎʎʎʎɪɪɪɪ	-10.4532
▁що	-10.4533
əəəəəɫɫɫɫɫɫɫɫɫ	-10.4537
tjtjtjtjtjiiiii	-10.4542
▁outside	-10.4543
▁having	-10.4546
tttttttssssss	-10.4547
▁remained	-10.4549
▁le	-10.4553
ку	-10.4555
ɛɛɛɛɛɹɹɹ	-10.4556
ul	-10.4558
▁keep	-10.4558
ɟɟɟɟɟɟɟɟɹɹɹɹɹɹ	-10.4563
▁poor	-10.4564
▁hope	-10.4564
əəəəəəsssssssss	-10.4565
bbbbəəə	-10.4567
iiiiiiiiəəəəəə	-10.4575
vjvjvj	-10.4583
ʎʎʎʎʎʎʎʎiii	-10.4584
nnnnnnntttttttt	-10.4585
sssssssssssəəəə	-10.4587
▁either	-10.4588
æææææænnnnnnnndd	-10.4591
llllllləəəəə	-10.4594
pppppppppplll	-10.4595
▁union	-10.4597
ɟɟɟɟɟɟɟɟɹɹɹɹɹ	-10.46
mp	-10.4604
▁mmmmmmmmmm	-10.4608
▁clear	-10.4611
ʎʎʎʎʎʎʎɪɪɪɪɪɪɪɪ	-10.4611
əəəəəəəəənnnnnn	-10.4619
ard	-10.4619
ʎʎʎiiiiii	-10.463
ɒɒɒɒɒɒɒɒɒɒɒɒɹɹɹ	-10.4638
ст	-10.4639
kkkkkkkksssssss	-10.464
▁northern	-10.4644
nnnnnnsssssssss	-10.4655
ʎʎʎʎʎʎɪɪɪ	-10.4659
▁really	-10.4659
▁word	-10.466
▁fact	-10.4663
▁therefore	-10.4665
vvvvvvɚɚɚɚɚɚɚ	-10.4667
sssssssssɛɛɛɛɛɛɛ	-10.467
wwwwwwɐɐɐɐ	-10.4672
▁turned	-10.4672
mmməəə	-10.4672
hhhhhæææ	-10.4675
ʎʎʎʎiiii	-10.4676
əəəəəəɫɫɫɫɫ	-10.4677
mjmjmjɪɪɪɪɪɪ	-10.4679
▁test	-10.468
▁hhhhhhhhh	-10.4686
▁hhhhhhhhhhh	-10.4688
tttttttɚɚɚɚɚɚ	-10.4689
▁enough	-10.4691
не	-10.4694
ɪɪɪɪɪɪɪɪɪzzzzzz	-10.47
ttttttttɹɹɹ	-10.4704
ejejejzzzzzzz	-10.4708
▁ba	-10.4708
mmmmmməəəəəə	-10.4712
tttttsssss	-10.4712
ɪɪɪɪɪɪɪɪkkkkkkkk	-10.4716
▁past	-10.4717
əəəvvvvvvvvv	-10.4718
tttttttttɹɹɹɹɹ	-10.4718
əəəəəmmmmmmmmm	-10.4733
ɹɹɹɹɹɹɹɹɛɛɛɛɛɛɛ	-10.4735
▁events	-10.4738
ɹɹɹɹɹɹɹiiiiii	-10.4744
▁gra	-10.4772
ɲɲɲɲɲɲɪɪɪɪɪ	-10.4774
mmmmmmmmmdd	-10.4779
ɹɹɹəəəəə	-10.478
wwwwɪɪɪɪɪɪ	-10.4781
khkhkhkhkhkhɑɑɑ	-10.4782
nnnəəəəəəə	-10.4782
çççççççʉ	-10.4787
ʎʎʎʎʎʎʎʎʎɪɪɪɪɪ	-10.4794
▁doctor	-10.4794
nnnnttttt	-10.4798
uuu	-10.4798
▁battle	-10.4798
▁itself	-10.4802
▁yellow	-10.4802
nnnnnsssssssss	-10.4804
▁market	-10.4806
ɾɾɾɾɾɾɾɾɾɾɾɾɾɾɾ	-10.4807
▁view	-10.4815
▁region	-10.4816
▁san	-10.4829
mjmjmjmjmjɪɪɪɪ	-10.4835
▁rather	-10.4837
ttttsssssss	-10.4841
ssssstttttttt	-10.4852
ɪɪɪɪɪɪɪɪɪnnn	-10.4859
ɪɪɪɪɪɪɪdddd	-10.4862
mmmmmmmmææææææææ	-10.4862
ssssssssssɛɛɛɛɛɛ	-10.4864
▁daughter	-10.4869
nnnnnnssssssssss	-10.4876
ɛɛɛɛɛɛɹɹɹɹɹ	-10.4881
ʒʒʒʒʒʒʒʒʒʒʒ	-10.4882
▁royal	-10.4885
ɫ̩ɫ̩ɫ̩ɫ̩	-10.4887
bbbbbbbbəəə	-10.4887
wwwwwwɐɐɐɐɐɐɐɐ	-10.4889
ʎʎʎʎʎɪɪɪɪɪɪ	-10.4898
ɲɲɲɪɪɪɪɪɪɪɪ	-10.4899
mmmmmmmməəəəəə	-10.49
ddɛɛɛɛɛɛɛɛ	-10.49
ɪɪɪŋŋŋŋŋŋŋŋŋŋŋŋ	-10.4908
ʎʎʎiiiiiii	-10.4908
pppppppplllll	-10.4909
ɑɑɑɑɑɑɑɑɑɑɑɹɹɹ	-10.491
ffffffffajajajaj	-10.4911
▁da	-10.4912
nnnnnnnttttt	-10.4915
ccccccccɹɹɹɹ	-10.4917
▁bridge	-10.492
▁food	-10.4924
ɪɪɪɪɪɪɪɪŋŋŋŋ	-10.4925
llllajajajajajaj	-10.4931
▁southern	-10.4933
ʎʎʎʎɪɪɪɪ	-10.4934
▁looking	-10.4937
▁means	-10.4939
▁television	-10.4942
те	-10.4944
▁ship	-10.4944
ɲɲɲɲɲɲiiiiiiiiii	-10.4945
▁door	-10.4946
ence	-10.4947
ççççɪɪɪɪɪɪɪ	-10.4952
cccccccccccccccc	-10.4953
▁character	-10.4958
bbbbbbbəəə	-10.4961
ɛɛɛɛɹɹɹɹ	-10.4964
▁rainbow	-10.4964
hhhhhhææææ	-10.4967
ɑɑɑɑɑɹɹɹɹɹɹɹɹɹ	-10.4974
ʎʎʎɪɪɪɪ	-10.4974
fjfjfjfjɪɪɪɪɪ	-10.4981
▁met	-10.4986
ɑɑɑɑɑɑɑɑɑɹɹɹ	-10.4988
▁role	-10.499
vvvvvvvɚɚɚɚɚɚɚ	-10.4993
▁ççççççççççççççç	-10.4997
ng	-10.4997
▁sp	-10.5001
▁hhhhhhhh	-10.5001
ɹɹɹɹɹiiiiiiiiiii	-10.5001
ɹɹɹɹɹɹɹɹɹɹiiiiii	-10.5002
▁deal	-10.5004
ɐɐɐɐɐɐmmmmmmm	-10.5005
ʃʃʃʃʃʃʃʃʃʃəəə	-10.5009
▁described	-10.501
ççççççççɪɪɪɪ	-10.5014
vvvvvvvvɚɚɚɚɚɚɚɚ	-10.5016
ɛɛɛɛɛɛɛɹɹɹɹɹ	-10.502
ɐɐɐɐɐmmmmmmmm	-10.5027
▁bu	-10.5033
▁brought	-10.5035
phphphphphphɑɑɑɑ	-10.5036
pppppɹɹɹɹ	-10.5039
llllllllɛɛɛɛɛɛɛɛ	-10.5039
ї	-10.5042
▁hit	-10.5054
que	-10.5057
▁æææææææææææ	-10.5063
sssssssssssstttt	-10.5065
▁port	-10.5068
nnnnnttt	-10.5068
ɟɟɟɟɟɟɟɟɹɹɹɹ	-10.5068
▁ææææææææææ	-10.507
▁range	-10.5072
nnnnnnnnzzzzzzz	-10.5076
pppppppəəə	-10.5079
▁matter	-10.5084
ɑɑɑɑɑɑɑɑɑɹɹɹɹɹɹɹ	-10.5085
me	-10.5087
▁lives	-10.5087
▁possible	-10.5088
owowowowownnnnnn	-10.5089
mjmjmjɪɪɪɪɪɪɪ	-10.5091
ɛɛɛɛɛɫɫɫɫɫɫɫɫ	-10.5096
tttttttttəəə	-10.5102
əəəəəvvvvvvvvvvv	-10.5105
▁california	-10.511
mmmmmmmejejej	-10.5111
▁release	-10.5114
iiiiiiiizzzzzzzz	-10.5115
ææææææænnnnnnnnn	-10.5115
ɲɲɲɲiiiiiii	-10.5116
▁director	-10.5117
əəəəththththth	-10.5119
ɹɹɹɹɛɛɛɛɛ	-10.5124
ʊʊʊʊʊʊʊdd	-10.5127
▁active	-10.513
ɑɑɑɑɑɑɑɹɹɹɹɹ	-10.5132
ɑɑɑɹɹɹɹɹɹɹɹɹɹɹ	-10.5132
mmmmmməəə	-10.5133
kkkttt	-10.5137
ttttttttttɹɹɹɹɹ	-10.5137
ɪɪɪɪɪɪɪkkkkkkk	-10.5139
ððððəəəə	-10.5149
ɹɹɹiii	-10.515
ssssssssssɪɪɪ	-10.5158
nnnnnd̪d̪d̪d̪	-10.5158
▁example	-10.5159
əəəsssssssssss	-10.5167
tic	-10.5169
ɪɪɪɪɪɪɪɪɪɪɪnnnn	-10.5174
▁nor	-10.5176
ɛɛɛɛɛɛɛɛssssssss	-10.5177
əəəəəəɫɫɫɫɫɫɫ	-10.5178
vvvvvɚɚɚɚɚɚɚɚ	-10.5178
hhhhhhhæææ	-10.5182
▁middle	-10.5182
ɪɪɪɪɪɪɪɪtttttttt	-10.5183
▁table	-10.5183
çççi	-10.5187
ɹɹɹɹɹɹɹɹɛɛɛɛɛɛ	-10.5187
ɚɚɚɚɚɚɚɚɚzzzzzzz	-10.5188
fffffffffɚɚɚɚ	-10.5197
▁numerous	-10.52
сь	-10.5205
tjtjtjtjtjiii	-10.5212
ppppppppɹɹɹ	-10.5215
▁teams	-10.5217
▁centre	-10.5218
ну	-10.5222
khkhkhɑɑɑɑɑɑɑɑɑ	-10.5224
tjtjtjtjɪɪɪɪɪɪdd	-10.5231
ææææææææææænnn	-10.5238
▁society	-10.524
thththejejejejej	-10.5242
ççççççççççççççç	-10.5245
▁track	-10.5245
▁minister	-10.5249
ɒɒɒɒɹɹɹɹ	-10.5252
am	-10.5253
llllllləəəə	-10.5255
lllllllləəəə	-10.5256
ccccccccccɹɹɹɹ	-10.5257
tttttttsssss	-10.5258
sssssttttt	-10.5262
ɛɛɛɛnnnnnn	-10.5267
▁su	-10.5272
nnnttttt	-10.5288
ɫɫɫɫɫɫɫɫzzzzzzzz	-10.5292
khkhkhkhkhəəə	-10.5295
ɹɹɹɹɛɛɛɛɛɛ	-10.5297
ations	-10.531
▁wide	-10.5312
əəəssssssssssss	-10.5313
▁ho	-10.5314
ɫɫɫɫɫɫdd	-10.5316
▁el	-10.5322
▁developed	-10.5322
əəəəlllllll	-10.5323
ɟɟɟɟɟɟɟɹɹɹɹ	-10.5323
ɑɑɑɑɑɑɑɹɹɹɹɹɹ	-10.5326
nnnnnnnd̪d̪d̪d̪	-10.5333
ɪɪɪɪssssssssssss	-10.5336
çççççɪɪɪɪɪ	-10.534
nnnnəəəə	-10.5359
wwwwwəəəəəə	-10.536
▁heard	-10.5362
▁class	-10.5362
▁below	-10.5365
ɹɹɹɹɹɹɹɹiiiii	-10.5368
▁hill	-10.5375
wwwwwwwwajajajaj	-10.5375
ɲɲɲɲɲiiiiiiiiiii	-10.5376
▁ʃʃʃʃʃʃʃʃʃʃʃʃi	-10.5379
khkhkhɑɑɑɑ	-10.5383
line	-10.5385
ɛɛɛɛɛɛɛɛɛɹɹɹɹɹɹɹ	-10.5386
tjtjtjtjtjɹɹɹɹi	-10.5391
nnnnnnttttt	-10.5395
▁believe	-10.5396
d̪d̪d̪d̪ɛɛɛɛɛɛɛɛ	-10.5398
ɑɑɑɑɑɑɑɑnnnnnnnn	-10.5406
cccccccccɹɹɹɹ	-10.5407
▁em	-10.5419
▁health	-10.5423
▁ha	-10.5432
▁behind	-10.5437
▁dark	-10.5437
ɛɛɛɫɫɫɫɫɫɫɫ	-10.5437
▁event	-10.5438
bjbjbjbjbjiiii	-10.545
▁studied	-10.5455
ððððəəə	-10.5456
ward	-10.5456
hhhææææ	-10.5458
▁type	-10.5459
ford	-10.5463
ɪɪɪɪɪnnnnnnnnnn	-10.5463
ttttttttssssss	-10.5468
▁buried	-10.547
ɪɪɪɪɪɪɪɪɪɪɪɪnnnn	-10.547
ajajajajajnnnnnn	-10.5472
▁division	-10.5474
▁information	-10.5474
oooooooooo	-10.5477
▁nine	-10.5477
▁program	-10.5478
ɲɲɲɲɲɲɲɲɲʉ	-10.5479
▁sha	-10.5482
ɟɟɟɟɟɟɟɹɹɹɹɹ	-10.5482
ddbbbbbbbb	-10.5484
vjvjvjvjvjɪɪɪɪɪɪ	-10.5495
fffffffffɚɚɚ	-10.5496
fjfjfjfjɪɪɪɪɪɪ	-10.5498
ɪɪɪɪɪɪɪɪsssssss	-10.5509
bbbəəə	-10.5513
▁changed	-10.5517
ddɐɐɐɐɐɐɐɐ	-10.5517
əəəsssssssssssss	-10.5518
nnnnnnowowowowow	-10.5524
ajajajajdddddddd	-10.553
wwwɪɪɪɪɪ	-10.5534
ɪɪɪɪɪɪɪddd	-10.5535
ʎʎʎʎʎʎʎiii	-10.5538
ttttttsssss	-10.554
əəəəəəəɫɫɫɫɫɫɫɫ	-10.5543
dddəəəəəəəə	-10.555
ов	-10.5562
▁ga	-10.5568
ppppppppppplll	-10.5568
ajajajajajnnnnn	-10.5568
ɲɲɲɪɪɪɪ	-10.5571
▁wwwwwwwi	-10.5578
▁canada	-10.5581
▁using	-10.5582
ejejejzzzzzzzzz	-10.5585
▁science	-10.5585
ʊʊʊʊʊdd	-10.5592
ɹɹɹɹɹɹɹɹɛɛɛɛɛ	-10.5592
les	-10.5593
ɑɑɑɑɑɑɑɑpppppppp	-10.5594
ɪɪɪŋŋŋŋŋŋŋŋŋ	-10.5597
sssssssssssɪɪɪ	-10.5602
çççççççɪɪɪɪɪɪɪ	-10.5604
▁call	-10.5607
ze	-10.5608
ɒɒɒɒɒɒɹɹɹ	-10.5611
ɪɪɪnnnnnnnnn	-10.5612
▁ви	-10.5612
▁decision	-10.5613
ɑɑɑɑɹɹɹɹɹɹɹɹɹɹɹɹ	-10.5624
bjbjbjbj	-10.563
ttttəəəəəə	-10.5639
ɹɹɹɹiiiiiii	-10.5649
ʎʎʎiiiii	-10.5651
llllejejejejejej	-10.5659
pppppppppppɹɹɹ	-10.566
ɪɪɪŋŋŋŋŋŋŋŋŋŋ	-10.5661
▁sound	-10.5665
ʎʎʎɪɪɪɪɪ	-10.5669
ɛɛɛɛnnnnnnnn	-10.5673
ɐɐɐɐɐɐɐnnnnnnnn	-10.5679
ʊʊʊdd	-10.568
ɐɐɐɐɐɐɐɐnnnnnn	-10.5681
▁told	-10.5684
əəəəəəəəəəvvvvvv	-10.5685
ssssssssəəəəə	-10.5686
ɑɑɑɑɑɑɑɑnnnnn	-10.5686
ʎʎʎʎɪɪɪɪɪ	-10.5687
ʎʎʎʎʎʎɪɪɪɪɪɪɪ	-10.569
▁ææææææææææææ	-10.5694
ally	-10.5705
ɑɑɑɑɑɑɑɑɑɑɑɹɹɹɹɹ	-10.5706
pppppppɹɹɹəəə	-10.5709
ɐɐɐɐɐɐɐɐmmmmmmm	-10.571
əəəəɹɹɹɹɹɹ	-10.5711
hhhhhhhhhæææææææ	-10.5714
d̪d̪d̪d̪d̪ejejej	-10.5715
ççççɪɪɪ	-10.5718
əəəəəəɫɫɫɫɫɫ	-10.5719
ɪɪɪɪɪkkkkk	-10.5726
ɪɪɪɪtjtjtjtj	-10.5728
mjmjmjmjiiiiiiii	-10.5729
ææææænnnnnnnn	-10.5732
ɲɲɲɲɲɲʉ	-10.5734
ɛɛɛɛɹɹɹɹɹɹɹɹɹ	-10.5745
nnnnnnəəəəəəəə	-10.5746
▁lived	-10.575
ɑɑɑɑɑɑɹɹɹɹɹɹɹɹɹ	-10.575
▁grew	-10.5751
ɹɹɹɹəəəəə	-10.5757
▁natural	-10.576
xxxxxxxxxxx	-10.577
▁pa	-10.5775
ɹɹɹɹɹɹejejejejej	-10.5775
▁ко	-10.578
▁master	-10.5782
▁europe	-10.5782
ɪɪɪssssssss	-10.5784
mmmmmmmmɐɐɐɐɐɐɐɐ	-10.5785
▁ɪɪɪɪɪɪɪɪɪɪɪɪɪɪ	-10.5788
mmmmmmmməəəəəəə	-10.5789
mmmmmmmməəəəəəəə	-10.5791
lo	-10.5792
lllllllləəəəəə	-10.5792
ɛɛɛɛɛɛɛɹɹɹɹ	-10.5793
▁action	-10.5793
əəəəəəəəənnnnn	-10.5794
rjrjrjrjrjrj	-10.5794
ів	-10.5794
▁recorded	-10.5794
wwwwwwɪɪɪ	-10.5796
▁felt	-10.5799
ɪɪɪɪɪɪɪɪʔʔʔʔʔʔʔʔ	-10.5801
ɪɪɪɪɪŋŋŋ	-10.5809
ddbbbbbbbbb	-10.581
▁lot	-10.5814
vvvvəəəə	-10.5818
▁provided	-10.5818
tttttttttttɹɹɹ	-10.5819
lllllllowowowow	-10.5821
owowowownnnnnnnn	-10.5824
nnnnnd̪d̪d̪əəə	-10.5832
pppppppppəəəə	-10.5832
▁все	-10.5834
▁care	-10.5836
ɑɑɑɑɑɑɑɑɑɑɑɑɹɹɹ	-10.5838
ææææænnnnnn	-10.5839
ру	-10.5841
ɹɹɹɹɹɹɹɹɹɪɪɪɪɪɪ	-10.5845
ɹɹɹɹəəə	-10.5848
ɡɡɡɡɡɡɡɡɡɡɡɡɡɡɡ	-10.5848
vvvvvdd	-10.5855
▁size	-10.5858
mmmmmmmdd	-10.5858
ɪɪɪɪtjtjtjtjtj	-10.586
ejejejejttttttt	-10.5864
▁addition	-10.5868
ɒɒɒɒɒɒɒɫɫɫɫɫɫɫ	-10.5868
ɹɹɹɹɹɹiiiiii	-10.5874
▁wood	-10.5879
khkhkhɐɐɐɐɐɐ	-10.5879
vjvjvjvjvjvjvjɪ	-10.5882
mmmmmmmməəə	-10.5888
▁version	-10.5889
ɛɛɛɹɹɹɹɹɹɹɹɹ	-10.5894
ɪɪɪtjtjtjiiiiiii	-10.5896
mmmmməəəəə	-10.5897
əəəllllllll	-10.5898
əəəəəəllllllll	-10.5898
bjbjbjɪɪɪ	-10.5905
ʎʎʎʎʎɪɪɪ	-10.5907
ɪɪɪɪɪɪɪɪdddd	-10.5908
ɔɔɔɔɔɔɔɔɔɔɔ	-10.591
wwwwwwəəəəəə	-10.5911
▁added	-10.5911
ffffffffffɚɚɚɚ	-10.5913
▁record	-10.5913
zzzzzzzɪɪɪɪɪɪ	-10.5915
ɲɲɲɲejejejejejej	-10.5918
ɲɲɲɲɲɲiiiiiii	-10.5918
ææææænnnnn	-10.5921
fjfjfjfjfjfjɪɪɪɪ	-10.5922
▁certain	-10.5924
hhhhhææææ	-10.5924
ɚɚɚəəəəəəəəəəəəə	-10.5928
hhhhhhæææææææ	-10.5938
əəəɹɹɹɹɹ	-10.5941
ad	-10.5942
ʃʃʃʃʃʃʃʃʃʃəəəəəə	-10.5942
▁cut	-10.5943
khkhkhkhɐɐɐɐɐɐɐ	-10.5943
çççççɪɪɪɪɪɪ	-10.5945
▁return	-10.5947
ddbbbbbbbbbbb	-10.595
ɛɛɛɛnnnnnnn	-10.5953
mjmjmjmjmjɪɪɪɪɪɪ	-10.5954
▁america	-10.5957
▁earth	-10.5958
mjmjmjmjmjɪɪɪ	-10.596
ned	-10.596
tjtjtjiiiii	-10.5968
ɛɛɛnnnn	-10.5969
ddddəəəəə	-10.5969
sssssssssppppppp	-10.597
▁originally	-10.5975
ejejejejejejdddd	-10.5975
kkkkksssssssss	-10.5976
əəəəəɫɫɫɫɫɫɫɫɫɫ	-10.5977
ʂʂʂʂʂʂʂʂ	-10.5981
▁trade	-10.5982
ççççççɪɪɪɪɪ	-10.5985
ɐɐɐɐɐmmmmmmm	-10.5985
▁words	-10.599
tttsss	-10.5993
nnnnnnəəəəəəə	-10.5993
chchchæææææææææ	-10.5996
çççççççççççççi	-10.5998
tttttttsssssssss	-10.6007
ɑɑɑɑɹɹɹɹɹɹɹɹɹɹɹ	-10.6009
▁independent	-10.6011
▁bill	-10.6012
че	-10.6013
wwwwwwwwwɪɪɪɪɪ	-10.6017
nnnnnəəəə	-10.6023
nnnnnd̪d̪d̪d̪əəə	-10.603
fjfjfjfjfjɪɪɪɪɪ	-10.6031
mjmjmjɪ	-10.6032
ɛɛɛɛɛɛɛɛɛɛnnnnnn	-10.6032
wwwwwwwəəəəəə	-10.6032
zzzzzzzzɪɪɪɪ	-10.6039
ner	-10.6044
wwwwwwwwwɐɐɐɐɐɐɐ	-10.6045
ɛɛɛɛɛɛɛɛvvvvvvv	-10.6046
æææææʔʔʔʔ	-10.6055
ɛɛɛɛɛɛɛɛɛnnnn	-10.606
ɪɪɪŋŋŋŋ	-10.606
əəəəpjpjpjpjpjpj	-10.6062
mmmmmmmmmmdd	-10.6066
ʎʎʎʎiii	-10.6072
thththththejejej	-10.6074
ɟɟɟɟɟɟɟɹɹɹɹɹɹ	-10.6078
▁players	-10.6078
га	-10.6083
▁industry	-10.6084
ssssssttt	-10.6086
ttttttttɚɚɚɚɚɚɚ	-10.6089
ʎʎʎʎʎiiiiiiiiiii	-10.6092
ɲɲɲɲɲɲɲɪɪɪɪɪɪɪɪ	-10.6099
▁ɪɪɪɪɪɪɪɪʔʔʔʔʔʔʔ	-10.6103
ɐɐɐɐɐɐɐɐnnnnn	-10.6108
llllllllɛɛɛɛɛɛɛ	-10.6109
ɹɹɹɹɹɹɹajajajaj	-10.6119
▁seemed	-10.612
əəəəəəkhkhkhkhkh	-10.6123
hhhhhhæææææ	-10.6124
ɒɒɒɹɹɹɹɹɹɹɹɹɹ	-10.6128
▁passed	-10.6132
ɛɛɛɛɛɛɹɹɹɹ	-10.6133
ttttttttɹɹɹəəə	-10.6134
▁ran	-10.6136
fjfjfjɪɪɪɪɪɪɪɪ	-10.614
▁although	-10.6144
▁nature	-10.6144
mmmmmmɛɛɛɛɛɛɛ	-10.6145
▁æææææææææ	-10.6147
ɒɒɒɒɒɹɹɹɹɹɹɹɹɹɹ	-10.6148
əəəəəəəəəvvvvv	-10.6154
ththththththʉʉʉʉ	-10.6156
ttttttttttɹɹɹ	-10.6161
▁hospital	-10.6163
▁late	-10.6165
bjbjbjbjiiiii	-10.6167
▁friends	-10.6171
sjsjsj	-10.6174
ɒɒɒɒɒɒɒɒɫɫɫɫ	-10.6174
▁ar	-10.6177
sssssssskkkkkk	-10.6179
vjvjvjvjvjɪɪɪ	-10.6182
con	-10.6183
ɪɪɪɪmmmmmmmm	-10.6184
sssssssssssttt	-10.6186
▁force	-10.6191
əəəəəvvv	-10.6192
ler	-10.6193
nnnnnnnzzzzzzzz	-10.6196
əəəəvvvvvvvvvvv	-10.6197
▁çççççççççç	-10.6197
llllllllææææææææ	-10.6199
khkhkhkhkhɑɑɑɑɑ	-10.62
owowowownnnnnnn	-10.6201
nnnnnnnnbbbb	-10.6207
ɪɪɪɪɪɪddd	-10.6208
nnnnttt	-10.6209
mmmmməəəə	-10.621
ajajajajajajnnnn	-10.6211
▁commercial	-10.6213
aaa	-10.6214
▁мо	-10.6221
çççççççɪɪɪɪɪɪɪɪ	-10.6223
ʎʎʎʎʎʎʎɪ	-10.6223
kkkkkkkəəə	-10.6228
mmmmmmməəəəəəə	-10.6228
▁population	-10.6233
zzzzzzzzzzzzzzdd	-10.6234
ttttttəəəəəə	-10.6238
ac	-10.6242
▁cemetery	-10.6243
wwwwwwɪɪɪɪɪɪɪ	-10.6244
▁ма	-10.6245
▁instead	-10.6248
,'	-10.6248
▁township	-10.6249
▁department	-10.6249
ɫ̩ɫ̩ɫ̩ɫ̩ɫ̩ɫ̩	-10.625
wwwwwi	-10.6254
lllllləəəəə	-10.6256
thththththʊʊʊʊʊ	-10.6267
ɪɪɪɪɪɪŋŋŋ	-10.6267
wwwwwɐɐɐɐɐɐ	-10.6269
▁ta	-10.6269
▁yes	-10.6272
▁making	-10.6273
▁summer	-10.6275
ttttttttɚɚɚɚɚ	-10.6282
vjvjvjvjvjvjɪɪɪ	-10.6282
bjbjbjbjiiii	-10.6283
▁mmmmmmmmmmm	-10.6286
ɛɛɛɛɛɛɹɹɹɹɹɹɹɹɹ	-10.6288
ɛɛɛɛɛkkkkkkk	-10.6289
tttttsssssssss	-10.6291
▁cannot	-10.6299
▁dead	-10.6299
▁european	-10.6305
ɒɒɒɒɒɹɹɹɹɹɹɹɹɹɹɹ	-10.6309
nnnntttttttt	-10.6311
ga	-10.6311
▁already	-10.6313
▁bank	-10.6319
ɛɛɛɛɛɛnnn	-10.6323
ɛɛɛɛɛɛɛkkkkkk	-10.6323
fjfjfjfjfjɪɪɪɪɪɪ	-10.633
uuuuuuuuu	-10.6332
ʐʐʐʐʐʐ	-10.6334
▁involved	-10.6334
ççççççɪɪɪɪɪɪ	-10.6339
ɚɚɚɚɚɚɚzzzzzzzz	-10.6343
ʋʋʋʋ	-10.6346
▁chief	-10.635
kwkwkw	-10.6358
ɛɛɛɛɛɹɹɹɹɹɹɹɹɹ	-10.6361
ɹɹɹɹɛɛɛɛɛɛɛ	-10.6365
nnnnnssssssssss	-10.6365
ææææææææssssssss	-10.6365
ɟɟɟɟɟɟɟɟɟɟɟɟɟ	-10.6369
cy	-10.6374
mjmjmjmjɪɪɪɪɪ	-10.6375
ɹɹɹɹɛɛɛɛ	-10.6375
çççʉ	-10.6375
bbbbbajajajaj	-10.6376
ɪɪɪɪɪɪɪɪɹɹɹɹɹɹɹ	-10.6379
pe	-10.6381
▁mark	-10.6389
▁twenty	-10.6389
sssssssppppppp	-10.6392
tʃtʃtʃtʃtʃɚɚɚɚɚɚ	-10.6392
ɹɹɹɹɹɹɹɹɛɛɛɛɛɛɛɛ	-10.6403
ssssssssɛɛɛɛɛɛɛ	-10.6407
▁morning	-10.641
ɑɑɑɑɑɑɹɹɹ	-10.641
tttttəəəəəə	-10.6415
kkkkkkkkkəəəə	-10.642
mo	-10.6431
▁har	-10.6437
ddbbbbbbbbbb	-10.6439
khkhkhɐɐɐɐɐɐɐ	-10.6439
wwwwwwwɪɪɪɪɪɪɪ	-10.6441
sssssssssowowow	-10.6443
▁experience	-10.6445
tttttttttɹɹɹ	-10.6447
▁wi	-10.645
llllllləəəəəə	-10.6452
cccccccccccɹɹɹɹ	-10.6452
ɑɑɑɑɑɑɑɑnnnnnn	-10.6454
▁primary	-10.646
▁d̪d̪d̪d̪əəəəə	-10.6461
▁вы	-10.6461
ddzzzzzz	-10.6466
ings	-10.6467
▁mostly	-10.6467
ðððəəəə	-10.6472
▁george	-10.6476
zzzzzzzɪɪɪɪɪ	-10.6479
ɲɲɲɲɲɲɲɲɲɲɲɲɲɲɲɲ	-10.648
ɪɪɪɪɪɪkkkkk	-10.6491
llllllllowowow	-10.6491
per	-10.6493
tttttttttttɹɹɹɹɹ	-10.6493
ffffffffɚɚɚɚɚɚ	-10.6496
vvvvvvəəəəə	-10.6503
ththththɛɛɛɛɛɛɛ	-10.6508
ɛɛɛɛɛnnn	-10.6509
▁radio	-10.6512
▁created	-10.6515
khkhkhɐɐɐɐɐ	-10.6515
ɟɟɟɟɟɟɟɟɹɹɹɹɹɹɹ	-10.6516
mmmmmmmmɛɛɛɛɛ	-10.6519
▁movement	-10.6522
ить	-10.6523
sssssssssskkkkkk	-10.6523
əəəəəəəəɫɫɫɫɫɫɫɫ	-10.6523
ɹɹɹɹɹɹɹɹɹɹɪɪɪɪ	-10.6529
ring	-10.653
ма	-10.653
▁act	-10.6533
▁m	-10.6538
ppppppppppppllll	-10.6544
де	-10.6545
ud	-10.6545
əəəəəəmmmmmmmmm	-10.6545
▁practice	-10.6549
kkkkkkssssssssss	-10.655
ʎʎʎʎʎʎiii	-10.6551
ee	-10.6551
▁d̪d̪d̪əəə	-10.6556
ities	-10.6558
ɹɹɹɹɹɹɹɹɹɹɪɪɪɪɪ	-10.6561
ɪɪɪɪɪmmmmmmmm	-10.6566
khkhkhɑɑɑɑɑɑɑɑ	-10.657
jjjjɪ	-10.6571
▁х	-10.6572
wwwwi	-10.6574
▁performed	-10.6581
əəəəmmmm	-10.6581
щ	-10.6583
hhhhhhææææææ	-10.6591
▁bo	-10.6592
▁talk	-10.6596
mmmmmmmowowow	-10.6602
khkhkhkhɐɐɐɐɐɐɐɐ	-10.6602
əəəɫɫɫɫɫɫɫɫɫɫɫɫ	-10.6603
nnnnnsssssss	-10.661
hhhhhhææææææææ	-10.6611
çççɪɪɪɪɪ	-10.6618
ʎʎʎʎʎʎʎʎʎʎʎʎi	-10.6625
ææææænnnnnnn	-10.6628
ей	-10.6628
lllllləəəə	-10.6631
ɹɹɹɹɹiiiiii	-10.6633
▁ph	-10.6633
ɪɪɪɪɪdddd	-10.6633
ʎʎʎiiii	-10.6634
əəəəɹɹɹɹɹ	-10.6635
▁allow	-10.6636
ɛɛɛɹɹɹɹɹɹɹɹɹɹ	-10.6638
ɟɟɟɟɟɟejejejejej	-10.6639
nnnnnttttttt	-10.6649
vvvvəəəəə	-10.6656
▁anything	-10.6656
▁true	-10.6662
sssssssssɪɪɪ	-10.6663
əəəəvvvvvvvvvvvv	-10.6665
▁ɪɪɪɪɪɪɪɪɪʔʔʔʔ	-10.6665
ɛɛɛɛɛɛɛɛvvvvvv	-10.6668
ʎʎʎʎʎiii	-10.6672
thththththʉʉʉ	-10.6673
▁mountain	-10.6675
əəəəɹɹɹɹɹɹɹɹɹ	-10.6676
zzzzzzzɪɪɪɪɪɪɪɪ	-10.6677
phphphphææææææææ	-10.6679
ɛɛɛɛɛɛɛɛkkkkkk	-10.6681
ен	-10.6682
wwwwwwwwɛɛɛɛɛɛɛɛ	-10.6686
phphphphɑɑɑɑɑɑɑ	-10.669
əəəɫɫɫɫɫɫɫɫɫɫɫɫɫ	-10.6695
▁william	-10.6704
ɑɑɑɑɑɑɹɹɹɹ	-10.6707
ɪɪɪɪɪɪɪɹɹɹɹɹɹɹɹ	-10.6709
tttəəəəəə	-10.6713
æææʔʔʔʔ	-10.6713
lllllllllajajaj	-10.6717
▁hands	-10.6717
▁indian	-10.6722
▁interest	-10.6723
nnnnd̪d̪d̪d̪əəəə	-10.6726
mmmmmmmmmmmdd	-10.6727
thththʉʉʉʉʉʉʉʉʉ	-10.6728
ɹɹɹɹiiiiii	-10.6728
vvvdd	-10.673
▁author	-10.6734
nnnəəəə	-10.6734
ɪɪɪɪɪɪtjtjtjtj	-10.6738
ajajajajddddddd	-10.6739
pppppppppəəə	-10.6739
▁themselves	-10.674
sssssssssssɛɛɛɛɛ	-10.6746
mmmmmmmmzzzzzzzz	-10.675
▁feel	-10.6753
ttttsssssssss	-10.6769
ɑɑɑɹɹɹɹɹɹ	-10.6771
owowowowownnnnn	-10.6771
▁ja	-10.6772
▁ball	-10.6777
ɒɒɒɒɒɒɒɒɫɫɫɫɫɫ	-10.6777
mjmjmjɪɪɪɪɪɪɪɪ	-10.6779
ɪɪɪɪmmmmmmm	-10.6779
▁ne	-10.678
bbbbbbbbajajajaj	-10.6781
▁po	-10.6786
ppppppppɹɹɹɹɹɹ	-10.6786
мо	-10.679
▁elected	-10.6791
ah	-10.6799
vjvjvjvjɪɪɪɪɪɪ	-10.6801
djdjdjiiiiiiiiii	-10.6806
ɪɪɪɪɪɪɪkkkkkk	-10.6808
▁thththththth	-10.6808
ɲɲɲɲʉ	-10.6812
▁sssssssss	-10.6819
əəəəəəəmmmmmmm	-10.682
▁subsequently	-10.6821
ɛɛɛɛɛɛɛɛvvvvv	-10.6822
mjmjmjmjɪɪɪɪɪɪ	-10.683
eeeeeeeeeee	-10.6833
sa	-10.6835
▁forest	-10.6835
vjvjvjvjɪɪɪɪɪɪɪ	-10.6836
çççççççɪɪɪɪ	-10.6838
▁captain	-10.684
əəəəəəəɫɫɫɫɫ	-10.6841
ɲɲɲɲiiiiiiiiii	-10.6842
▁groups	-10.6842
ʉʉʉəəə	-10.6844
▁як	-10.6846
ɑɑɑɑɑɹɹɹɹɹɹɹɹɹɹ	-10.6846
ɪɪɪɪzzzzzzzzzzz	-10.6847
ɲɲɲɲɲɲɪ	-10.6851
▁wa	-10.6855
əəəvvvvvvvvvv	-10.686
▁question	-10.6866
khkhkhɑɑɑ	-10.6867
ɪɪɪɪɪɪɪɪddd	-10.6868
ʎʎʎʎʎɪɪɪɪɪɪɪ	-10.6871
tjtjtjiiiiiii	-10.6873
ɫɫɫɫɫɫɫɫdddd	-10.6875
ом	-10.6877
▁news	-10.6878
əəəɲɲɲ	-10.6881
▁mainly	-10.6885
ðððððəəə	-10.6885
nnnnnnəəəəəə	-10.6885
ɪɪɪɪnnnnnnnnnn	-10.6885
ɾɾɾɾɾɾɾɾɾɾɾɾɾɾɾɾ	-10.6886
▁ɪɪɪɪɪɪɪɪʔʔʔʔʔ	-10.6889
phphphphphɑɑɑɑɑɑ	-10.6889
▁award	-10.6894
wwwwwwwejejejej	-10.6895
▁wwwwwwwwwww	-10.6897
▁əəəəəə	-10.6899
hhhhhhæææ	-10.6899
mmmmmmmbbbb	-10.6902
sssssssspppppp	-10.6903
▁knew	-10.6904
ham	-10.6907
▁base	-10.6908
çççççɪɪɪɪ	-10.6911
iiiiiiiiəəəə	-10.6925
ssssssssskkkkkkk	-10.6927
sssssstttt	-10.6928
▁writing	-10.6931
▁effect	-10.6935
wwwwwwɝɝɝɝɝɝɝɝ	-10.6938
ttttssssss	-10.694
well	-10.6943
чи	-10.6945
ɛɛɛɛɛɛɛkkkkkkkkk	-10.6948
sssssssskkkkkkk	-10.6953
ft	-10.6963
ttttttttɚɚɚɚɚɚ	-10.6967
ɪɪɪɪɪɪɪɪɪɪnnn	-10.6976
hhhhææææ	-10.6977
ejejejejkkkkkkkk	-10.6977
во	-10.6982
ту	-10.6984
ttttssss	-10.699
▁scotland	-10.699
▁jo	-10.6995
wwwwwwwɝɝɝɝɝɝɝɝ	-10.6997
ɛɛɛɛɛɛɛnnnnnnnnn	-10.7002
ʎʎʎʎʎʎɪɪɪɪɪɪɪɪ	-10.7003
ejejejejejejnnnn	-10.7009
xxxxxxx	-10.7018
▁ççççççççççççççi	-10.7021
əəəmjmjmjmjmjmj	-10.7021
tʃtʃtʃtʃɚɚɚɚɚɚɚ	-10.7022
ɫ̩ɫ̩ɫ̩ɫ̩ɫ̩	-10.7036
ɹɹɹɹɹɹɹɹɹɪɪɪɪɪɪɪ	-10.7039
nnnəəəəəəəə	-10.704
əəəəəɹɹɹɹɹɹɹ	-10.7041
vvvvvɚɚɚɚɚɚɚ	-10.7041
fffffffffɚɚɚɚɚ	-10.7042
ɪɪɪɪɪɪɪŋŋŋ	-10.7045
khkhkhɐɐɐɐɐɐɐɐ	-10.7052
tsjtsjtsjtsj	-10.7055
▁coach	-10.7056
əəəəchchchchchch	-10.7058
▁self	-10.7061
▁successful	-10.7062
▁france	-10.7063
ɪɪɪɪsssssss	-10.7066
▁construction	-10.7066
ejejejtjtjtjtj	-10.7068
ttttttttsssss	-10.7071
nnnnnnnnbbbbb	-10.7073
wwwwwwwwɛɛɛɛɛɛɛ	-10.7073
ɲɲɲɲɲɲɲɲɲɲɪ	-10.708
ddddəəəəəə	-10.7083
▁train	-10.7084
vvvvvvvvvvvdd	-10.7084
ɲɲɲɲɲiiiiiiiii	-10.7089
up	-10.7089
əəəəɹɹɹɹ	-10.7097
mon	-10.7099
əəəəbbbbbbbbb	-10.7099
əəəəəlllllll	-10.71
zzzzzəəəəəə	-10.7104
ththththɛɛɛɛɛɛɛɛ	-10.7107
ning	-10.7109
▁everything	-10.7109
▁move	-10.7116
chchchæææ	-10.7123
ffffffffffffɒɒɒɒ	-10.7124
ʎʎʎʎɪɪɪ	-10.7125
ajajajajttttttt	-10.7128
ʎʎʎʎɪɪɪɪɪɪ	-10.7129
ɫɫɫɫɫdd	-10.7131
hhhhhæææææ	-10.7133
ttttttttəəəəəə	-10.7134
red	-10.7137
ho	-10.7137
▁contains	-10.7144
owowowowzzzzzzzz	-10.7144
▁raised	-10.7155
pppppppppppplll	-10.7156
vjvjvjvjɪɪɪɪɪ	-10.7158
sssssssttttttttt	-10.716
ut	-10.7164
▁camp	-10.7167
gue	-10.7169
▁bow	-10.7176
ɪɪɪɪɪɪtttttttt	-10.7179
əəəchchchchchch	-10.7179
ɛɛɛnnnnn	-10.7179
▁sent	-10.7183
▁floor	-10.7186
ɒɒɒɒɒɒɒɒɫɫɫɫɫ	-10.7188
▁race	-10.7198
çççççɪɪɪɪɪɪɪ	-10.7199
ssssssssssssɪɪɪ	-10.7199
aaaaaaaaaaaa	-10.7204
ʎʎʎʎʎʎʎʎʎʎʎiiiii	-10.7204
əəəəfffffffffff	-10.7211
▁australia	-10.7212
ddd̪d̪d̪d̪d̪	-10.7212
му	-10.7219
nnnnd̪d̪d̪əəə	-10.7219
ча	-10.7221
zzzzzzzɪɪɪɪɪɪɪ	-10.7222
ʒj	-10.7225
d̪d̪d̪d̪ɪɪɪɪɪɪ	-10.7225
go	-10.7225
▁longer	-10.7225
▁reason	-10.7226
▁week	-10.7227
tjtjtjɪɪɪdd	-10.7228
khkhkhɐɐɐɐ	-10.7229
mmmmmmmmɐɐɐɐɐɐɐ	-10.7232
tttttɚɚɚɚ	-10.7232
by	-10.724
▁khkhkhkhkhkh	-10.7241
▁job	-10.7244
ɪɪɪkkkkkkk	-10.7249
thththththʉʉʉʉʉʉ	-10.7252
▁countries	-10.7252
▁leave	-10.7255
pppɹɹɹɹ	-10.7256
ʎʎʎʎʎʎʎʎʉ	-10.7262
əəəəəəəəəənnnnnn	-10.7262
thththʉʉʉʉ	-10.7267
ssssssssssəəəəə	-10.7269
ɑɑɑɑɑɑɑɑɑɹɹɹɹɹ	-10.727
tttttssss	-10.7275
bbbbbbəəə	-10.7276
ology	-10.7276
əəəɹɹɹɹɹɹɹ	-10.728
bbbbbbbbɹɹɹɹɹ	-10.728
ccccccʃʃʃʃʃʃʃʃ	-10.7286
их	-10.7294
ɑɑɑɑɑɑɑɑnnnnnnn	-10.7295
▁association	-10.7296
ççççççɪɪɪɪɪɪɪ	-10.7298
▁hu	-10.7298
▁tu	-10.73
▁quickly	-10.7304
khkhkhawawawawaw	-10.7306
ɹɹɹɹɹəəəəə	-10.7308
▁ççççççççç	-10.7311
ше	-10.7317
ɹɹɹɹɹɛɛɛɛɛ	-10.7324
mmmmɛɛɛɛɛɛɛ	-10.7329
▁ab	-10.7332
ddththththththth	-10.7335
llllləəəəə	-10.7336
ʎʎʎʎʎʎʎʎʎɪɪɪ	-10.734
tor	-10.734
nnnnd̪d̪d̪d̪əəə	-10.7342
▁parents	-10.7343
▁je	-10.7344
▁speak	-10.7345
ssssssssskkkkkk	-10.7346
ɛɛɛɛɛɛɛɛɛɛnnnnn	-10.7347
▁peter	-10.7348
▁shows	-10.7351
d̪d̪d̪d̪ɛɛɛɛɛɛɛ	-10.7351
khkhkhɑɑɑɑɑɑɑɑɑɑ	-10.7352
tttttttssss	-10.7353
kkkkkkəəəə	-10.7355
əəəəəɫɫɫɫɫɫɫɫɫɫɫ	-10.736
то	-10.7361
...	-10.7364
vvvvvvvəəəə	-10.7365
wwwwwɐɐɐɐ	-10.7371
hhhhhhhhhææææææ	-10.7371
ɑɑɑɑɹɹɹɹɹɹ	-10.7373
▁professional	-10.7373
rjrjrjrjrjrjrj	-10.7374
wwwwwɐɐɐɐɐɐɐ	-10.7374
▁subject	-10.7381
field	-10.7386
ating	-10.7387
▁killed	-10.7392
zzzzzzəəəəəəə	-10.7394
lllllləəəəəə	-10.7398
▁attack	-10.74
ɹɹɹɹɹɹɹɛɛɛɛɛ	-10.74
wwwwwɪɪɪɪɪɪɪ	-10.7401
ddɹɹɹɹɹɹɹɹ	-10.7401
▁key	-10.7403
ʊʊʊʊʊʊdd	-10.7406
▁cover	-10.7409
zzzzzzzəəəəəəəə	-10.7414
wwwwwwwwɛɛɛɛɛɛ	-10.7417
tttttɚɚɚɚɚɚɚ	-10.742
ɐɐɐɐɐɐɐmmmmmm	-10.742
ææææææææʔʔʔʔʔ	-10.7422
▁æææææææææææææ	-10.743
▁owned	-10.743
khkhkhɐɐɐ	-10.7431
wwwwwwejejejejej	-10.7434
ium	-10.7434
ææææænnnn	-10.7436
nnnnsssssssss	-10.7438
nnnnnnnnɑɑɑɑɑɑɑɑ	-10.7439
▁dog	-10.7442
mmmmmmməəəəəəəə	-10.7443
mmmmmmɛɛɛɛɛɛɛɛ	-10.7449
ejʃʃʃʃʃʃʃʃʃʃʃʃʃ	-10.745
▁buildings	-10.7451
əəəəmmmmmmmmmm	-10.7453
ɪɪɪɪɪddd	-10.7456
awawawnnnnn	-10.7457
ææææææææʔʔʔʔʔʔʔʔ	-10.7466
ɲɲɲɲɪɪɪ	-10.7467
chchchææææææææ	-10.7468
▁featured	-10.7469
mjmjmjmjɪɪɪɪɪɪɪ	-10.7471
ɹɹɹɐɐɐ	-10.7473
nnnnnnnnzzzzzz	-10.7479
▁mrs	-10.748
d̪d̪d̪d̪ææææææææ	-10.748
mmmmmmmmowowow	-10.7481
▁stop	-10.7482
ʎʎʎʎi	-10.7484
▁training	-10.7485
zzzzzəəəəə	-10.7486
▁access	-10.7487
llllllejejejej	-10.7492
▁sold	-10.7492
əəəəəəbbbbbbbb	-10.7493
əəəɹɹɹɹɹɹ	-10.7496
▁stone	-10.75
ɛɛɛnnnnnn	-10.7502
▁start	-10.7504
▁roman	-10.7505
sssssssssəəəəə	-10.7506
nnnnnnd̪d̪d̪əəə	-10.7507
▁couple	-10.751
▁magazine	-10.751
ttttttttttəəəə	-10.751
zjzjzjzjzjzjzjzj	-10.7511
▁official	-10.7512
nnnnnnnnd̪d̪d̪d̪	-10.7512
æææææænnn	-10.7524
ɹɹɹɪɪɪɪɪɪɪ	-10.7526
ttttttssss	-10.7526
ææææææææʔʔʔʔ	-10.7529
llllllllajajaj	-10.7533
tttttttttsssssss	-10.7533
nnnnnnsssssss	-10.7535
bbbbbəəə	-10.7539
ɑɑɑɑɑɑɑɑɑɑɹɹɹɹɹ	-10.754
ffffffffffɚɚɚ	-10.7541
wwwwwɝɝɝɝɝɝɝɝ	-10.7545
▁pe	-10.7546
▁fight	-10.7547
ɪɪɪɪɪɪɪtttttttt	-10.7547
▁least	-10.755
▁economic	-10.7552
ðððððəəəə	-10.7553
▁read	-10.7555
ʒʒʒʒʒʒʒʒʒʒʒʒ	-10.7557
вер	-10.7558
ɒɒɒɒɒɒɒɫɫɫɫ	-10.7562
ttttsss	-10.7563
ves	-10.7563
bjbjbjiiiiiii	-10.7564
əəəphphphphph	-10.7569
owowowowɫɫɫɫɫɫɫɫ	-10.757
ɲɲɲiiiiiiii	-10.7573
jjjʊʊʊ	-10.7573
ɛɛɛɛɫɫɫɫɫɫɫ	-10.7579
phphphphphɑɑɑɑɑ	-10.7581
▁performance	-10.7582
llllajajajajaj	-10.7582
▁hold	-10.7585
bbbbbbajajaj	-10.7585
un	-10.7588
vvvvvvvɚɚɚɚɚɚ	-10.7588
nnnnntttttt	-10.7592
ææææææææʔʔʔʔʔʔʔ	-10.7595
ʎʎʎʎʎʎʎʎʎʎɪɪɪɪɪ	-10.7598
bbbbajajaj	-10.76
wwwwwwəəə	-10.7601
▁kept	-10.7601
▁railway	-10.7602
tttttttəəəəəə	-10.7605
▁living	-10.7607
ʂʂʂʂʂʂʂʂʂʂ	-10.7607
▁bi	-10.7615
ɛɛɛɛnnn	-10.7627
ççççɪɪɪɪ	-10.7631
ççççççççɪɪɪ	-10.7631
ssssssssowowowow	-10.7634
nnntttt	-10.7634
ççççççççç	-10.7634
lllllllowowow	-10.7641
nce	-10.7641
ææættt	-10.7641
▁airport	-10.7647
ɑɑɑɑɑɑɑɑɑɑɹɹɹɹɹɹ	-10.7649
▁shot	-10.7652
fjfjfjfjɪɪɪɪ	-10.7663
tjtjtjɪɪɪɪɪɪdd	-10.7666
ɐɐɐɐɐɐɐtʃtʃtʃtʃ	-10.7667
ɟɟɟɟɟɟɹɹɹɹɹ	-10.7669
tjtjtjiii	-10.7671
æææææææænnnnnndd	-10.7673
ççççʉ	-10.7673
▁tri	-10.7673
▁sal	-10.7673
ɪɪɪɪɪɪɪɪɪɪɪnnn	-10.7674
ɑɑɑɑɑɑɹɹɹɹɹɹ	-10.7684
ææææææʔʔʔʔ	-10.7687
ʊʊʊʊdd	-10.7689
d̪d̪d̪d̪d̪ɛɛɛɛɛɛ	-10.769
vvvvvvɚɚɚɚɚɚ	-10.7698
wwwwwwwajajajaj	-10.77
ææææʔʔʔʔ	-10.7701
ɪɪɪɪɪɪdʒdʒdʒdʒdʒ	-10.7701
▁problem	-10.7703
iiiəəə	-10.7704
əəəəəmmmmmmmmmm	-10.7704
mmmmmmmɛɛɛɛɛ	-10.7708
po	-10.7709
ɹɹɹɹejejejejej	-10.7717
ɛɛɛɛkkkkkkkk	-10.7717
mmmmmmejejejejej	-10.7718
nnnntttttt	-10.7719
▁min	-10.7723
tch	-10.7727
əəəəbbbbbb	-10.773
ɹɹɹɹɹɹɹɹowowowow	-10.773
mmmmməəəəəə	-10.7733
ɛɛɛnnnnnnnn	-10.7733
▁super	-10.7733
əəəbbbbbbb	-10.7734
ɹɹɹɹɹɹiiiiiiiii	-10.7735
ps	-10.7745
nnnnnsssssssssss	-10.7746
wwwwwwwwɪɪɪɪɪɪɪɪ	-10.7746
ɪɪɪzzz	-10.7747
▁ɪɪɪɪɪɪɪɪɪʔʔʔ	-10.7755
▁election	-10.7756
сти	-10.7763
ɪɪɪɪɪɪtjtjtjtjtj	-10.7765
▁oh	-10.7766
ф	-10.7767
hhhhhhhhhæææææ	-10.7768
▁media	-10.777
lllllllləəəəəəə	-10.7776
ɲɲɲɲɲɲɲɪɪɪɪɪɪɪ	-10.7778
ɛɛɛɛɛɛɛvvvvvv	-10.7779
▁tra	-10.7781
▁parts	-10.7781
ejejejejejejddd	-10.7781
qu	-10.7785
sssssssstjtjtjtj	-10.7789
▁wanted	-10.779
iiiiiiiiiəəəəəəə	-10.7791
jjjee	-10.7792
▁according	-10.7794
ssssssssssssəəəə	-10.7794
mmmmɛɛɛɛɛɛɛɛ	-10.7802
ɚɚɚɚɚɚɚɚɚɚzzzzzz	-10.7804
ɐɐɐɐɐɐɐnnnnnnn	-10.7805
ɹɹɹɹəəəəəə	-10.7805
▁makes	-10.7806
ці	-10.7808
ɹɹɹɹɹɹɹɛɛɛɛɛɛ	-10.7809
thththththɛɛɛɛɛ	-10.7809
▁native	-10.7815
▁lower	-10.7817
əəəlllllll	-10.7818
ɑɑɑɹɹɹɹɹɹɹɹɹɹɹɹɹ	-10.7818
ɪɪɪɪɪkkkkkkkkk	-10.7821
ɒɒɒɒɒɒɒɫɫɫɫɫɫɫɫɫ	-10.7825
ððððððəəə	-10.7827
əəəəəəəəɫɫɫɫɫ	-10.7829
▁sports	-10.7836
zzzzzzzzəəə	-10.7841
▁civil	-10.7843
cwcwcwcwcw	-10.7844
▁systems	-10.7844
▁snow	-10.7845
thththththɛɛɛɛɛɛ	-10.7848
▁network	-10.785
da	-10.7856
cccccccʃʃʃʃʃʃʃʃ	-10.7857
wwwəəəzzzzzzz	-10.7862
▁gone	-10.7862
mmmmmmmmmɛɛɛɛɛɛɛ	-10.7865
▁fffffff	-10.7871
ʎʎʎʎʎʎʎʎʎɪɪɪɪɪɪ	-10.7877
▁во	-10.7877
khkhkhkhkhɐɐɐɐɐ	-10.7883
ʎʎʎʎʎʎʎʎʎʎʎɪɪɪɪ	-10.7886
khkhkhɑɑɑɑɑ	-10.7887
sssssttt	-10.7887
llllllowowowowow	-10.789
çççççɪɪɪ	-10.7891
und	-10.7892
▁sc	-10.7896
fjfjfjfjfjɪɪɪɪ	-10.7897
ææææææækkkkkkkk	-10.7898
çççɪɪɪɪɪɪɪɪ	-10.79
nnnnttttttt	-10.7901
çççɪɪɪɪ	-10.7902
ppppppppəəəəə	-10.7902
nnnnnnnnttttttt	-10.7902
bbbbbbbbɹɹɹɹ	-10.7904
əəəəəəɹɹɹɹɹɹɹɹ	-10.7907
▁fair	-10.7907
ajajajajajajɹɹɹ	-10.7911
▁eastern	-10.7915
▁box	-10.7916
ɪɪɪkkkkkkkk	-10.7918
ɪɪɪɪtjtjtjtjtjtj	-10.7922
▁wall	-10.7924
▁cause	-10.7927
▁bring	-10.7928
ppppppɹɹɹɹɹ	-10.793
ssssssssssəəə	-10.793
▁rank	-10.7935
▁plays	-10.7938
▁foot	-10.7938
▁competition	-10.7939
ʋʋʋ	-10.7941
wwwəəəzzzzzzzz	-10.7944
ɟɟɟɟɟɟɟɹɹɹɹɹɹɹ	-10.7946
nnnnnowowowowow	-10.7947
tttttɚɚɚɚɚɚ	-10.7948
lllllllɛɛɛɛɛɛɛɛ	-10.795
ɟɟɟɟɟɟɟɟɹɹɹɹɹɹɹɹ	-10.7953
ppppppppppɹɹɹ	-10.7955
tttɚɚɚɚɚɚɚɚ	-10.796
▁phphphphphph	-10.796
▁designed	-10.7961
им	-10.7961
▁committee	-10.7962
ɹɹɹɹɹɹɹiiiii	-10.7965
ɐɐɐɐɐɐɐɐtʃtʃtʃtʃ	-10.7965
ththththʊʊʊʊʊ	-10.7965
fffffffffffɹɹɹ	-10.7966
ified	-10.7969
ɛɛɛɛɛɛɛɛɛɹɹɹ	-10.7972
ʂʂʂʂʂʂʂʂʂ	-10.7972
zzzzzzəəəə	-10.7979
z̪	-10.798
ɒɒɒɒɹɹɹɹɹɹɹɹɹɹɹ	-10.7981
▁lord	-10.7986
ɛɛɛɛɛɹɹɹɹɹɹɹɹɹɹ	-10.7987
▁ni	-10.7988
ɪɪɪɪɪɪɪɪkkkkkkk	-10.7989
ɪɪɪkkkkkk	-10.799
▁mid	-10.799
khkhkhəəəəə	-10.7994
ɹɹɹɹɹɛɛɛɛɛɛ	-10.7995
chchchææææææææææ	-10.7997
▁model	-10.7999
ists	-10.8003
dy	-10.8003
ible	-10.8005
▁horse	-10.801
▁winter	-10.8011
▁formed	-10.802
ɛɛɛɛɛɛɹɹɹɹɹɹɹɹɹɹ	-10.8021
▁та	-10.8022
▁perhaps	-10.8022
ɒɒɒɒɹɹɹ	-10.8028
nnnnnnnnnttt	-10.8028
wwwwwwwwwɐɐɐɐɐɐ	-10.803
▁ju	-10.8031
▁joined	-10.8034
▁established	-10.8037
ɪɪɪɪɪɪdddd	-10.8043
▁meet	-10.8043
əəəəəəəəənnnn	-10.8044
ɚɚɚɚɚɚɚɚzzzzzzz	-10.8054
ɹɹɹɹɛɛɛɛɛɛɛɛ	-10.8055
ddzzzzzzzzz	-10.8056
▁festival	-10.8058
ten	-10.8061
ɐɐɐɐɐɐɐɐnnnn	-10.8061
ddddəəəə	-10.8062
▁records	-10.8065
ɹɹɹɹɹajajajajaj	-10.807
ɑɑɑɑɑɑɹɹɹɹɹ	-10.8072
der	-10.808
ɛɛɛɛɹɹɹɹɹɹɹɹɹɹ	-10.8082
▁james	-10.8083
▁able	-10.8092
ə	-10.8094
за	-10.8094
do	-10.8095
▁hhhhhhhhhhhh	-10.8095
hhhhhæææææææ	-10.8097
ɪɪɪɪɪɪɪɪɹɹɹɹɹɹ	-10.8098
s̪s̪s̪t̪t̪t̪t̪t̪	-10.8098
tttttttɹɹɹɹɹ	-10.8104
ɹɹɹɹɹɹɹɹɹɹɪɪɪɪɪɪ	-10.8109
▁despite	-10.8112
▁pay	-10.8113
he	-10.8114
mmmmmmɛɛɛɛɛɛ	-10.8115
ɹɹɹɹɹɹiiiii	-10.8119
əəəəəmmmmm	-10.8121
mmmmɛɛɛɛɛɛ	-10.8122
mmmmmmmmmejejej	-10.8126
ʋʋʋʋʋʋʋʋʋ	-10.8126
bbbbajajajajajaj	-10.813
ой	-10.8131
ɪɪɪɪɪɪɪdʒdʒdʒdʒ	-10.8132
ææææææææʔʔʔʔʔʔ	-10.8134
nnnnnnnsssssss	-10.8136
▁separate	-10.814
ɹɹɹɹɹɹɹɛɛɛɛɛɛɛ	-10.8142
nnnnsssssss	-10.8143
▁ж	-10.8143
d̪d̪d̪əəəəəəəə	-10.8147
ddbbbbbbbbbbbb	-10.8148
æææææææææææænnn	-10.8148
▁command	-10.8152
nnnnnnttttttt	-10.8156
mmmmmmmææææææææ	-10.8158
bb	-10.8159
ddvvvvvvvv	-10.8159
əəəəəəəmmmmmmmmm	-10.816
bbbbbbbbbajajaj	-10.8165
ɪɪɪɫɫɫɫɫɫɫɫ	-10.8167
tttttssssssssss	-10.8168
ʃʃʃʃ	-10.8169
ɹɹɹɹɹəəəə	-10.8174
sssttt	-10.8178
wwwwwwwwəəəəəə	-10.8182
ɒɒɒɒɹɹɹɹɹɹɹɹɹɹɹɹ	-10.8183
же	-10.8187
pppppppppɹɹɹ	-10.8187
▁par	-10.8189
ɹɹɹɹææææææææ	-10.8199
khkhkhkhɐɐɐɐɐ	-10.8199
ejejejejejtjtjtj	-10.8201
ddbbbbbbbbajajaj	-10.8207
ɛɛɛɛɛɛɫɫɫɫɫɫɫɫ	-10.8211
ɪɪɪɪŋŋŋ	-10.8212
▁rose	-10.8213
ɒɒɒɒɒɒɒɫɫɫɫɫɫ	-10.8215
lllllajajaj	-10.8219
ddddəəəəəəə	-10.822
▁ɪɪɪɪɪɪɪʔʔʔ	-10.8222
ɒɒɒɒɒɹɹɹ	-10.8224
sssstttttt	-10.8227
ɪɪɪɲɲɲ	-10.8228
▁closed	-10.8229
ttttttsssssssss	-10.8232
tʃtʃtʃtʃtʃɪɪɪɪ	-10.8247
ding	-10.825
ççççççɪɪɪɪ	-10.8256
tttɚɚɚ	-10.8256
bbbbbbajajajajaj	-10.826
▁plant	-10.8261
ɑɑɑɑɑɹɹɹɹɹɹ	-10.8261
▁color	-10.8261
▁ɪɪɪɪɪɪɪɪɪɪʔʔʔʔ	-10.8262
ççççɪɪɪɪɪɪɪɪ	-10.8263
ssssssssəəə	-10.8264
hhhhhhhhɝɝɝɝɝɝɝɝ	-10.8267
ʎʎʎʎʎɪɪɪɪɪɪɪɪ	-10.8269
ʎʎʎʎʎʎʎʎʎiii	-10.8271
xxxxxxxxxxxx	-10.8272
lllllllajajaj	-10.8276
▁positive	-10.8276
▁це	-10.8276
ssssssssssɛɛɛɛɛ	-10.8278
ffffffffffɚɚɚɚɚ	-10.8279
▁ver	-10.828
ɪɪɪɪɪɪɪddddd	-10.8281
ɒɒɒɒɒɒɒɫɫɫɫɫ	-10.8282
▁idea	-10.8284
ɹɹɹɹɹɛɛɛɛɛɛɛ	-10.8284
▁covered	-10.8288
ɒɒɒɫɫɫɫɫɫɫɫ	-10.8289
ɡɡɡɡɡɡɡɡɡɡɡɡɡɡɡɡ	-10.8292
▁especially	-10.8294
əəəəəəmmmmmm	-10.8296
pppppppɹɹɹ	-10.8299
▁takes	-10.8299
▁ææææææææ	-10.8302
æææʔʔʔ	-10.8303
bjbjbjɪɪɪɪ	-10.8304
ɪɪɪɪɪnnnnnnnnnnn	-10.8307
ди	-10.8309
ɛɛɛɛɛɛɛɛɛɛɹɹɹ	-10.8309
wwwwwwwəəə	-10.831
kkkksssssss	-10.8311
ttttssssssssss	-10.8312
mmmmmməəəəəəə	-10.8312
hhhhhhhhhææææ	-10.8312
ɲɲɲɲɲɲɪɪɪɪ	-10.8314
▁fine	-10.8316
m̩m̩m̩m̩m̩m̩m̩m̩	-10.8319
▁listed	-10.8321
əəəssssssssss	-10.8326
ɛɛɛɛɛɛɛvvvvv	-10.8327
ɹɹɹɹɹiiiiiiiiii	-10.8327
ttttttttttəəə	-10.8328
nnnnnnnnnowowow	-10.8328
nnnd̪d̪d̪əəə	-10.833
▁heavy	-10.8331
▁va	-10.8332
▁houses	-10.8334
▁п	-10.8336
▁mission	-10.8336
mjmjmjmjɪɪɪɪ	-10.8339
▁ppppp	-10.8344
ɹɹɹɹəəəəəəə	-10.8344
æææææææækkkkkkk	-10.8344
tttttɚɚɚ	-10.8345
▁sat	-10.8351
tʃ	-10.8351
ɑɑɑɹɹɹɹɹɹɹɹɹɹɹɹ	-10.8356
▁simple	-10.8356
ɪɪɪssssssssss	-10.8366
owowowɫɫɫɫɫɫɫɫɫɫ	-10.8369
ɛɛɛɛɛɛkkkkkk	-10.837
ttttsssss	-10.8372
chchchchæææææææ	-10.8374
▁difficult	-10.8375
ɪɪɪddd	-10.8379
▁stu	-10.8388
wwwwwwwwwɐɐɐɐɐ	-10.8388
ɾɾɾɾɚɚɚɚɚɚɚɚ	-10.839
ий	-10.8397
ʋjʋjʋjʋjʋjʋjʋj	-10.8399
▁lead	-10.8402
əəəəəəəəəəvvvvv	-10.8405
ɪɪŋŋŋŋŋŋŋŋŋŋŋŋŋŋ	-10.8406
ppppppppppppɹɹɹ	-10.8407
ɲɲɲɲɲɲɲɪɪɪɪɪɪ	-10.8407
nd	-10.8416
mmmmmmbbbb	-10.8416
ɪɪɪɪɪɪɪɪttttttt	-10.8416
▁fa	-10.8416
ɪɪɪɪzzzzz	-10.8417
əəəəffffffffffff	-10.8424
ddɛɛɛɛɛɛɛ	-10.8428
ville	-10.843
ɪɪɪɪɪɪɪtjtjtjtj	-10.8432
▁smith	-10.8433
▁match	-10.8434
əəəənnnttt	-10.8435
▁towards	-10.8443
llllləəəəəə	-10.8445
lllllllləəəəəəəə	-10.8446
▁rain	-10.8448
▁aircraft	-10.8449
▁appear	-10.8452
khkhkhkhɑ	-10.8456
tttttɚɚɚɚɚ	-10.8457
əəəəɡɡɡɡɡɡɡɡ	-10.846
ɹɹɹɹɛɛɛ	-10.8478
▁honor	-10.848
wwwwwɐɐɐ	-10.8481
ɪɪɪɪɪtttttttt	-10.8493
nnnnnnnəəəəəəəə	-10.8498
nnnnnnnzzzzzzz	-10.8499
ththththɛɛɛɛɛ	-10.85
▁lady	-10.8501
▁ɪɪɪɪɪɪ	-10.8504
▁campaign	-10.8505
▁spent	-10.8506
▁standing	-10.8508
ɹɹɹɹɹɹɹɹəəəəə	-10.8509
mer	-10.8511
ɪɪɪɪɫɫɫɫɫɫɫɫ	-10.8512
ship	-10.8513
ɹɹɹɹɹiiiii	-10.8519
▁decided	-10.852
ɲɲɲɲɲiiiiiiiiii	-10.8521
ɪɪɪɪɪɪɪɹɹɹɹɹɹɹɹɹ	-10.8522
mmmmmmmmmmmmdd	-10.8536
▁valley	-10.8537
ор	-10.8541
əəəəəəmmmmmmmmmm	-10.8542
lllllowowowowow	-10.8543
əəəəɹɹɹɹɹɹɹɹɹɹ	-10.8546
ɦɦɦɦɦɦɦ	-10.8546
▁changes	-10.8549
▁ask	-10.855
▁ffffffff	-10.8551
▁remain	-10.8552
▁future	-10.8562
▁bbbb	-10.8566
▁influence	-10.857
vvvvvvvvɚɚɚɚɚɚɚ	-10.8571
ffffffffɚɚɚɚɚɚɚ	-10.8572
▁bay	-10.8573
ccccccccʎʎʎʎ	-10.8577
lllllllllejejej	-10.8582
fjfjfj	-10.8585
▁limited	-10.8585
ɲɲɲɲɲɲɲiiiiiiii	-10.8585
ɪɪɪɪzzzzzzzzzzzz	-10.8586
ooooooooooo	-10.8587
▁running	-10.8594
▁provide	-10.8597
den	-10.8598
khkhkhkhɑɑɑ	-10.8599
ɪɪɪɪɪɪʃʃʃʃʃʃʃʃʃʃ	-10.8599
ure	-10.8601
ɪɪɪɪɪɪɪttttttt	-10.8601
▁deep	-10.8602
əəəəəəəɫɫɫɫɫɫ	-10.8609
əəəəffffffffff	-10.8612
mmmmmmmmmɒ	-10.862
əəəmmmmmmmmm	-10.8622
▁capital	-10.8626
sssssssssɛɛɛɛɛɛ	-10.8626
▁tree	-10.8631
bbbbbbbbɹɹɹɹɹɹ	-10.8633
ction	-10.8648
əəəəəəəllllllll	-10.865
ɔɔɔɔɔɔɔɔɔɔɔɔ	-10.8652
ɐɐɐɐmmmmmmmm	-10.8655
d̪d̪d̪d̪ɚɚɚɚɚɚɚɚ	-10.8657
ʎʎʎʎʎʎʎʎʎʎɪɪɪ	-10.8658
ttttɚɚɚɚɚɚɚ	-10.866
ffffffffttt	-10.8662
▁carried	-10.8663
kkkkkkkkllll	-10.8664
llllllləəəəəəə	-10.8667
vvvvdd	-10.8669
ɛɛɛɛɛɛkkkkkkkkk	-10.8679
ʎʎʎɪɪɪɪɪɪ	-10.868
ɹɹɹɹɹɹɹɹiiii	-10.8681
nnnnəəə	-10.8682
ɪɪɪɪdʒdʒdʒdʒdʒdʒ	-10.8685
ʃʃʃʃʃʃʃʃʃəəəəəə	-10.8685
nnnnnntttttt	-10.8686
▁й	-10.8686
▁friend	-10.8686
uuuuuuuuuu	-10.8689
ded	-10.8689
mmmmməəə	-10.8689
əəəəəəəəɫɫɫɫɫɫɫ	-10.8693
vjvjvjvjɪɪɪɪɪɪɪɪ	-10.8695
vvvəəəə	-10.8695
ɲɲɲɲɲɲɲɲiiiiiiii	-10.8696
▁required	-10.8698
əəəɹɹɹiiiii	-10.8699
▁sister	-10.8705
khkhkhkhɐɐɐɐɐɐ	-10.8707
æææææææʔʔʔʔ	-10.8707
kkkkkkkkkkllll	-10.8709
▁travel	-10.8709
ɪɪɪɪkkkkk	-10.8711
əəəəəəlllllll	-10.8714
lin	-10.8716
▁де	-10.8719
ajajajajnnnnnnn	-10.8724
▁сво	-10.8725
ææææææænnnnnnndd	-10.8725
▁opened	-10.8726
khkhkhɒ	-10.873
ɪɪɪɪttt	-10.8734
ɲɲɲɲɲɲɲɲɲɲʉ	-10.8735
▁reviews	-10.8741
ɹɹɹɹɹɹɹɹɛɛɛɛ	-10.8741
llllllllɒɒɒɒɒɒɒɒ	-10.8743
ajajajajtttt	-10.8743
▁forms	-10.8747
nnnnnnnnsssssss	-10.875
ttttttejejejejej	-10.8752
ɛɛɛnnnnnnn	-10.8756
▁feature	-10.8758
wwwwwwwwwɪɪɪɪɪɪ	-10.8759
▁plan	-10.8763
▁reach	-10.8764
▁да	-10.8765
ɪɪɪɪɪvvvvvvvv	-10.8768
▁gar	-10.8768
ɹɹɹɪɪɪɪɪɪɪɪ	-10.8769
▁hundred	-10.877
▁queen	-10.8774
djdjdjdjiiiiii	-10.8777
ɹɹɹɹɹɹɹɹdd	-10.8777
▁wish	-10.878
ɪɪɪɪɪɪɪʃʃʃʃʃʃʃʃʃ	-10.878
əəəəllllll	-10.8781
ʂʂʂʂʂʂʂʂʂʂʂ	-10.8783
ʋjʋjʋjʋjʋjʋjʋjʋj	-10.8783
ney	-10.8786
▁personal	-10.8788
▁miss	-10.8789
bbbbbbbbææææææææ	-10.8791
oc	-10.8793
▁significant	-10.8793
vjvjvjʉ	-10.8796
▁cur	-10.8796
lllllllɛɛɛɛɛɛɛ	-10.8797
ɪɪɪɪɪɪɪɪɪŋŋŋŋŋŋŋ	-10.8802
nnnnnnnmmmm	-10.8803
▁caused	-10.8803
llllləəəə	-10.8804
nnnnssssssssss	-10.8805
sssssssssəəə	-10.8805
fffffffffffɚɚɚɚ	-10.8806
ththththʉʉʉʉʉʉʉ	-10.8812
ɑɑɑɑɑɹɹɹ	-10.8812
vvvɚɚɚ	-10.8814
▁structure	-10.8815
▁tour	-10.8815
ʎʎʎi	-10.8821
ро	-10.8822
▁bell	-10.8824
▁spring	-10.8824
▁allowed	-10.8825
ɒɒɒɒɒɒɫɫɫɫɫɫɫɫ	-10.8826
ɾjɪɪɪ	-10.8827
▁bur	-10.8828
nnnnnnəəəəə	-10.8829
▁fear	-10.883
ææææʔʔʔʔʔ	-10.8836
ʎʎʎʎʎʎʎʎʎiiiiii	-10.884
▁christian	-10.8843
▁scottish	-10.8843
əəəəəəəɫɫɫɫɫɫɫ	-10.8844
▁tax	-10.8851
▁dear	-10.8854
iiiiiiiiəəəəəəə	-10.8858
ɐɐɐɐɐɐmmmmmm	-10.8866
ɛɛɛɫɫɫɫɫɫɫ	-10.8866
ɪɪɪɪddd	-10.8867
ɒɒɒɹɹɹɹɹɹɹɹɹɹɹ	-10.887
mjmjmjmjmjiiiiii	-10.8874
dʒdʒdʒdʒɛɛɛɛɛɛɛɛ	-10.8875
ɹɹɹɹɹɹɹɛɛɛɛɛɛɛɛ	-10.8878
pjpjpjpjpjpjɪɪɪ	-10.8888
▁typically	-10.889
▁noted	-10.889
ʎʎʎʎʎʎiiiiiiiii	-10.8891
ɪɪɪɪɪmmmmmmm	-10.8892
ɪɪɪɪkkkkkkkkk	-10.8893
▁paper	-10.8894
ɒɒɒɒɒɒɒɒnnnnnnnn	-10.8896
nnnnnnnntttttt	-10.8898
sssssssssssəəə	-10.89
llllejejejejej	-10.8906
khkhkhɑɑɑɑɑɑ	-10.8906
vvvvvəəəəəə	-10.8911
▁beach	-10.8913
▁под	-10.8914
hhhhhhhhhhææææææ	-10.8914
▁mu	-10.8918
ɛɛɛɛɛɛɛssssssss	-10.8921
▁бо	-10.8922
ccccccccccccɹɹɹɹ	-10.8923
ron	-10.8924
tttttsss	-10.8927
ejejejzzzzzzzzzz	-10.893
hhhhhhhhowowowow	-10.8932
▁press	-10.8933
ffffffffffɹɹɹɹɹ	-10.8933
ffffffffɹɹɹ	-10.894
▁data	-10.8941
▁standard	-10.8946
▁ru	-10.8947
ɪɪɪɪɪddddd	-10.8948
ɡɡɡɡɡɡɡowowowow	-10.8951
▁д	-10.8952
əəəəəəvvv	-10.8952
▁gu	-10.8953
▁contract	-10.8954
▁month	-10.8954
ɪɪɪɪɪʃʃʃʃʃʃʃʃʃʃʃ	-10.8958
ʒʒʒʒʒʒ	-10.8961
▁ɪɪɪɪɪɪɪɪɪɪʔʔʔ	-10.8961
ʎʎʎʎɪɪɪɪɪɪɪ	-10.8963
llllllllɛɛɛɛɛɛ	-10.8963
kkkkkkkkksssssss	-10.8965
▁gri	-10.8965
ɪɪɪɪɪɪɪɪɪɹɹɹɹɹɹɹ	-10.8966
kkkkkssssssssss	-10.8966
fffffffffajajaj	-10.8967
ççççççɪɪɪɪɪɪɪɪ	-10.8969
ɪɪɪɪɪttt	-10.897
ɪɪɪsssssssssss	-10.8972
▁husband	-10.8974
▁marriage	-10.8974
▁hair	-10.8991
▁sign	-10.8994
ɛɛɛɛɛɛɛvvvvvvv	-10.8996
kkkkkkkəəəəə	-10.8996
▁fell	-10.8996
ɪɪɪɪɪtttt	-10.8996
ger	-10.8999
▁previously	-10.901
əəəəəfjfjfjfjfj	-10.901
▁stood	-10.9013
▁j	-10.9013
▁finished	-10.9017
əəəəəɹɹɹɹɹɹɹɹɹ	-10.9018
ɪɪɪtjtjtjtj	-10.902
mjmjmjmjʉʉʉʉʉʉʉʉ	-10.9023
ɹɹɹɹɹɛɛɛɛɛɛɛɛ	-10.9024
▁mixed	-10.9024
рі	-10.9026
rjrjrjrj	-10.9027
ɑɑɑɑɑɑɑɑɑɹɹɹɹɹɹ	-10.9029
▁mean	-10.9038
ththththɝɝɝɝɝɝɝ	-10.9038
ssssssssssssttt	-10.9039
ppppppɹɹɹəəə	-10.904
hhhhhhhhhhæææææ	-10.9047
khkhkhkhkhɐɐɐɐɐɐ	-10.9048
ɪɪɪɪmmmmmm	-10.9049
ɛɛɛɹɹɹɹɹɹɹɹɹɹɹ	-10.9049
▁origin	-10.905
ɹɹɹiiii	-10.9052
hhhhhææææææ	-10.9053
▁studies	-10.9053
wwwwwɐɐɐɐɐɐɐɐ	-10.9053
ccccccccccccʎʎʎ	-10.9056
▁sl	-10.9061
awawawnnnnnn	-10.9066
min	-10.9066
ɪɪɪɪɪɪmmmmmmmm	-10.9068
▁parliament	-10.9068
sssssssɪɪɪɪ	-10.907
fffffffɹɹɹɹ	-10.9072
▁herself	-10.9073
khkhkhkhawawawaw	-10.9073
▁jjjjjjjjʉ	-10.9073
▁mary	-10.9074
ɪɪɪɪɪvvvvvvv	-10.9076
ɪɪɪɪɪɪɹɹɹɹɹɹɹɹ	-10.9078
ffffffffffajajaj	-10.9079
▁length	-10.9079
ɪɪɪɫɫɫ	-10.908
ɫɫɫdd	-10.9086
▁forward	-10.9089
vvvvvəəə	-10.909
▁cal	-10.9095
ged	-10.9097
tjtjtjɪɪɪɪɪɪɪɪɪɪ	-10.9098
awawawnnnn	-10.9099
▁bad	-10.9099
▁dance	-10.9118
mmmmmmmmɑ	-10.9122
ɪɪɪsssssssss	-10.9122
▁ɪɪɪɪɪɪɪɪɪʔʔʔʔʔ	-10.9123
ɹɹɹɹɹɹejejejej	-10.9124
▁catholic	-10.9126
ɪɪɪɪɪɪɪɪŋŋŋ	-10.9126
▁grand	-10.9126
mj	-10.9129
▁flu	-10.9129
nnnnnnththththth	-10.913
tttttsssssssssss	-10.9132
ɛɛɛɛɛɛɛɫɫɫɫɫɫɫɫ	-10.9133
ɛɛɛɛɛɛɛɛɛɛnnnn	-10.9134
▁lay	-10.9139
▁study	-10.9144
əəəəəəəəəɫɫɫ	-10.9149
ɪɪɪɪɪɪttt	-10.9151
ɲɲɲɲɲɲɲɲɪɪɪɪɪɪɪɪ	-10.9151
▁library	-10.9152
nnnnnnntttttt	-10.9156
ɪɪɪɪɪɪɪɪɪɪɪzzzzz	-10.9158
tjtjtjtjtjɹɹɹɹɹi	-10.9167
ɛɛɛɛɛɛɛɛɛɛɛnnnnn	-10.9167
wwwwwwwwwɪɪɪɪ	-10.9168
ppppɹɹɹɹ	-10.917
ttttttsss	-10.9172
▁prince	-10.9172
▁individual	-10.9172
lllllllləəə	-10.9173
▁bit	-10.9176
ped	-10.918
əəəddd	-10.9187
phphphphejejejej	-10.9188
ddzzzzzzzzzz	-10.9191
ory	-10.9192
ððððððəəəə	-10.9194
▁ththththth	-10.9194
phphphphɝɝɝɝɝɝɝɝ	-10.9195
thththɛɛɛɛɛɛɛɛ	-10.9204
mjmjmjmjɪɪɪɪɪɪɪɪ	-10.9206
▁cup	-10.9219
▁comes	-10.922
▁culture	-10.922
fffffffffffɹɹɹɹɹ	-10.9223
ɪɪɪɪɪɪtttttt	-10.9231
wwwwwwwwɐɐɐ	-10.9232
▁replaced	-10.9234
jjjjjɪ	-10.9234
ɪɪɪzzzzzz	-10.9237
tʃtʃtʃtʃɚɚɚɚɚ	-10.9239
▁serves	-10.9239
▁cla	-10.9241
▁films	-10.9242
▁problems	-10.9242
▁stand	-10.9242
▁cold	-10.9243
ddddəəəəəəəə	-10.9244
sssssssstjtjtj	-10.9244
ɪɪɪmmmmmmm	-10.9244
pj	-10.9245
awawawnnnnnnnndd	-10.9252
mmmmmmmmajajajaj	-10.9253
▁ɪɪɪɪɪɪɪʔʔʔʔ	-10.9254
▁text	-10.9255
ving	-10.9257
▁farm	-10.9259
let	-10.926
▁t	-10.9264
ses	-10.9265
mmmmɛɛɛɛɛ	-10.9266
▁tracks	-10.9266
▁complex	-10.9267
ɒɒɒɒɒɒɒɒnnnnn	-10.9273
▁chchchchchchch	-10.9273
ʎʎʎʎiiiiiiiiiiii	-10.9276
əəəəəəəəmmmmmmm	-10.9277
hhhhhhhhhhawawaw	-10.9277
sk	-10.9279
ɪɪɪnnnnnnnnnn	-10.9279
ɪɪɪɪɪɲɲɲɲɲ	-10.9279
tjtjtjɪɪɪɪɪdd	-10.9279
▁myself	-10.928
▁tried	-10.9286
▁david	-10.9287
llllllləəəəəəəə	-10.929
vvvvvvəəə	-10.9291
phphphphphowowow	-10.9292
ɡɡɡɡɡɡɡowowow	-10.9293
ððððəəəəə	-10.9295
çççççɪɪɪɪɪɪɪɪ	-10.9297
ææææææææffffffff	-10.9298
ɲɲɲɲɲɲɲiiiiiiiii	-10.9299
▁consists	-10.9301
dddɹɹɹɹɹɹɹɹ	-10.9301
nnnnnnnttttttt	-10.9301
ɹɹɹɹɹɹajajajajaj	-10.9302
vjvjvjvjvjvjɪ	-10.9304
shed	-10.9307
ɪɪɪmmmmmmmm	-10.9309
mmmmmmmmowowowow	-10.9313
awawawawawawnnn	-10.9313
▁ɪɪɪɪɪɪɪɪʔʔʔʔʔʔ	-10.9313
ttttttttttttɹɹɹ	-10.9314
king	-10.9318
ɪɪɪɪtttt	-10.9318
ɪɪɪzzzzzzzzz	-10.9319
pped	-10.932
əəəvvvvvvvvvvv	-10.932
ɲɲɲɲiiiiiiiii	-10.9321
▁novel	-10.9323
ɑɑɑɑɑɑɑɑnnnn	-10.9323
lllejejejejejej	-10.9325
ɒɒɒɒɒɒɫɫɫɫɫɫɫ	-10.9329
nnnnnnnɑɑɑɑɑɑɑɑ	-10.9334
əəəlllll	-10.9334
ɹɹɹɹɹɹɛɛɛɛɛ	-10.9335
ative	-10.9345
her	-10.9346
jjjjjjjjɪ	-10.9348
▁names	-10.9348
thththʉʉʉʉʉʉʉ	-10.9351
ththththɪɪɪɪ	-10.9355
ɟɟɟɟɟɟɹɹɹɹɹɹ	-10.9358
dddddejejejejej	-10.9358
▁commission	-10.9359
▁germany	-10.9363
▁fish	-10.9368
khkhkhkhəəə	-10.9369
▁mis	-10.9369
▁tower	-10.9369
ɹɹɹɹəəəəəəəə	-10.9374
ccccccccccccʎʎʎʎ	-10.9374
▁beautiful	-10.9376
▁terms	-10.9378
nnnnnnnnnzzzzzzz	-10.9381
əəəfjfjfjfjfjfj	-10.9381
ɹɹɹɹɹəəəəəə	-10.9382
▁placed	-10.9382
▁surface	-10.9382
ɹɹɹəəəmmmm	-10.9385
awawawawʔʔʔʔʔʔʔʔ	-10.9386
ʎʎʎʎʎʎʎʎʎɪɪɪɪɪɪɪ	-10.9386
ɛɛɛɛɛɛɛɛɛɛɛɹɹɹ	-10.9387
▁bear	-10.9388
æææææʔʔʔʔʔ	-10.939
əəəəəəəəəəəvvvvv	-10.9391
chejejejejejejej	-10.9392
ɑɑɑɹɹɹɹ	-10.9392
ccccccccɪɪɪɪ	-10.9393
ppppppəəəə	-10.9394
d̪d̪d̪d̪d̪ɚɚɚɚɚɚ	-10.9394
ddəəə	-10.9396
phphphphphphɑɑɑ	-10.9397
d̪d̪d̪d̪d̪ɪɪɪɪɪɪ	-10.9398
ming	-10.94
ве	-10.9405
əəəllll	-10.9408
mjmjmjmjɪɪɪ	-10.9408
▁fort	-10.9408
ajajajajajmmmmmm	-10.9411
nnnnnnnnnmmmm	-10.9415
bbbbəəəə	-10.9415
▁alone	-10.9417
ʐʐʐʐʐ	-10.942
kkkkkkkkttttt	-10.9422
ppppppppppəəəə	-10.9425
▁pass	-10.9425
fa	-10.9426
ssssssssɛɛɛɛɛɛ	-10.9429
ɟɟɟɟɟɟɹɹɹɹ	-10.9433
ɛɛɛɛɛɛɛɛɛɛɛɛɹɹɹ	-10.9434
vvvvvɚɚɚɚɚɚ	-10.9436
ɪɪɪɪɪɪtttt	-10.9437
ppppppppppppplll	-10.9437
▁cast	-10.9438
kkkkkkkkkəəə	-10.9442
▁date	-10.9449
sskkkkkkkʉ	-10.945
ɐɐɐɐɐmmmmmm	-10.9454
▁cases	-10.9455
▁walk	-10.9457
lllllləəəəəəə	-10.9458
ææææææææææææænnn	-10.9458
mmmmmmejejejej	-10.9459
khkhkhkhkhkhɐɐɐ	-10.9459
▁issue	-10.9461
llllllajajajaj	-10.9463
▁coast	-10.9463
ʎʎʎʎʎʎʎʎʎʎɪɪɪɪɪɪ	-10.9466
▁complete	-10.9469
ɲɲɲʉ	-10.9471
ccccccccɪɪɪ	-10.9472
▁entire	-10.9474
▁judge	-10.9475
wwwwwejejejejej	-10.9476
бо	-10.9481
▁blood	-10.9482
əəəəəəəəəənnnnn	-10.9483
əəəədddddddd	-10.9484
wwwwəəəəə	-10.9487
ææææʔʔʔ	-10.949
hhhhhææææææææ	-10.9491
ɛɛɛɛɛɛɛɛvvvvvvvv	-10.9493
ejejejejejejnnn	-10.9495
chchchchchææææææ	-10.9496
ɹɹɹɹɹɹɹɹɹiiiiii	-10.9497
zzzzzzzdd	-10.9499
▁staff	-10.9505
ssssttttttt	-10.9505
nnnnnnzzzzzzzz	-10.9506
▁speed	-10.9506
əəəəəəəəɫɫɫɫɫɫ	-10.951
æææææææænnnnndd	-10.9511
▁hi	-10.9514
ɹɹɹɹɹɹɹəəəəə	-10.9518
ɪɪɪɪɪttttt	-10.9519
▁location	-10.9529
▁fall	-10.9529
ttttttssssssssss	-10.9529
djdjdjdjdjdjiiii	-10.9533
nnnnnnnzzzzzz	-10.9536
ɛɛɛɛɛɛɛɛɫɫɫɫɫɫɫɫ	-10.9538
▁sure	-10.954
æææææææætttttttt	-10.954
▁ch	-10.9542
▁immediately	-10.9549
▁trail	-10.955
mmmməəəəə	-10.9552
sssssssssssəəəəə	-10.9555
ɒɒɒɒɒɒɒɒɫɫɫ	-10.9557
fffffffffɚɚɚɚɚɚ	-10.9559
lllllejejejej	-10.9559
wwwwəəəəzzzzzzzz	-10.9562
wwwwwwwwɛɛɛɛɛ	-10.9563
▁indeed	-10.9569
wood	-10.957
ɪɪɪɪɪɪttttttt	-10.9572
thththɛɛɛɛɛɛɛ	-10.9573
ɑɑɑɑɑɹɹɹɹɹ	-10.9577
llllowowowowowow	-10.9579
▁sons	-10.958
kkkkkkkkkllll	-10.9589
▁bed	-10.959
chchchæææææææ	-10.9591
ɹɹɹɹɐɐɐɐɐ	-10.9594
vjvjvjvjɪɪɪɪ	-10.9597
▁higher	-10.9598
ɐɐɐɐɐɐɐnnnnnn	-10.96
ɛɛɛɛɹɹɹɹɹɹɹɹɹɹɹ	-10.961
▁beyond	-10.9611
ɒɒɒɒɒɒɒɒɒɫɫɫɫɫɫɫ	-10.9613
▁path	-10.9623
ɹɹɹɹiiiiiiiiiiii	-10.9624
əəəəəbbbbbbbbb	-10.9625
ɑɑɑɑɑɑɑɑʔʔʔʔʔʔʔʔ	-10.9626
əəənnnəəəɫɫɫ	-10.9628
wwwwwwi	-10.9634
▁как	-10.9634
▁operated	-10.9634
djdjdjɪɪɪɪɪɪɪɪdd	-10.9636
ɪɪɪɪɪɪɪɪddddd	-10.9637
ðððððððəəə	-10.9638
ɹɹɹɹɹɹəəəəə	-10.9648
▁ка	-10.9653
pjpjpjpjpjpjɪɪɪɪ	-10.9655
ææænnnnnn	-10.9657
ɹɹɹɹɹɹɛɛɛɛɛɛ	-10.9659
əəəəmjmjmjmjmjmj	-10.966
▁famous	-10.966
▁property	-10.966
ththejejejejejej	-10.9661
ffffffffffɒɒɒɒ	-10.9662
▁hour	-10.9663
▁traditional	-10.9664
khkhkhkhəəəə	-10.9667
fffffffɚɚɚɚ	-10.9668
▁activities	-10.9674
ɲɲɲɲɲiiiiii	-10.9675
kkkkkkkkkkəəəə	-10.9678
əəəəəchchchchch	-10.9679
wwwwəəəəəə	-10.9682
tjtjtjtjɪɪɪɪɪdd	-10.9683
wwwwwwwɪɪɪ	-10.9686
ttttttɚɚɚɚɚɚɚɚɚ	-10.9688
ɑɑɑɹɹɹɹɹ	-10.9693
gen	-10.9694
▁related	-10.9696
ɛɛɛɛɛɛɛɛɛɹɹɹɹɹɹ	-10.9698
▁failed	-10.97
ejejejmmmmmmmmdd	-10.97
ɪɪɪɪɪɪɪkkkkk	-10.9705
ffffffffffɹɹɹ	-10.9705
wwwwwwwɐɐɐ	-10.9706
▁sand	-10.9708
ɪɪɪɪɪɪɪɹɹɹɹɹɹɹ	-10.9711
▁answer	-10.9713
ɪɪɪɪɪttttttt	-10.9717
kkkkkkssssss	-10.9718
vjvjvjvjvjiiiiii	-10.9719
ddzzzzzzzzzzz	-10.9719
▁reached	-10.9721
ɪɪɪɪɪɪɪɪzzzz	-10.9725
ccccccccʎʎʎʎʉ	-10.9728
iiiiiiiiiiəəəəəə	-10.9729
▁break	-10.9736
ththththɛɛɛɛɛɛ	-10.9736
▁widely	-10.9738
ejejejejssssssss	-10.9742
ɪɪɪɪɲɲɲɲɲ	-10.9744
▁inside	-10.9745
ɒɒɒɒɒɒɒɒnnnnnn	-10.9745
▁ssssssss	-10.9749
▁runs	-10.975
dddwwwwwwww	-10.9757
▁governor	-10.9762
wwwwwwwwɪɪɪ	-10.9763
ththththththɛɛɛɛ	-10.9764
phphphphowowowow	-10.9772
wwwwwwwwwwɐɐɐɐɐɐ	-10.9773
▁mmmmmmmmmmmm	-10.9775
ææænnnnnnnn	-10.9775
ææænnnnn	-10.9775
▁visit	-10.9775
d̪d̪d̪d̪ɛɛɛɛɛɛ	-10.9778
əəəəmmm	-10.9778
ар	-10.9782
nnntttttt	-10.9784
vvvvvvvvvvvvdd	-10.9787
▁expected	-10.9787
nnnnnd̪d̪d̪əəəə	-10.9789
ду	-10.979
ejejejejejejtttt	-10.9792
bjbjbjɪɪɪɪɪ	-10.9793
fjfjfjʉ	-10.9799
▁feet	-10.9804
sssssssɪɪɪɪɪ	-10.9806
ejejejejejttttt	-10.9806
▁ææææææææææææææ	-10.9817
ɪɪɪkkkkk	-10.9818
æææææææʔʔʔʔʔ	-10.9818
mmmmmmmɐɐɐɐɐɐɐ	-10.9819
▁condition	-10.9819
tʃtʃtʃtʃtʃtʃɪɪɪ	-10.9825
bbbbɚɚɚɚɚɚɚɚ	-10.9831
ɪɪɪɪɪɪɪɪɪzzzzz	-10.9833
▁material	-10.9834
▁djdjdjdjdjdj	-10.984
▁раз	-10.9843
ɛɛɛɛɛɛɛɛɛɛɛɛɛɹɹɹ	-10.9846
owowowɫɫɫɫɫɫɫɫɫ	-10.9847
▁nearby	-10.9852
lllllllææææææææ	-10.9861
?'	-10.9866
ɐɐɐɐmmmmmmm	-10.9868
jjjjjjjɪ	-10.9869
▁approach	-10.987
▁critics	-10.9871
▁companies	-10.9873
ɲɲɲɲɲʉ	-10.9874
▁degree	-10.9877
mmmmmmmmbbbbb	-10.9877
▁cha	-10.9878
▁referred	-10.9881
nnnnd̪d̪d̪əəəə	-10.9885
▁divided	-10.9888
æææææææʔʔʔʔʔʔʔʔ	-10.9895
thththɛɛɛ	-10.9897
▁coming	-10.9899
▁exist	-10.9902
▁continues	-10.9906
sssssstjtjtjtjtj	-10.9908
ge	-10.9908
▁eye	-10.9909
ɐɐɐɐɐɐɐnnnnn	-10.9909
vvvvvvvɚɚɚɚɚɚɚɚɚ	-10.9918
vjvjvjɪ	-10.992
ɹɹɹɹɹɛɛɛɛ	-10.9923
ppppppplll	-10.9924
mmmmmmmæææææææææ	-10.9924
▁ke	-10.9925
tt	-10.9927
ious	-10.9927
▁theatre	-10.9931
fffffffɚɚɚ	-10.9937
pppɹɹɹ	-10.994
zzzzzəəəəəəə	-10.9941
ɪɪɪɪɪɪttttt	-10.9941
▁weeks	-10.9944
ajajajajajtttttt	-10.9944
wwwwwwɐɐɐ	-10.9945
kkkkkssssss	-10.9946
bbbbbbbajajajaj	-10.9949
ʃʃʃʃʃʃʃʃəəəəə	-10.995
wwwwwwwwwwɪɪɪɪɪ	-10.9953
▁particularly	-10.9957
▁t̪t̪t̪t̪t̪t̪	-10.9957
ffffffffffɚɚɚɚɚɚ	-10.9963
ejejejejejdʒdʒdʒ	-10.9965
ɒɒɒɒɒɒɒɒŋŋŋŋŋŋŋŋ	-10.9966
əəəəəəəəənnn	-10.9973
▁из	-10.9975
ɟɟɟɟɟɟɟɹɹɹɹɹɹɹɹ	-10.9975
ɛɛɛɛkkkkkkk	-10.9976
vvvvvvvɚɚɚɚɚ	-10.9977
mmməəəəə	-10.9979
▁ʃʃʃʃʃʃʃʃʃʃʃi	-10.9981
ffffffffɹɹɹɹɹ	-10.9981
▁primarily	-10.9982
ʒʒʒʒʒʒʒʒʒʒʒʒʒ	-10.9982
▁latter	-10.9982
ens	-10.9982
vvvvvvɚɚɚɚɚ	-10.9983
▁ççççççççççç	-10.999
ɪɪɪɪvvvvvvvv	-10.999
ejejejʃʃʃʃʃʃʃʃʃ	-10.9992
ɹɹɹɹɹɹɛɛɛɛɛɛɛ	-10.9993
ʎʎʎʎʎʎʎʎʎʎʎɪɪɪ	-10.9995
▁medical	-10.9996
ɫɫɫddd	-10.9998
ppppppppɹɹɹɪɪɪ	-10.9998
ɹɹɹɹiii	-10.9999
▁particular	-10.9999
sssssssssssssɪɪɪ	-10.9999
mmmmmɛɛɛɛɛɛɛ	-11.0001
▁fourth	-11.0002
llllajajaj	-11.0003
▁tournament	-11.0003
ls	-11.0009
ɹɹɹɹɹɹowowowowow	-11.0011
▁bre	-11.0012
▁whether	-11.0018
ɚɚɚɚɚɚɚzzzzzzzzz	-11.002
ccccccccʃʃʃʃʃʃʃʃ	-11.0024
ʎʎʎʎʎʎʎʎʎiiiii	-11.0025
ççççççççççççççi	-11.0026
▁india	-11.0027
ejejejejejtttttt	-11.003
llllllllləəəə	-11.0031
▁hear	-11.0032
hhhhæææææ	-11.0032
ɪɪɪɪɪɪvvvvvvvv	-11.0033
zzzzzzzzzəəəəə	-11.0036
owowowɫɫɫɫɫɫɫɫ	-11.0038
ɹɹɹɹajajajajajaj	-11.0039
bbbbbbbəəəə	-11.004
▁replied	-11.004
bjbjbjbjbjiii	-11.0043
ɹɹɹɹɹɹɹəəəə	-11.0044
əəəəəmmmmmmmmmmm	-11.0045
▁girls	-11.0046
mit	-11.005
çççççççɪɪɪ	-11.0051
ɪɪɪɪɲɲɲɲɲɲ	-11.0052
▁paul	-11.0055
ɑɑɑɑɑɹɹɹɹ	-11.006
ɪɪɪɪɪɪɪɪvvvvvvvv	-11.0062
ɫɫɫɫɫɫɫɫddd	-11.0062
ого	-11.0064
ɛɛɛɛɛɫɫɫɫɫɫɫ	-11.0064
ав	-11.0065
əəəllllll	-11.0068
ɪɪɪɪɪɪɪtttttt	-11.0073
▁djdjdjdjdjdjdj	-11.0074
llləəəə	-11.0075
ast	-11.0085
▁əəəəəəəəəəə	-11.0085
ɐɐɐɐɐɐɐɐzzzzzzzz	-11.0088
ʎʎʎʎʎʎʎʎʎʎʎɪɪɪɪɪ	-11.009
æææænnnnn	-11.0092
lllowowow	-11.0095
ɪɪɪɪɪɪɪttt	-11.0096
▁fe	-11.0097
ththththʉʉʉ	-11.0097
▁professor	-11.0099
▁results	-11.01
ææææææʔʔʔʔʔ	-11.01
▁points	-11.0101
vvvvəəəəəə	-11.0103
▁chapter	-11.0106
▁taking	-11.0106
ɛɛɛɛɛɛɛɛɛɛɹɹɹɹɹɹ	-11.0107
ит	-11.0109
ææææææææʔʔʔ	-11.011
kwkwkwkwkwajajaj	-11.0111
ddajajajajajajaj	-11.0112
▁legal	-11.0113
▁imp	-11.0116
▁write	-11.0118
▁nnnnnnnn	-11.0125
æææænnnnnn	-11.0126
æææʔʔʔʔʔ	-11.0129
hhhhhhhhhæææ	-11.0131
▁anti	-11.0132
mmmmmmmmmbbbb	-11.0134
fffffffffɹɹɹəəə	-11.0135
ber	-11.0137
wwwwɐɐɐɐɐ	-11.0141
ɹɹɹəəəəəə	-11.0149
▁jjjjjjjj	-11.0149
ɹɹɹɹɹɹɹɹəəəə	-11.015
mmmməəəə	-11.015
ajajajajzzzzzzzz	-11.0152
▁frequently	-11.0152
▁dr	-11.0153
▁он	-11.0156
▁academy	-11.0157
ping	-11.0159
ejejejejejddddd	-11.0163
▁computer	-11.0168
▁appears	-11.017
ɪɪɪɪɪtttttt	-11.0171
bbbbbbəəəə	-11.0176
▁mjmjmjmjmjmjmj	-11.0176
nnnnnntjtjtjtjtj	-11.0178
▁ce	-11.0182
▁com	-11.0187
ɪɪɪɪɪɪɪttttt	-11.0188
ɹɹɹɹɹɹɹɹɹɹɹɪɪɪɪɪ	-11.019
khkhkhkhkhkhɐɐɐɐ	-11.0193
▁doing	-11.0194
wwwwwwwɛɛɛɛɛɛ	-11.0195
hhhhhhhæææææææææ	-11.0196
ɐɐɐɐɐɐɐɐmmmmmm	-11.0201
fjfjfjfjʉ	-11.0202
ɹɹɹɹæææææææ	-11.0204
▁ri	-11.0208
▁respect	-11.0209
лю	-11.021
vvvvvvvəəəəə	-11.021
əəəəəɡɡɡɡɡɡɡɡ	-11.021
▁follow	-11.0211
▁robert	-11.0211
▁lies	-11.0215
əəəəəfffffffffff	-11.0216
▁store	-11.0217
ppppppppppəəə	-11.0221
ɟɟɟɟɟɟɹɹɹɹɹɹɹ	-11.0224
ɹɹɹiiiiii	-11.0227
ise	-11.023
ɪɪɪɪɪɪɪtttt	-11.0234
hhhhhhhhɝɝɝɝɝɝɝ	-11.0235
▁source	-11.0237
▁fast	-11.0238
ний	-11.0239
ɲɲɲɲɲɲɲɲɪɪɪɪɪɪɪ	-11.0241
▁llllllll	-11.0243
ня	-11.0246
ttttttɹɹɹɹ	-11.0249
▁ice	-11.0249
ɹɹɹɹɹɹɹiiii	-11.025
ɛɛɛɛɛkkkkkk	-11.025
▁except	-11.0251
ppppppppplllll	-11.0252
▁ре	-11.0253
çççççççççɪɪɪɪɪ	-11.0255
ɲɲɲɲɲɲɲɲiiiiii	-11.0255
ɪɪɪɪɪɲɲɲɲɲɲ	-11.0256
lllllowowow	-11.0257
ɛ	-11.026
▁appearance	-11.026
▁offered	-11.0263
mmməəəə	-11.0264
tttttttttəəəəə	-11.0265
ɐɐɐɐɐɐnnnnnnnn	-11.0265
thththɛɛɛɛ	-11.0272
ɪɪɪɪvvvvvvv	-11.0273
nnnttttttt	-11.0273
▁direction	-11.0273
tttttttsss	-11.0274
vo	-11.0276
▁musical	-11.0279
▁lines	-11.0279
tttttttɚɚɚɚɚɚɚɚɚ	-11.028
▁china	-11.0284
vjvjvjɪɪɪ	-11.0286
zzzzzssssssss	-11.0287
tttttttttɚɚɚ	-11.0287
wwwwwəəəəzzzzzzz	-11.0287
лі	-11.0288
ɲɲɲɲɲɲɲɪɪɪɪɪ	-11.0288
æææænnnnnnnn	-11.0289
▁bright	-11.0292
▁для	-11.0292
lllllllɛɛɛɛɛɛ	-11.0294
ті	-11.0294
thththththɛɛɛɛ	-11.0294
▁б	-11.0295
ɲɲɲɲɲɪɪɪ	-11.0295
ɹɹɹɛɛɛɛ	-11.0296
wwwɪɪɪɪɪɪ	-11.0297
▁ad	-11.0301
▁ми	-11.0301
nnntttttttt	-11.0302
tes	-11.0302
vvvvvvvɛɛɛɛɛɛɛɛ	-11.0302
▁ski	-11.0302
ææææææʔʔʔ	-11.0312
vvvvəəə	-11.0313
ttttɚɚɚɚɚɚɚɚɚɚ	-11.0314
▁happy	-11.0314
▁dʒdʒdʒ	-11.0314
tʃtʃtʃtʃtʃəəəə	-11.0316
▁castle	-11.0316
ɒɒɒɒɒɒɒɒnnnnnnn	-11.0322
ththththththʉʉʉ	-11.0324
ɹɹɹɹɹɹɹɹɹejejej	-11.0326
ajajajajnnnnnnnn	-11.0329
▁hhhhhhh	-11.0331
əəəəənnnttt	-11.0331
ɪɪɪɪɪɪɪɪɪɪɪɪnnn	-11.0332
ɪɪɪɪɪʃʃʃʃʃʃʃʃʃʃ	-11.0333
ddddejejejejejej	-11.0335
ɹɹɹiiiiiiii	-11.0337
▁educated	-11.0338
▁perform	-11.034
▁від	-11.0342
æææææææʔʔʔ	-11.0348
ɡɡɡɡɡɡɡɡowowow	-11.0351
▁fellow	-11.0352
▁critical	-11.0352
ɛɛɛɛɛɛnnnnnnnnn	-11.0353
bjbjbjbjiii	-11.0353
▁chair	-11.0354
▁leaves	-11.0357
▁issues	-11.0358
▁pen	-11.0359
zzzzzzzzzɪɪɪɪɪɪɪ	-11.0359
▁rich	-11.0359
çççççççççʉ	-11.036
▁medal	-11.036
▁programs	-11.0364
ɹɹɹəəəmmmmm	-11.0364
ççççççʉ	-11.0365
ttttttttssss	-11.0369
æææænnnnnnn	-11.037
kwkwkwkwɑ	-11.0372
ææænnnnnnn	-11.0374
▁entered	-11.0374
▁beginning	-11.0374
ɹɹɹɹɹiiii	-11.0375
d̪d̪d̪d̪d̪ɛɛɛɛɛ	-11.0376
çççɪɪɪzzzzzzzz	-11.0377
ɫɫɫɫdd	-11.0377
kkkkkkkkkkkllll	-11.0378
ɪɪɪɪɪɪɪzzzz	-11.0379
▁languages	-11.0379
ɪɪɪɪdddd	-11.0379
fffffffffffɚɚɚ	-11.038
▁cried	-11.0381
▁unknown	-11.0382
ɹɹɹowowow	-11.0384
ened	-11.0384
llllləəəəəəə	-11.0387
hhhhhhhawawawaw	-11.0387
khkhkhəəə	-11.0388
▁variety	-11.0389
gg	-11.0395
lllləəəə	-11.0399
ap	-11.0399
▁regular	-11.04
ʎʎʎʎʎiiiiiiiiii	-11.0402
▁letter	-11.041
ɪɪɪɪɪɪɪɪɪʔʔʔʔʔʔʔ	-11.0411
▁easy	-11.0412
ɒɒɒɒɒɫɫɫɫɫɫɫɫ	-11.0418
vvvvvvvvɛɛɛɛɛɛɛɛ	-11.042
▁ge	-11.042
ajajajajajajttt	-11.0428
▁theory	-11.0429
nnnd̪d̪d̪əəəə	-11.0435
ɪɪɪmmmmmm	-11.0439
▁trees	-11.044
ççççççɪɪɪ	-11.0443
fe	-11.0445
zzzzzzzzd̪d̪d̪d̪	-11.0445
ddɐɐɐɐɐɐɐ	-11.0445
▁multiple	-11.0446
ві	-11.0447
▁arms	-11.0448
nnnnnnnnəəəəəəəə	-11.045
▁uses	-11.0454
▁mc	-11.0454
ɛɛɛɛɛɹɹɹɹɹɹɹɹɹɹɹ	-11.0457
▁female	-11.0457
▁charles	-11.0458
ɪɪɪɪɪɪɪɪtjtjtjtj	-11.0459
ccccccʃʃʃʃʃʃʃʃʃ	-11.046
llllllɛɛɛɛɛɛɛ	-11.0461
▁stories	-11.0465
ɡɡɡɡɡɡɡɡowowowow	-11.0466
▁concept	-11.0466
mmmmmmmɐɐɐɐɐɐɐɐ	-11.0467
ɹɹɹɹɹejejejej	-11.047
▁hours	-11.0471
ɲɲɲɲejejejejej	-11.0473
khkhkhkhowowowow	-11.0474
nnnnnnnəəəəəəə	-11.0474
▁bra	-11.0477
▁cor	-11.0478
ɪɪɪɪɪvvvvvv	-11.0478
wwwwwwɝɝɝɝɝɝɝ	-11.0481
▁nnnnnnnnn	-11.0481
▁characters	-11.0483
we	-11.0483
ffffffffɒɒɒɹɹɹ	-11.0483
ddzzzzzzzzzzzz	-11.0489
▁receive	-11.0491
awawawawʔʔʔʔʔʔʔ	-11.0492
zjzjzjzjzjzjzj	-11.0495
ɑɑɑɑɹɹɹ	-11.0496
mmmmmɛɛɛɛɛɛɛɛ	-11.0496
əəəəədddddddd	-11.0498
əəəəəbbbbbb	-11.0503
fjfjfjfjfjfjɪɪɪ	-11.0504
▁ed	-11.0506
wwwwəəəəzzzzzzz	-11.051
▁youth	-11.0511
ææææææækkkkkkkkk	-11.0513
æææææææʔʔʔʔʔʔʔ	-11.0515
hhhhhhhhhhææææ	-11.0516
ɹɹɹɹɐɐɐɐɐɐ	-11.0516
▁forces	-11.0518
nnnnnththththth	-11.0523
ejejejejejnnnn	-11.0523
▁secret	-11.0526
▁trust	-11.0527
khkhkhəəəə	-11.0536
ɪɪɪɪtttttttt	-11.0537
▁finally	-11.0539
əəəəəəəphphphph	-11.0541
ɹɹɹɹajajajajaj	-11.0542
▁ended	-11.0546
▁route	-11.055
▁foreign	-11.055
▁ш	-11.0551
ddd̪d̪d̪d̪	-11.0552
ʃʃʃʃʃʃʃʃəəəə	-11.0554
▁но	-11.0554
thththʉʉʉ	-11.0554
▁additional	-11.0556
ɐɐɐɐɐɐɐɐɐnnnnnnn	-11.0557
æææææænnnnnnnnn	-11.0559
ththththɛɛɛɛ	-11.0559
▁greek	-11.0559
wwwwɐɐɐɐ	-11.0562
ɪɪɪɪɪtjtjtj	-11.0563
▁brothers	-11.0565
▁boys	-11.0568
▁ɪɪɪɪɪɪɪʔʔʔʔʔʔʔ	-11.0568
mmmmmmɛɛɛɛɛ	-11.0571
▁mass	-11.0572
▁sort	-11.0573
ɒɒɒɫɫɫ	-11.0577
ʊʊʊʊʊʊʊʊʊdd	-11.0577
ɒɒɒɒɫɫɫɫɫɫɫɫ	-11.0579
thththɛɛɛɛɛ	-11.0582
ɪɪɪɪkkkkkkkkkk	-11.0583
khkhkhɑɑɑɑɑɑɑ	-11.0584
nnnd̪d̪d̪d̪əəəə	-11.0587
ging	-11.0587
ppppppppllllll	-11.0588
▁attention	-11.0588
ttttsssssssssss	-11.0589
nnnnnnowowow	-11.059
mmmmmmmajajaj	-11.0593
ka	-11.0595
nnnnnnnnmmm	-11.0598
▁provides	-11.0601
▁ə	-11.0601
əəəəlllll	-11.0605
▁sense	-11.061
llllllllllajajaj	-11.0613
▁step	-11.0616
▁africa	-11.0617
▁garden	-11.062
ɹɹɹɹɹɹɛɛɛɛɛɛɛɛ	-11.062
bbbbbbbbɛɛɛɛɛɛɛɛ	-11.0622
ɹɹɹɹɹɹiiii	-11.0622
▁specific	-11.0622
ɪɪɪɪɪɪɪɪkkkkkk	-11.063
llllllowowow	-11.0632
▁wwwwwwwwwwww	-11.0632
əəəəəsssssss	-11.0636
ajajajajajvvvvvv	-11.0638
ssssssssɐɐɐɐɐɐɐɐ	-11.0642
▁shape	-11.0648
▁bus	-11.0649
ɦɦɦɦɦɦɦɦɦ	-11.0649
▁account	-11.065
ɛɛɛɹɹɹɹɹɹɹɹɹɹɹɹ	-11.0651
tttttɚɚɚɚɚɚɚɚɚ	-11.0658
zzzzzzzɪɪɪɪ	-11.0659
tjtjtjtjɹɹɹɹi	-11.0662
ttttɚɚɚ	-11.0666
bbbbbbbbɹɹɹ	-11.0666
ɲɲɲɲɲɲiiiiii	-11.0667
tan	-11.0667
wwwwwwwwɒɒɒɒɒɒɒɒ	-11.0672
▁wearing	-11.0672
ɑɑɑɑɑɑɑɑɑnnnnnnn	-11.0674
ɪɪɪɹɹɹɹɹɹɹɹ	-11.0674
tʃj	-11.0677
wwwwwwwɛɛɛɛɛɛɛ	-11.0682
fffffffffɹɹɹɹɹ	-11.0685
ʎʎʎʎʎʎʎʎʎʎʎʎɪɪɪɪ	-11.0687
ajajajajajttttt	-11.0688
tʃtʃtʃtʃɚɚɚɚ	-11.0688
bbbbbbbbejejejej	-11.0688
▁japanese	-11.0689
ɹɹɹɹɐɐɐɐ	-11.069
ddəəəəə	-11.0691
cccccccɹɹɹɹ	-11.0691
ʃʃʃʃʃʃʃʃʃʃʃʃiiii	-11.0693
▁count	-11.0703
▁evening	-11.0703
▁section	-11.0706
ffffffffffɒɒɒ	-11.0711
ple	-11.0711
phphphphphɛɛɛ	-11.0712
llllllləəə	-11.0712
vvvəəəəə	-11.0713
vvvvvvɚɚɚɚ	-11.0713
ʎʎʎʎʎʎʎʎʎɪ	-11.0716
би	-11.0719
ɪɪɪɪɪɪɪvvvvvvvv	-11.072
▁double	-11.072
ɹɹɹɹɹææææææææ	-11.0722
ʎʎʎʎɪɪɪɪɪɪɪɪ	-11.0724
jjjəəə	-11.0724
ɲɲɲɲiiiiii	-11.0725
jjjjjjɪ	-11.0728
əəəəəɹɹɹɹɹɹ	-11.0729
ddɹɹɹɹɹɹɹɹɹ	-11.073
kkkkkkkkɹɹɹɹ	-11.0733
ɛɛɛɛɛɛɛsssssssss	-11.0737
side	-11.0737
▁serve	-11.0738
ot	-11.0739
əəəsssssssss	-11.0741
mmmɛɛɛɛɛɛɛɛ	-11.0742
ds	-11.0743
▁sleep	-11.0744
æææææʔʔʔ	-11.0744
ææææææææmmmmmmmm	-11.0744
▁stock	-11.0748
▁recent	-11.0748
▁border	-11.0753
wwwwwwwwɝɝɝɝɝɝɝ	-11.0753
▁ka	-11.0753
nnnnnnzzzzzz	-11.0754
lor	-11.0754
▁survived	-11.0754
ɪɪɪɪʃʃʃʃʃʃʃʃʃʃʃʃ	-11.0756
ɹɹɹɹɹəəəəəəə	-11.0757
gan	-11.0759
eeeeeeeeeeee	-11.0762
bbbbbbbbɹɹɹɹɹɹɹ	-11.0762
▁numbers	-11.0764
▁block	-11.0769
mmmmmmmmæææææææ	-11.077
ɟɟɟɟɟejejejejej	-11.0775
lllllləəəəəəəə	-11.0776
▁awards	-11.0776
▁feeling	-11.0777
ɹɹɹɹɹɹɹɹɹɹɹɪɪɪɪ	-11.0777
ɪɪɪɪɪɪɪɪʃʃʃʃʃʃʃʃ	-11.0778
əəəɹɹɹɹɹɹɹɹɹ	-11.0778
▁manager	-11.078
djdjdjiiiiiii	-11.0783
▁washington	-11.0783
pa	-11.0785
ɪɪɪɪɪɪɪɪɹɹɹɹ	-11.0785
ɪɪɪɫɫɫɫɫɫɫ	-11.0789
▁cap	-11.0789
bbbbbbbbbbajajaj	-11.0791
əəəəəlllllllll	-11.0793
ɪɪɪɪɪɪddddd	-11.0793
wwwwwwwɛɛɛɛɛɛɛɛ	-11.0795
▁whom	-11.0797
▁spanish	-11.0799
ɪɪɪɪɪkkkkkkkkkk	-11.0799
▁regard	-11.0804
chchchchchchæææ	-11.0808
mmmmmmmzzzzzzzz	-11.0817
▁older	-11.0817
əəəəəllllll	-11.0822
▁boat	-11.0826
▁reported	-11.0828
nnnnnnɑɑɑɑɑɑɑɑ	-11.083
ви	-11.0837
▁japan	-11.0838
ejejejmmmmmmmmm	-11.0838
cccccccʎʎʎʎ	-11.084
əəəmjmjmjmjmj	-11.0842
ɪɪɪɪʃʃʃʃʃʃʃʃʃʃʃ	-11.0843
əəəəəffffffffff	-11.0853
ɟɟɟɟɟɟɟɟɟɟɟɟɟɟ	-11.0855
kkkkkkkssssss	-11.0859
▁evidence	-11.0862
▁management	-11.0862
▁grow	-11.0863
ɲɲɲɲiiiiiiiiiiii	-11.0864
▁nearly	-11.0867
au	-11.0867
mmmmmmmɒ	-11.087
əəəəəəəəphphphph	-11.0875
ccccccccccʎʎʎʎ	-11.0877
▁glass	-11.0879
ɛɛɛɛɛɛɛvvvvvvvv	-11.0881
ɪɪɪɪɪɪɪɪttttt	-11.0881
əəəəlllllllll	-11.0884
nnnnnnnnnbbbbb	-11.0885
mmmmmmmmɐɐɐɐɐɐ	-11.0889
ejʃʃʃʃʃʃʃʃʃʃʃʃʃʃ	-11.0889
▁physical	-11.0889
mmmmmejejejej	-11.0894
awawawawnnnnnndd	-11.0894
bbbbbbbbəəəə	-11.0899
▁offers	-11.0902
æææææænnnnnnnnnn	-11.0903
lllllllllowowow	-11.0904
ɐɐɐɐɐɐɐnnnn	-11.0907
vvvvɛɛɛɛɛɛɛɛ	-11.0909
▁stay	-11.0913
ææææææææækkkkkkk	-11.0914
sion	-11.0916
lllejejej	-11.0917
chchchææææææ	-11.0922
ɪɪɪɪɪɪɪɪtttttt	-11.0926
▁initially	-11.0937
sssssssskkkkkkkk	-11.0937
▁rate	-11.0938
▁shown	-11.0938
pppppppppɹɹɹəəə	-11.0939
ɐɐɐɐɐɐɐɐpppppppp	-11.0943
ʊʊʊʊddd	-11.0946
æææææææʔʔʔʔʔʔ	-11.0947
▁shortly	-11.095
tal	-11.0955
iiiiiiiəəəəə	-11.0956
▁arm	-11.0956
kkkkkkkkkklll	-11.0957
nnnnnnnɑɑɑɑɑɑɑɑɑ	-11.0964
hhhhhhhhajajajaj	-11.0965
ɪɪɪɪɪssssss	-11.0967
▁walking	-11.0967
▁hot	-11.0968
▁oil	-11.0969
əəəəəəɹɹɹɹɹɹɹ	-11.0973
▁chinese	-11.0974
▁institute	-11.0974
▁sla	-11.0975
▁historical	-11.0979
ɪɪɪɪtjtjtj	-11.0979
nnnnnnnnzzzzz	-11.0982
ɒɒɒɒɒɒɒɒnnnn	-11.0983
phphphphphɑɑɑ	-11.0983
thththʊʊʊʊʊʊ	-11.0984
▁organization	-11.0984
ɛɛɛɛɛɛɛɛɛɹɹɹɹɹ	-11.0988
mmmmmmmmmmɒ	-11.0995
hhhæææææ	-11.0995
ɪɪɪɪɪɪɪɪɹɹɹɹɹ	-11.0996
nnnnnnnzzzzz	-11.1
uuuuuuuuuuu	-11.1002
ɹɹɹɹɹajajajaj	-11.1003
▁movie	-11.1016
▁mmmmmm	-11.1017
▁ste	-11.1024
▁supported	-11.1027
kkkkkkkttttt	-11.1028
ddzzzzz	-11.1029
ble	-11.1032
ccccccccʎʎʎʎʎ	-11.1034
aaaaaaaaaaaaa	-11.1034
əəəəəəəlllllll	-11.1035
▁highly	-11.1037
ɪɪɪtjtjtjtjtj	-11.1038
əəəəmmmmmmmmmmm	-11.104
ef	-11.104
çççççççççɪɪɪɪ	-11.1041
tttttttɹɹɹəəə	-11.1044
lan	-11.1052
ɛɛɛɛɛɛssssssss	-11.1053
▁object	-11.1054
▁canadian	-11.1054
▁dream	-11.1054
llllllllɑɑɑɑɑɑɑɑ	-11.1058
ɪɪɪɪɪɪɪɪɪɪzzzzz	-11.1058
▁stra	-11.106
kkkkksssssssssss	-11.106
▁taught	-11.1062
ɹɹɹɹɹɹɹɛɛɛɛ	-11.1064
ææænnnn	-11.1067
ult	-11.1069
ach	-11.107
▁ways	-11.1075
wwwwwɝɝɝɝɝɝɝ	-11.1075
wwwwwwɛɛɛɛɛ	-11.1077
tjtjtjtjtjɹɹɹɪɪɪ	-11.1078
▁arts	-11.1079
ɛɛɛɛɛɛɛɛkkkkk	-11.1081
▁sw	-11.1082
▁iron	-11.1085
fffffffffffɚɚɚɚɚ	-11.109
▁thomas	-11.1095
ɫɫɫɫssssssssssss	-11.1098
▁chance	-11.1098
əəəəsssssss	-11.1102
mmmmmmmajajajaj	-11.1103
ejejejssssssssss	-11.1104
vjvjvjvjvjvjiiii	-11.1104
mmmməəə	-11.1104
gh	-11.111
ных	-11.1118
ɪɪɪɪttttt	-11.1118
ʃʃʃʃʃʃʃʃəəəəəə	-11.112
▁cook	-11.112
▁goal	-11.1121
ɛɛɛɛɛɛɛɛɛɹɹɹɹ	-11.1127
sssssspppppppp	-11.1127
▁campus	-11.1129
wn	-11.113
zzzzzzzzzəəəəəə	-11.113
ajajajajajajajdd	-11.1133
ign	-11.1134
mmmmmmmmzzzzzzz	-11.1134
əəəəbbbbbbbbbb	-11.1136
ɚɚɚɚɚɚɚɚdd	-11.1137
nnnnnnnntjtjtjtj	-11.1137
əəəəpppppppp	-11.1138
▁cre	-11.1138
d̪d̪d̪d̪æææææææ	-11.1139
tʃtʃtʃtʃtʃtʃɚɚɚ	-11.1141
▁prevent	-11.1144
nnnnnnnnnnowowow	-11.1147
▁зна	-11.1148
ɲɲɲɲɲɲɲɲɲɲɲɪ	-11.1148
ɹɹɹɹɹɹəəəə	-11.115
vvvvvvɚɚɚ	-11.1151
▁hat	-11.1154
ɪɪɪɪvvvvvv	-11.1155
▁rights	-11.1159
▁ireland	-11.116
ɪɪɪzzzzzzzzzz	-11.1171
ɪɪɪtjtjtjtjtjtj	-11.1179
▁majority	-11.118
d̪d̪d̪d̪ɚɚɚɚɚɚɚ	-11.118
əəəəəɹɹɹ	-11.1182
▁metal	-11.1185
əəəəddddddd	-11.1185
ffffffffffffɹɹɹ	-11.1188
pppppppppɹɹɹɹɹɹ	-11.1189
▁ɐɐɐɐɐɐɐɐɐ	-11.1191
▁conference	-11.1193
▁content	-11.1193
ddddddejejejejej	-11.1195
ba	-11.1195
khkhkhkhɒɒɒɒɒɒɒɒ	-11.1196
▁places	-11.1197
ms	-11.1197
ɹɹɹɹɹɹɹɹəəəəəə	-11.1198
▁arch	-11.12
▁appointed	-11.1201
▁ve	-11.1201
fjfjfjfjɪɪɪ	-11.1201
▁ɪɪɪɪɪɪɪɪɪɪɪʔʔʔʔ	-11.1201
ɹɹɹɹɹəəəəəəəə	-11.1202
ɪɪɪɪɪɪvvvvvvv	-11.1206
kkkkkkkkkkkkllll	-11.1207
llllllejejej	-11.1215
▁represented	-11.1217
ttttɚɚɚɚɚɚɚɚɚɚɚ	-11.1221
ppppppplllll	-11.1226
əəəəəəɫɫɫɫɫɫɫɫɫ	-11.1227
ɹɹɹɹɹɹɹiii	-11.1228
▁previous	-11.1229
nnnnnndjdjdjdjdj	-11.1229
val	-11.123
▁collection	-11.123
ffffffffəəə	-11.1233
ɲɲɲɲɲɪ	-11.1233
▁rep	-11.1238
▁understand	-11.124
▁wind	-11.1241
▁ɪɪɪɪɪɪɪɪɪɪʔʔʔʔʔ	-11.1242
nnnnnnntjtjtjtj	-11.1245
tɕtɕtɕtɕɪɪɪɪ	-11.1249
▁shirt	-11.125
əəəəəəəvvv	-11.1252
s̪s̪t̪t̪t̪t̪t̪t̪	-11.1255
əəəəəəllllll	-11.1256
ðððððɚɚɚɚɚɚɚɚ	-11.1262
lllləəəəə	-11.1262
bbbbbbbɹɹɹɹ	-11.1264
cing	-11.1265
llllllɛɛɛɛɛɛɛɛ	-11.1267
zjzjzjzjzjzj	-11.1273
wwwwwwwwwwɐɐɐɐɐ	-11.1273
ddɹɹɹɹɹɹɹɹɹɹ	-11.1275
▁none	-11.1278
▁mon	-11.128
kkkkkkkktttttt	-11.1284
▁unit	-11.1284
phphphphphejejej	-11.1285
▁sto	-11.1286
rjrjrj	-11.1286
ɟɟɟɟɟɟɟɟɹɹɹ	-11.1294
▁episode	-11.1296
wwwwwwwɪɪɪɪɪɪɪɪ	-11.1298
▁cat	-11.13
▁neither	-11.13
əəəəəəəthththth	-11.1302
khkhkhkhkhəəəəə	-11.1309
▁doubt	-11.1315
nnnnnnnnnbbbb	-11.1318
▁lack	-11.1318
ttttɚɚɚɚɚɚɚɚɚ	-11.1321
mmmmmmmmbbb	-11.1323
▁religious	-11.1325
▁search	-11.1325
ɛɛɛɛɛɫɫɫɫɫɫɫɫɫ	-11.1328
ably	-11.1328
ððððððɚɚɚɚɚɚɚɚ	-11.133
▁nnnnnnnnnn	-11.1331
ения	-11.1333
▁ɐɐɐɐɐɐɐɐɐɐ	-11.1333
mmmmmmejejej	-11.1335
nnnnowowowowowow	-11.1336
əəəfffffffffff	-11.1336
▁commonly	-11.134
▁кон	-11.1342
▁fit	-11.1344
ан	-11.1347
fffffffffffɒɒɒɒɒ	-11.1348
ʂʂʂʂʂʂʂʂʂʂʂʂ	-11.1349
▁cra	-11.1349
▁square	-11.1352
▁completed	-11.1355
ɑɑɑɑɹɹɹɹɹ	-11.1359
▁continue	-11.1359
▁ɪɪɪɪɪɪɪɪɪɪɪʔʔʔ	-11.136
d̪d̪d̪d̪ɪɪɪɪɪ	-11.136
nnnnnnɑɑɑɑɑɑɑɑɑɑ	-11.1361
cccccccʃʃʃʃʃʃʃʃʃ	-11.1362
▁note	-11.1367
▁completely	-11.1372
ɪɪɪkkk	-11.1374
▁probably	-11.1375
▁energy	-11.1375
ture	-11.1376
▁entirely	-11.138
ɹɹɹɑɑɑ	-11.1381
mmmmmajajaj	-11.1385
▁student	-11.1388
kkkkkkkkkkɹɹɹɹ	-11.1389
ejejejejkkkkkkk	-11.1389
djdjdjdjɪɪɪɪɪɪdd	-11.1389
▁railroad	-11.1391
ɪɪɪɪɪɪkkkkkkkkk	-11.1396
mmmmməəəəəəə	-11.1397
▁wild	-11.1397
nnnnnnnnnnmmmm	-11.1398
ddzzzzzzzzzzzzz	-11.1403
▁purpose	-11.1405
ɛɛɛɛɛɛɛɛɛnnn	-11.1408
ɹɹɹɹɹowowowowow	-11.1416
▁happened	-11.1417
▁says	-11.1418
vvvvvvvəəə	-11.1419
ðððððəəəəə	-11.142
▁же	-11.142
mmmmmmmbbb	-11.1421
ddbbbbbbbbbbbbb	-11.1422
▁types	-11.1422
ɪɪɪɪɪmmmmmm	-11.1423
ɛɛɛɛɛɛɛɛvvvv	-11.1424
▁else	-11.1426
▁associated	-11.1427
▁gas	-11.1427
nnnnnnnajajajaj	-11.1428
əəəvvvvvvvvvvvv	-11.143
▁watch	-11.1432
vjvjvjvjɪ	-11.1433
▁twice	-11.1433
ttttttttəəəəəəə	-11.1435
ɑɑɑɑɑɑɑɑʔʔʔʔ	-11.1436
pppppppppplllll	-11.1437
ʃʃʃʃʃʃʃʃʃʃʃiiiii	-11.1437
kkkkkkəəə	-11.144
vjvjvjvjvjɪ	-11.1441
ɹɹɹɹɹɹɹəəəəəə	-11.1445
▁ya	-11.1449
▁method	-11.1452
od	-11.1459
hhhhhhhɝɝɝɝɝɝɝɝ	-11.1461
hhhhhhhhhowowow	-11.1461
ttttttɚɚɚɚɚɚɚɚɚɚ	-11.1464
▁бы	-11.1465
ddejejej	-11.147
▁report	-11.1472
▁price	-11.1477
▁fresh	-11.1477
pppppɹɹɹ	-11.1478
vvvvvvvvvvvvvdd	-11.1479
▁crew	-11.1481
wwwwwwwɐɐɐɐɐɐɐɐɐ	-11.1481
tra	-11.1481
əəəəəəəbbbbbbbb	-11.1484
wwwɐɐɐ	-11.1488
əəəəəəəəvvv	-11.1489
▁jjjjjjjjjjj	-11.149
bbbbbɐɐɐʔʔʔ	-11.1491
▁henry	-11.1493
rjrjrjrjɪ	-11.1493
▁fo	-11.1495
vvvvvɛɛɛɛɛɛɛɛ	-11.1495
bbbbbəəəə	-11.1497
▁relationship	-11.1501
ejʃʃʃʃʃʃʃʃʃʃʃəəə	-11.1501
ɪɪɪɪnnnnnnnnnnn	-11.1503
ɪɪɪtttt	-11.1504
▁gun	-11.1504
wwwwwwɛɛɛɛɛɛ	-11.1507
əəəəəəəəllllllll	-11.151
ɹɹɹɹɹɹɹɹiii	-11.1515
lllləəəəəə	-11.1515
ɹɹɹɹɹɹɹɹowowow	-11.1516
▁distance	-11.1518
▁believed	-11.1518
hhhhæææææææ	-11.152
the	-11.1522
mmmmmɛɛɛɛɛɛ	-11.1523
sssssssssssssttt	-11.1524
ɪɪɪɪɪɪɹɹɹɹɹɹɹɹɹɹ	-11.1525
mmmmmmmpppp	-11.1525
d̪d̪d̪d̪ejejejej	-11.1529
▁russian	-11.1529
▁host	-11.1529
sssssssəəəə	-11.1532
ɐɐɐɐɐɐmmmmm	-11.1533
ʎʎʎiiiiiiiiiiiii	-11.1541
▁bbbbbbb	-11.1542
▁richard	-11.1543
mmmməəəəəə	-11.1545
vvvvvvvvɚɚɚɚɚɚ	-11.1548
ssssssssəəəəəə	-11.155
ɫɫɫɫɫɫɫdddd	-11.155
mmmmmmowowow	-11.1551
▁ф	-11.1552
▁rule	-11.1552
▁meaning	-11.1553
▁suddenly	-11.1553
hhhhhhhhowowow	-11.1553
djdjdjɪɪɪɪɪɪɪɪɪ	-11.1555
wwwwwwwwwwɪɪɪɪɪɪ	-11.1555
▁parish	-11.1555
nal	-11.1559
sssssssɪɪɪɪɪɪ	-11.1561
▁cro	-11.1562
▁æææææææ	-11.1565
▁hhhhhhhhawawaw	-11.1568
▁policy	-11.1569
shire	-11.157
ɒɒɒɒɒɒɒɫɫɫ	-11.1571
▁larger	-11.1571
wwwwɐɐɐɐɐɐ	-11.1572
ɹɹɹɹɹɹɹowowowow	-11.1573
▁pan	-11.1573
em	-11.1575
djdjdjɪɪɪɪɪɪɪdd	-11.1577
▁weather	-11.1577
əəəəəəbbbbbbb	-11.1579
ssssttt	-11.158
awawawnnnnnnndd	-11.1585
▁label	-11.1587
ɑɑɑɑɑɑɑɑɑnnnnn	-11.1587
ɲɲɲɲɲɲɲɲɲɲɲʉ	-11.1589
fjfjfjfjfjɪɪɪ	-11.1591
æææææækkkkkkkk	-11.1591
ɑɑɑɑɑɑɑnnnnn	-11.1592
llllllllɚɚɚɚɚɚɚɚ	-11.1593
▁mjmjmjmjmjmj	-11.1595
▁sitting	-11.1595
bs	-11.1595
▁cost	-11.1599
xxxxxx	-11.1599
tttttɚɚɚɚɚɚɚɚɚɚ	-11.1599
nnnnnəəə	-11.1602
ððððððððəəə	-11.1602
▁ні	-11.1602
kkkkkkkkkkklll	-11.1603
▁brand	-11.1603
▁hotel	-11.1608
ɪɪɪɪɪɪɪɪtttt	-11.1609
əəəəɹɹɹɹɹɹɹɹɹɹɹ	-11.1611
nnnnnɑɑɑɑɑɑɑɑ	-11.1612
ɪɪɪɪɪkkkk	-11.1613
pppppɹɹɹɹɹ	-11.1615
mmmmɛɛɛɛ	-11.1616
ные	-11.1617
əəəəəəmmmmm	-11.1618
ɪɪɪɪɪɲɲɲɲɲɲɲ	-11.1623
▁quarter	-11.1624
wwwwwwwɝɝɝɝɝɝɝ	-11.1626
▁financial	-11.1628
▁wwwwwi	-11.1631
dʒdʒdʒdʒɛɛɛɛɛɛɛ	-11.1631
ɡɡɡɡɡɡɡɡɛɛɛɛɛɛɛɛ	-11.1632
▁grave	-11.1632
ththththææææææææ	-11.1636
wwwəəəəzzzzzzz	-11.1636
æææææææættt	-11.1638
mmmmmməəəəəəəə	-11.1639
mmmejejej	-11.164
ʊʊʊʊʊʊʊʊʊʊdd	-11.1642
ana	-11.1643
▁value	-11.1643
pppppppəəəəə	-11.1643
ɒɒɒɒɒɫɫɫɫɫɫɫ	-11.1644
mmmmmmmmmmmmmdd	-11.1649
▁largely	-11.1649
kkkksssssssss	-11.1652
▁historic	-11.1658
bjbjbjiii	-11.166
▁ancient	-11.1663
▁needed	-11.1665
ɛɛɛɛɛɛkkkkkkkkkk	-11.1665
nnnnnnzzzzzzz	-11.1665
▁ɪɪɪɪɪɪɪʔʔʔʔʔʔʔʔ	-11.1668
vvvvɚɚɚɚɚɚɚɚ	-11.1669
ɛɛɛɛɫɫɫɫɫɫ	-11.1671
ɚɚɚɚɚɚɚɚɚɚɚzzzzz	-11.1672
ɛɛɛɛɛkkkkkkkkk	-11.1673
fffffffftttttt	-11.1674
pppppppppppppɹɹɹ	-11.1676
ɐɐɐɐɐɐpppppppp	-11.1678
▁pla	-11.1679
ttttɚɚɚɚɚɚ	-11.168
ʒʒʒʒʒʒʒʒʒʒʒʒʒʒ	-11.168
▁ли	-11.1684
hhhhhhhhɛɛɛɛ	-11.1684
lic	-11.1685
▁spot	-11.1687
ɪɪɪssssssssssss	-11.1687
▁spirit	-11.1688
ɹɹɹɐɐɐɐ	-11.1689
ejejejejejmmmmm	-11.169
ɪɪɪɲɲɲɲɲ	-11.1691
ttttttttɹɹɹɹɹɹ	-11.1692
▁code	-11.1694
əəəɹɹɹəəə	-11.1701
ised	-11.1703
▁attend	-11.1703
ɪɪɪɪʃʃʃʃʃʃʃʃʃʃ	-11.1704
▁review	-11.1704
mmmmmmmmɛɛɛɛ	-11.1707
nnnnnnttttttttt	-11.1707
vvvvvajajajajaj	-11.171
ɫɫɫɫɫɫɫddd	-11.1712
cul	-11.1714
llllllææææææææ	-11.1715
ðððððððəəəə	-11.1716
▁smaller	-11.1716
wwwwɪɪɪɪɪɪɪ	-11.1717
tjtjtjtjtjtjɹɹɹi	-11.1717
əəəvvvvvvvvvvvvv	-11.1718
ɹɹɹɹɐɐɐ	-11.1721
dddddəəəəə	-11.1721
əəəɹɹɹəəəɫɫɫ	-11.1722
vvvvvvɚɚɚɚɚɚɚɚɚ	-11.1723
▁kingdom	-11.1723
▁consider	-11.1724
ttttttttttɚɚɚ	-11.1724
kkkkkkkkttt	-11.1724
ɛɛɛɛɛɛɛkkkkk	-11.1727
▁soft	-11.1727
▁che	-11.1727
nnnnnnnnnnttt	-11.1729
zz	-11.1731
tri	-11.1731
wwwwwwɛɛɛɛɛɛɛ	-11.1731
ææææææææmmmmmmm	-11.1732
nnnnd̪d̪d̪d̪	-11.1734
thththɝɝɝɝɝɝɝɝɝ	-11.1735
▁helped	-11.1739
▁seems	-11.1741
▁plain	-11.1742
ɹɹɹəəəmmm	-11.1744
nnnnntjtjtjtjtj	-11.1745
▁ring	-11.1747
kwkwkwkwkwkwkwɑ	-11.1748
▁frank	-11.1749
▁appeal	-11.1749
mmmmejejej	-11.1751
ɑɑɑɑɑɑɑnnnnnn	-11.1752
phphphphɑɑɑ	-11.1753
ɾɾɾɾɾɚɚɚɚɚɚɚɚ	-11.1753
ddvvvvvvvvv	-11.1754
zzzzzzɪɪɪɪɪ	-11.1757
phphphphɛɛɛɛɛ	-11.1757
fffffffffɹɹɹ	-11.1758
▁difference	-11.176
cccccccccʎʎʎʎ	-11.176
▁plans	-11.1761
nnnnnnawawawawaw	-11.1761
əəəəəɹɹɹɹɹɹɹɹɹɹ	-11.1761
əəəəəəəəəəɫɫɫ	-11.1762
ɚɚɚɚɚɚɚɚdddddddd	-11.1762
ven	-11.1764
▁guard	-11.1768
ccccccccɹɹɹɹɹ	-11.1768
nnnnnndjdjdjdj	-11.1773
gu	-11.1773
mmmmejejejejej	-11.1775
▁please	-11.1779
kkkkkkkkəəəɫɫɫ	-11.1783
ɪɪɪnnnnnnnnnnn	-11.1784
▁mayor	-11.1787
▁corner	-11.1788
cccccccccʎʎʎʎʉ	-11.179
ɹɹɹəəəəəəə	-11.1792
ɑɑɑɑɑɑɑɑɑɑnnnnnn	-11.1793
ɪɪɪɪɪɪɪmmmmmmmm	-11.1793
ʋ	-11.1793
ɛɛɛɛɫɫɫɫɫɫɫɫɫ	-11.1794
çççççççççɪɪɪɪɪɪɪ	-11.1799
▁fruit	-11.1801
▁share	-11.1804
wwwwwwɪɪɪɪɪɪɪɪ	-11.1805
ajajajajɹɹɹɹɹɹɹɹ	-11.1806
ssssssttttttttt	-11.1808
llləəəəə	-11.1811
ать	-11.1811
zzzzzzzd̪d̪d̪d̪	-11.1812
ttttəəəəəəə	-11.1816
xxxxxxxxxxxxx	-11.1818
wwwwwwwwwɐɐɐɐ	-11.1819
ɟɟɟɟɟɟejejejej	-11.182
▁listen	-11.1821
vvvvvvvɚɚɚɚ	-11.1822
▁highest	-11.1822
tive	-11.1822
nnnnnnnnnnbbbbb	-11.183
nnnnnnndjdjdjdj	-11.183
ɹɹɹɹɹɹɹɹɹɪɪɪ	-11.1832
ʎʎʎɪɪɪɪɪɪɪ	-11.1833
wwwwwwwɝɝɝɝɝɝɝɝɝ	-11.1833
əəəbbbbbb	-11.1836
ɐɐɐɐɐtʃtʃtʃtʃ	-11.1836
ɫɫɫɫɫɫɫzzzzzzzz	-11.1837
▁increased	-11.184
tttttttttttəəəə	-11.184
ææænnn	-11.184
əəəssssssss	-11.1843
ʊʊʊddd	-11.1848
bbbbbbbɹɹɹɹɹ	-11.1851
ɪɪɪɪɪɪɪɪɪɪɪɪɪnnn	-11.1853
ɐɐɐɐɐɐɐmmmmm	-11.1853
▁trouble	-11.1854
ɔɔɔɔɔɔɔɔɔɔɔɔɔ	-11.1855
▁australian	-11.1856
ɐɐɐɐɐɐɐmmmmmmmmm	-11.1856
▁hhhhhhhhhhhhh	-11.1859
ɛɛɛɛɛɛɛɛmmmmmmmm	-11.186
ɹɹɹɹɹiii	-11.1861
llllowowowowow	-11.1861
sssstttttttt	-11.1862
▁operation	-11.1864
▁introduced	-11.1865
thajajajajajajaj	-11.1866
▁upper	-11.1866
ɹɹɹɹɹɹɹɹɹiiiii	-11.1868
▁ї	-11.187
ffffffffɹɹɹəəəə	-11.187
ɛɛɛɛɛɛɛɛɛɛɹɹɹɹ	-11.1876
wwwwwɪɪɪɪɪɪɪɪ	-11.1883
sssssssssɛɛɛɛɛ	-11.1884
▁suffered	-11.1884
llllllɛɛɛɛɛɛ	-11.1884
nnnnnnzzzzz	-11.1884
▁пере	-11.1886
▁justice	-11.189
əəəəfffffffff	-11.1895
ɪɪɪɪɪɪmmmmmmm	-11.1905
▁minutes	-11.1905
ɐɐɐɐɐɐɐnnnnnnnnn	-11.1906
ɝɝɝɝɝɝɝɝtʃtʃtʃtʃ	-11.1906
ɑɑɑɑɑɑɑɑkkkkkkkk	-11.1906
▁operations	-11.1908
ɪɪɪɪɪɪɲɲɲɲɲ	-11.1909
mmmmææææææææ	-11.191
ɛɛɛɛɛɛɛɛdddd	-11.1912
æææʔʔʔʔʔʔ	-11.1914
ell	-11.1915
▁politics	-11.1924
ssssttttt	-11.1928
▁spoke	-11.1929
ɪɪɪɪɪɪʃʃʃʃʃʃʃʃʃ	-11.193
hhhhhhhhhhhæææææ	-11.1931
ɹɹɹɹɹɹəəəəəə	-11.1933
▁virginia	-11.1934
ɒɒɒɒɒɒɒɒɒɫɫɫɫ	-11.1936
▁ffffffffffff	-11.194
ɹɹɹɹɹɹɹɹɹowowow	-11.1941
fffffffttt	-11.1947
zzzzzzəəəəəəəə	-11.1949
▁march	-11.1949
ɐɐɐɐɐɐɐzzzzzzzz	-11.1951
ɑɑɑɑɑɑɑpppppppp	-11.1955
lllllɛɛɛɛɛɛɛ	-11.1956
zzzzzzzzffffffff	-11.1956
ɹɹɹəəəɫɫɫ	-11.1957
▁occur	-11.1958
ɐɐɐɐɐɐɐɐɐnnnnnn	-11.1959
▁twelve	-11.1959
kkkkkkkkkkəəə	-11.1959
wwwwwwɛɛɛɛɛɛɛɛ	-11.1963
mmmɛɛɛɛ	-11.1966
▁r	-11.1966
ddzzzzzzzzzzzzzz	-11.1967
▁scene	-11.1968
▁grass	-11.1969
ɲɲɲɲɲɲɲɲɪɪɪɪɪɪ	-11.197
ами	-11.1973
▁accident	-11.1977
ʋʋʋʋʋʋʋʋʋʋ	-11.1979
ɪɪɪɪɫɫɫɫɫɫɫ	-11.198
▁pressure	-11.1981
ɐɐɐɐɐɐnnnnnnn	-11.1982
vvvvvɚɚɚɚɚ	-11.1982
wwwwwwwɛɛɛɛɛ	-11.1984
▁italian	-11.1986
ppppppppppɹɹɹɹɹɹ	-11.1989
ɛɛɛɫɫɫɫɫɫ	-11.1991
ddɑɑɑɑɑɑɑɑ	-11.1995
ppppppppssssssss	-11.1996
▁те	-11.2
ɫɫɫɫɫɫɫɫɫdddd	-11.2002
!'	-11.2003
▁thank	-11.2003
▁texas	-11.2004
nnnd̪d̪d̪d̪əəə	-11.2008
▁regional	-11.2008
wwwəəəzzzzzz	-11.2009
▁flowers	-11.2014
house	-11.2014
wwwwwwwwwɪɪɪɪɪɪɪ	-11.2015
djdjdjdjiii	-11.2016
ʎʎʎiiiiiiiiiii	-11.2017
nnnnndjdjdjdjdj	-11.2017
▁amount	-11.2022
ɪɪɪɪtttttt	-11.2022
▁dam	-11.2023
▁products	-11.2023
ɲɲɲɲɲɲɲiiiiiii	-11.2024
ʎʎʎɪɪɪɪɪɪɪɪ	-11.2026
ththththʉʉʉʉʉ	-11.2026
▁paris	-11.2027
bjbjbjiiiii	-11.2029
ææææææʔʔʔʔʔʔ	-11.203
▁goes	-11.203
▁silver	-11.2031
thththththʊʊʊʊʊʊ	-11.2031
▁peace	-11.2032
tttttɚɚɚɚɚɚɚɚɚɚɚ	-11.2033
ɪɪɪɪɪɪɪvvvvvvv	-11.2035
▁minor	-11.2036
▁edge	-11.2036
ɾɾɾɾɚɚɚɚɚɚɚ	-11.2038
bbbbbbɐɐɐʔʔʔ	-11.2039
▁prior	-11.2039
▁accepted	-11.2039
ны	-11.2043
ffffffffffɒɒɒɹɹɹ	-11.2049
djdjdjdjdjiii	-11.2049
vvvvvvajajajajaj	-11.2053
lllllllɚɚɚɚɚɚɚɚ	-11.2053
zzzzzzɪɪɪɪɪɪ	-11.2054
ans	-11.2055
dddddəəəəəə	-11.2059
ajajajajvvvvvvvv	-11.2062
▁conditions	-11.2062
ɪɪɪɪɲɲɲɲ	-11.2071
nnnnnnnd̪d̪d̪əəə	-11.2072
ththʉʉʉʉʉʉʉʉʉʉʉʉ	-11.2074
ɡɡɡɡɡɡəəəə	-11.2077
▁offer	-11.2077
llllowowow	-11.2078
▁dry	-11.2078
ɪɪɪɪɪɹɹɹɹɹɹɹɹ	-11.2084
▁try	-11.2086
▁executive	-11.2093
▁settlement	-11.2095
ejejejzzzzzz	-11.2095
pppppɹɹɹəəə	-11.2095
▁ðððððððð	-11.2096
vvvvvvəəəəəə	-11.2098
əəəbbb	-11.2098
▁direct	-11.2099
phphphphiiiiiiii	-11.2099
▁nation	-11.2102
ins	-11.2102
ɹɹɹəəəəəəəə	-11.2102
thththawawawawaw	-11.2105
ssssssspppppp	-11.2106
nnnnnnd̪d̪d̪əəəə	-11.2108
▁chi	-11.2109
wwwwəəəzzzzzzzz	-11.2109
əəəɲɲɲɲɲ	-11.211
▁im	-11.211
▁situation	-11.2111
▁truth	-11.2111
æææææææættttttt	-11.2112
fffffffffɚɚɚɚɚɚɚ	-11.2115
ɒɒɒɹɹɹɹɹɹɹɹɹɹɹɹ	-11.2119
▁facilities	-11.212
ɐɐɐɐɐɐɐpppppppp	-11.2121
nnnnnnnnɛɛɛɛɛɛɛɛ	-11.2123
▁foundation	-11.2125
▁los	-11.2126
zzzzzzzzzəəəə	-11.2128
nnnntjtjtjtjtjtj	-11.2129
▁channel	-11.2129
car	-11.2135
kkkkkkktttttt	-11.2138
▁till	-11.2139
lllllejejej	-11.214
pjpjpjpjpjɪɪɪ	-11.214
pjpjpjɪɪɪ	-11.2145
ɪɪɪɪɪdʒdʒdʒdʒdʒ	-11.2148
ææætttt	-11.2158
oooooooooooo	-11.216
▁lllllll	-11.2166
▁islands	-11.2168
ffffffffɝɝɝɝɝɝɝɝ	-11.217
kkkkttt	-11.217
ɪɪɪɪɪɲɲɲɲ	-11.2173
▁certainly	-11.2174
ɪɪɪɪttttttt	-11.2174
mmmmajajaj	-11.2181
ɫɫɫɫɫɫɫɫddddd	-11.2183
▁animals	-11.2183
▁colour	-11.2184
ʒʒʒ	-11.2184
thththejejej	-11.2189
tttssss	-11.2192
▁wrong	-11.2192
llllləəəəəəəə	-11.2193
▁wwwwwwwwi	-11.2193
khkhkhkhkhɐɐɐɐ	-11.2193
çççççççççɪɪɪɪɪɪ	-11.2194
thththʊʊʊʊʊʊʊ	-11.2197
▁den	-11.2198
ɛɛɛɛɛɛɛɛɛɛɛnnnn	-11.2199
▁flat	-11.2201
wwwwwwwwəəə	-11.2201
ðððəəəəə	-11.2204
hhhhhhhhhhajajaj	-11.2205
▁nu	-11.2207
▁newspaper	-11.2211
▁mal	-11.2213
▁fla	-11.2215
по	-11.2218
ejejejtttttttttt	-11.2221
bbbbbbajajajaj	-11.2221
ɪɪɪɪɪɪɪɪɲɲɲɲɲɲɲɲ	-11.2223
ʐʐʐʐʐʐʐʐʐ	-11.2228
awawawawawawʔʔʔʔ	-11.2228
▁federal	-11.2228
wwwwəəəzzzzzzz	-11.2229
vvvvvvvɚɚɚ	-11.2234
wwwɐɐɐɐ	-11.2237
thththɛɛɛɛɛɛ	-11.2239
ɪɪɪɹɹɹɹɹɹɹɹɹ	-11.224
khkhkhkhɒ	-11.2241
nnnnɑɑɑɑɑɑɑɑ	-11.2242
nnnnnnnɛɛɛɛɛɛɛɛ	-11.2246
▁awarded	-11.2247
ʃʃʃʃʃʃʃʃʃʃʃʃʃiii	-11.2247
▁total	-11.2248
▁treatment	-11.2249
d̪d̪d̪d̪d̪ææææææ	-11.225
ɹɹɹɛɛɛɛɛ	-11.2255
za	-11.2255
cccccccccccʎʎʎʎ	-11.2256
▁fishing	-11.2258
chchchchɛɛɛɛɛɛɛ	-11.2258
ssssstttt	-11.226
ɪɪɪɪɪɪɪɲɲɲɲɲɲ	-11.2262
▁sight	-11.2264
tttttttttttəəə	-11.2269
mmmmmmmbbbbb	-11.2271
cccccccɪɪɪ	-11.2272
▁pair	-11.2273
ɹɹɹɹɹɹɹɹɹdd	-11.2273
sssssssɪɪɪ	-11.2274
▁senior	-11.2274
nnnnnnnnwwwwww	-11.2276
wwwwwwwəəəəəəə	-11.2276
▁directly	-11.2279
çççççççççççççççi	-11.2283
▁seem	-11.2283
▁holding	-11.2284
ddɐɐɐɐɐɐɐɐɐ	-11.2285
ɛɛɛɹɹɹiii	-11.2285
wwwwwwajajajajaj	-11.2292
▁irish	-11.2292
ɹɹɹɹææææææ	-11.2294
ɪɪɪɪɪɪɪɪttt	-11.2297
▁flag	-11.2298
▁ready	-11.23
llllllllɛɛɛɛɛ	-11.23
ɹɹɹɹowowowowowow	-11.2302
ejejejejʃʃʃʃʃʃʃʃ	-11.2303
vvvvvvɛɛɛɛɛɛɛɛ	-11.2304
ɐɐɐɐɐɐtʃtʃtʃtʃtʃ	-11.2307
▁trans	-11.2307
▁flo	-11.2309
əəəəəəəəəənnnn	-11.2315
▁gate	-11.2319
ssssssssssajajaj	-11.232
▁notable	-11.2329
▁cities	-11.233
ɪɪɪɪɪɪɪɲɲɲɲɲ	-11.233
əəəənnnnnnnndd	-11.2331
bbbbbbbbajajaj	-11.2331
ɪɪɪɹɹɹ	-11.2333
llllllllllejejej	-11.2335
awawawnnnnnnnnn	-11.2336
▁creek	-11.2338
▁create	-11.2339
hhhhææææææ	-11.2343
əəəəəəəəbbbbbbbb	-11.2344
ɹɹɹɹɹɹɹɹɹɹɹiiiii	-11.2345
▁sky	-11.2348
ææææʔʔʔʔʔʔ	-11.2349
vjvjvjɪɪɪɪɪɪɪ	-11.2349
ææææææʔʔʔʔʔʔʔʔ	-11.2351
lllllɛɛɛɛɛɛ	-11.2353
▁drive	-11.2353
nnnnndjdjdjdjɪɪɪ	-11.2356
tttəəəəəəə	-11.2358
lllllləəə	-11.236
llllləəə	-11.236
▁tradition	-11.2363
ɑɑɑɑɑɑɑnnnnnnnn	-11.2368
▁ships	-11.2369
▁firm	-11.2369
▁leader	-11.2373
əəəəəɹɹɹɹɹ	-11.2373
▁transport	-11.2374
ɛɛɛɛkkkkkk	-11.2376
vjvjvjɪɪɪɪɪ	-11.2377
khkhkhkhɐɐɐɐ	-11.2378
owowowowowowdddd	-11.2379
▁sport	-11.238
ɪɪɪɪɪɪɲɲɲɲɲɲ	-11.2382
ɪɪɪɪɪɪɹɹɹɹɹɹɹ	-11.2383
fffffffɹɹɹəəə	-11.2383
ется	-11.2384
▁chicago	-11.2384
▁broadcast	-11.2385
ððððððððɚɚɚɚɚɚɚɚ	-11.2387
▁guitar	-11.239
hhhhhhhhhajajaj	-11.2394
kkkkkkkkkkkklll	-11.2396
mmmmmmmppp	-11.2401
▁ба	-11.2404
ral	-11.2405
əəəəəəəəəənnn	-11.2407
sssssssssssɛɛɛɛ	-11.2408
əəəəədjdjdjdjdj	-11.2408
ʃʃʃʃʃʃʃʃʃəəəəəəə	-11.2409
ɪɪɪɪɪɪzzzz	-11.2411
mmmɛɛɛɛɛ	-11.2411
ajajajajajvvvvv	-11.2413
ɪɪɪɪɪɪɪssssss	-11.2415
nnnnnttttttttt	-11.2416
▁pet	-11.2416
▁vote	-11.2417
▁dar	-11.2417
▁damage	-11.2417
mmmmmmdd	-11.2418
tttɚɚɚɚɚɚɚ	-11.2418
vvvvɛɛɛɛɛɛɛ	-11.2419
▁symbol	-11.2421
æææææææætttt	-11.2424
▁bri	-11.2426
kkkkkttt	-11.2426
ɪɪɪɪɪɪɪɪvvvvvvv	-11.2428
ejejejttttttttt	-11.2429
ɪɪɪɪɪɪɪɪɲɲɲɲɲɲ	-11.2429
▁murder	-11.2431
ments	-11.2432
tʃtʃtʃtʃtʃtʃʉʉʉ	-11.2432
ɟɟɟɟɟɹɹɹɹɹ	-11.2432
ddddəəə	-11.2432
fffffffɚɚɚɚɚ	-11.2433
ɡɡɡɡɡəəəə	-11.2433
ɪɪɪɪɪɪvvvvvv	-11.2435
▁tom	-11.2435
ssssstjtjtjtjtj	-11.2436
▁v	-11.2439
▁crowd	-11.244
rk	-11.2444
▁safe	-11.2447
▁simply	-11.2449
ffffffffɚɚɚɚɚɚɚɚ	-11.2453
▁tea	-11.2454
ɐɐɐɐɐɐɐɐbbbbbbbb	-11.2456
ɹɹɹɹɐɐɐɐɐɐɐ	-11.2456
ɪɪɪzzzzz	-11.2458
вся	-11.2459
tʃjtʃjtʃjtʃjtʃj	-11.2459
əəəəəpppppppp	-11.2461
▁sides	-11.2462
ccccccccccʎʎʎ	-11.2464
▁kill	-11.2466
▁роз	-11.2466
▁ððððððð	-11.2466
▁его	-11.2468
▁wave	-11.2468
nnnnnnnnwwwww	-11.2469
▁directed	-11.247
kkkkkkkkkɹɹɹɹ	-11.2472
ser	-11.2476
llllææææææææ	-11.2477
ɹɹɹɹɒɒɒɒɒɒɒɒ	-11.2478
ææææænnn	-11.248
cccccccccccccʎʎʎ	-11.2481
ша	-11.2481
əəəəəəəmmmmmm	-11.2486
ши	-11.2487
ɛɛɛɛɛɛɛɛɛɛɛɹɹɹɹ	-11.2487
▁ɪɪɪɪɪɪɪʔʔʔʔʔ	-11.2488
vjvjvjvjɪɪɪ	-11.2489
▁stations	-11.2493
ɑɑɑɑɑɑɑɑɑnnnnnn	-11.2493
ɑɑɑɑɑɑɑɑɑɑɑnnnnn	-11.2495
ци	-11.2498
▁fffffffffffff	-11.25
llllllowowowow	-11.2502
ɪɪɪɪɪɪɪɪɲɲɲɲɲɲɲ	-11.2503
bbbbbɛɛɛɛɛɛɛɛ	-11.2509
ɪɪɪɪɪɪɪɪɫɫɫ	-11.251
lllajajajajajaj	-11.2516
wwwwwwwwwwɪɪɪɪ	-11.2518
▁sh	-11.2518
▁removed	-11.2519
▁soul	-11.252
ththththththɛɛɛ	-11.252
ɚɚɚɚɚɚzzzzzzzzzz	-11.2521
nnnnnowowow	-11.2522
thththththɝɝɝɝɝɝ	-11.2523
▁ɐɐɐɐɐɐɐɐ	-11.2524
▁app	-11.2531
▁residents	-11.2531
▁address	-11.2533
ɒɒɒɒɒɒɫɫɫɫɫɫ	-11.2534
wwwwwɚɚɚ	-11.2534
ejejejejzzzzzz	-11.2535
▁wing	-11.2537
wwwwɐɐɐ	-11.2538
çççççʉ	-11.254
▁eat	-11.254
до	-11.2541
tttttttttttttɹɹɹ	-11.2543
khkhkhəəəəəə	-11.2544
ny	-11.255
dddɚɚɚɚɚɚɚɚ	-11.2558
æææææʔʔʔʔʔʔ	-11.256
ɛɛɛkkkkkkkk	-11.2562
▁figure	-11.2565
vjvjvjɪɪɪɪɪɪɪɪ	-11.2566
lllllɛɛɛɛɛɛɛɛ	-11.2566
▁recently	-11.2567
pppppppssssssss	-11.2568
wwwwwwəəəəəəə	-11.2569
▁liberal	-11.2575
ization	-11.2581
ons	-11.2582
əəəəmjmjmjmjmj	-11.2582
phphphphphiiiiii	-11.2585
pppppppppppəəə	-11.2585
vvvvvvvajajajaj	-11.2585
wwwəəəəzzzzzzzz	-11.2585
tttttəəəəəəə	-11.2588
zzzzzzzzzəəəəəəə	-11.2589
▁province	-11.259
dʒdʒdʒɪɪɪɪɪɪɪɪ	-11.259
▁african	-11.2592
phphphphɝɝɝɝɝɝɝ	-11.2597
▁afterwards	-11.2597
▁mine	-11.2598
bbbbajajajajaj	-11.26
lllllllæææææææææ	-11.26
ɲɲɲiiiiiii	-11.2601
▁managed	-11.2601
▁surrounding	-11.2612
ddɛɛɛɛɛɛɛɛɛ	-11.2614
ɹɹɹɹɹɹɹɹəəəəəəə	-11.2616
▁charge	-11.2616
hhhhhhhhhhæææ	-11.2617
owowowowowowddd	-11.2618
ɛɛɛɛɛɛɛɛddd	-11.262
kkkkkkkkəəəəəə	-11.2627
ɛɛɛɛɛɛvvvvvv	-11.2628
mmmmmmmɛɛɛɛ	-11.263
▁actually	-11.2631
ffffffffɒɒɒɹɹɹɹɹ	-11.2631
iiiikhkhkhkhkhkh	-11.2633
ɹɹɹɹɹɹɹɹɹɛɛɛɛɛɛ	-11.2633
▁bird	-11.2635
ɟɟɟɟɟɹɹɹɹ	-11.2635
▁flood	-11.2637
▁ffffffffffffff	-11.2638
▁studio	-11.264
▁daughters	-11.2641
mmmmmmajajaj	-11.2642
▁thick	-11.2642
vvvvvvvɛɛɛɛɛɛɛ	-11.2642
▁ɪɪɪɪɪɪɪɪɪɪɪɪɪɪɪ	-11.2643
ker	-11.2644
▁versions	-11.2648
djdjdjdjdjiiiii	-11.2649
▁via	-11.2654
vvvvvvvvɛɛɛɛɛɛɛ	-11.2655
▁proved	-11.266
▁fff	-11.2666
ssssssssɛɛɛɛɛ	-11.2669
ɪɪɪɪɪɪtjtjtj	-11.2673
nnnnnnnawawawaw	-11.2673
wwwwəəəəəzzzzzzz	-11.2674
ɲɲɲɲɪɪɪɪɪɪɪɪɪ	-11.2675
ttttɚɚɚɚɚɚɚɚɚɚɚɚ	-11.2677
ther	-11.2679
ffffffɹɹɹɹ	-11.268
▁pot	-11.2681
ffffffffffɹɹɹəəə	-11.2682
cccccccɪɪɪɪ	-11.2684
iiiiiiiipppppppp	-11.2687
ɹɹɹɹæææææææææ	-11.2688
əəəəəəəɹɹɹɹɹɹɹɹ	-11.2693
ppppppppppplllll	-11.2693
▁comp	-11.2694
ɪɪɪɪɪɪkkkkkkkkkk	-11.2694
mmmmmmmmbbbbɚɚɚ	-11.27
▁stream	-11.2702
ɹɹɹɹɹɹɹɹddd	-11.2703
ffffffffttttt	-11.2704
owowowowowownnnn	-11.2707
▁window	-11.2707
ɐɐɐɐɐɐɐbbbbbbbb	-11.2708
iiiiəəəə	-11.2708
com	-11.2708
ðððððððɚɚɚɚɚɚɚɚ	-11.2709
phphphphɛɛɛɛɛɛɛɛ	-11.271
mmmmmmmmmɛɛɛɛɛɛ	-11.2711
ɑɑɑɑɑɑɑɑɑɑɑʔʔʔʔʔ	-11.272
▁display	-11.2722
hhhhhhhhɝɝɝɝɝɝ	-11.2725
owowowowpppppppp	-11.2725
wwwwwɝɝɝɝɝɝ	-11.2726
▁opening	-11.2726
ɒɒɒɫɫɫɫɫɫɫ	-11.2727
nnnnnnnttttttttt	-11.2728
ssssssssssssɛɛɛɛ	-11.273
ɹɹɹɹɑɑɑɑɑɑɑɑ	-11.2731
llləəəəəə	-11.2736
ɑɑɑɑɑɑɑppppppppp	-11.2736
ɪɪɪɪɪvvvvv	-11.2737
ks	-11.2739
ɪɪɪɪɪɪɪɪɹɹɹ	-11.2741
▁screen	-11.2742
▁wheel	-11.2742
ще	-11.2744
ɪɪɪɪɪkkkkkkkkkkk	-11.2747
nnnnnnnzzzzzzzzz	-11.2747
ия	-11.2747
▁ме	-11.2751
kkkkkkkkkəəəəə	-11.2751
ssssssssowowow	-11.2753
▁artist	-11.2753
ɒɒɒɒɒɒɒnnnnn	-11.2758
phphphphɛɛɛɛ	-11.2761
▁reference	-11.2761
dʒdʒdʒdʒɪɪɪɪɪɪɪ	-11.2762
▁thousand	-11.2764
ɑɑɑɑɑɑɑɑʔʔʔʔʔʔʔ	-11.2766
ɒɒɒɒɒɒɫɫɫɫ	-11.2768
ssssssppppppp	-11.2768
▁parties	-11.2769
▁century	-11.277
▁falls	-11.2778
mmmmmpppp	-11.2779
əəəəəəəəəvvvv	-11.278
lllllllɛɛɛɛɛ	-11.278
▁officer	-11.2782
mmmmmmææææææææ	-11.2784
ɹɹɹɹɹɹɹɹɹɛɛɛɛɛɛɛ	-11.2787
bbbbbɹɹɹɹ	-11.2787
sssstjtjtjtjtjtj	-11.2789
▁response	-11.279
▁picture	-11.2793
▁becomes	-11.2795
hhhhææææææææ	-11.2796
bbbbɹɹɹɹ	-11.2797
cccccccccccʎʎʎ	-11.2797
phphphphɛɛɛɛɛɛ	-11.2798
▁michael	-11.2799
▁estate	-11.2803
awawawawawʔʔʔʔ	-11.2803
kin	-11.2804
ddddɚɚɚɚɚɚɚɚ	-11.281
out	-11.2811
ççççççççççʉ	-11.2812
▁holds	-11.2813
ɪɪɪɪɪɪɪɲɲɲɲɲɲɲ	-11.2814
ɪɪɪɪɪɪssssss	-11.2814
mmmmmmmɐɐɐɐɐɐ	-11.2815
port	-11.2817
▁enjoy	-11.2817
ɹɹɹɹɹəəə	-11.2819
əəəddddddd	-11.2822
djdjdjdjiiiii	-11.2824
гу	-11.2825
ме	-11.2825
▁beat	-11.2826
ub	-11.2827
fffffffffɒɒɒɹɹɹ	-11.2827
▁easily	-11.2828
ved	-11.2828
d̪d̪d̪d̪ejejej	-11.283
əəəɲɲɲɲ	-11.2832
æææænnnn	-11.2832
ajajajajvvvvvvv	-11.2835
ɪɪɪɪɫɫɫɫɫɫɫɫɫ	-11.2837
ɒɒɒɫɫɫɫɫɫ	-11.2837
əəəəmmmmmmmmmmmm	-11.2838
nnnndjdjdjdjdj	-11.2838
æææææææsssssssss	-11.2839
▁stars	-11.284
tʃtʃtʃɚɚɚɚɚɚɚɚɚ	-11.2843
thththɝɝɝɝɝɝɝɝɝɝ	-11.2844
▁quality	-11.2848
▁page	-11.285
▁suit	-11.2851
ɪɪɪɪɪɪɪɪɪŋŋŋŋŋŋ	-11.2856
ston	-11.2857
ɐɐɐɐɐɐnnnnn	-11.2857
phphphphəəəə	-11.2861
▁happen	-11.2862
tʃtʃtʃtʃtʃʉʉʉʉ	-11.2862
▁engine	-11.2863
nnnnnssssss	-11.2865
mmmmmmmmpppp	-11.2865
▁thirty	-11.2867
ɐɐɐɐɐmmmmm	-11.2869
▁feed	-11.2869
ççççççççççɪɪɪɪ	-11.2869
нь	-11.2871
ɛɛɛɛɛɛnnnnnnnnnn	-11.2872
əəəəwwwwwwww	-11.2872
ɪɪɪɪɪɪɪɪmmmmmmmm	-11.2876
ʎʎʎʎʎʎʎʎʎʎiii	-11.2878
mmmmmmppp	-11.288
ɛɛɛɛɹɹɹɹɹɹɹɹɹɹɹɹ	-11.288
zzzzzzzzwwwww	-11.2883
djdjdjiiiii	-11.2885
ææææææææmmmmmm	-11.2889
▁leading	-11.289
iiiiiiiiizzzzzzz	-11.2895
pppppppɹɹɹɹɹɹ	-11.2897
ttttttttsss	-11.2898
бу	-11.2898
▁focus	-11.2902
pjpjpjpjpjɪɪɪɪ	-11.2902
ɒɒɒɫɫɫɫɫɫɫɫɫɫɫ	-11.2904
ddɹɹɹɹɹɹɹɹɹɹɹ	-11.2905
əəəəəlllll	-11.291
▁composed	-11.291
mmmmmmmmmmejejej	-11.2912
ɲɲɲiii	-11.2913
▁scale	-11.2914
kkkkkkkklll	-11.2916
▁marked	-11.2917
pt	-11.2918
▁answered	-11.2921
phphphphæææææææ	-11.2924
▁reserve	-11.2925
dddɹɹɹɹɹɹɹɹɹ	-11.2929
▁add	-11.293
çççɪɪɪzzzzzzz	-11.293
bjbjbjbjbjbjiii	-11.2938
mjmjmjmjiiiiii	-11.294
ного	-11.2943
ɹɹɹejejejejejej	-11.2946
ɹɹɹɹɹɹajajajaj	-11.2947
ette	-11.2951
ɑɑɑɑɑɑɑɑʔʔʔʔʔʔ	-11.2953
ɪɪɪɪkkkk	-11.2954
əəəmmmmmmmmmm	-11.2955
ɛɛɛɛɛɛssssssssss	-11.2955
ɹɹɹɹɹɹɹɹɹɹdd	-11.2957
ddajajaj	-11.2958
ffffffffffffɚɚɚɚ	-11.2959
ɪɪɪɪɪɪɲɲɲɲɲɲɲɲ	-11.296
kkkkkkkkssssss	-11.296
vvvvvvɚɚɚɚɚɚɚɚɚɚ	-11.2962
rjrjrjɪ	-11.2966
lly	-11.2969
▁escape	-11.2969
ɐɐɐɐmmmmmm	-11.297
ttttttəəəəəəə	-11.2971
kkkkkkttttt	-11.2972
▁comment	-11.2972
▁dress	-11.2974
▁technology	-11.2974
ɪɪɪdddd	-11.2974
▁row	-11.2977
▁trial	-11.2978
▁shr	-11.298
▁likely	-11.298
ин	-11.2981
▁belong	-11.2988
ak	-11.2988
mmməəəəəə	-11.2993
hhhhhhhhhhowowow	-11.2996
▁print	-11.2998
ɲɲɲɲɲɲɲiiiiii	-11.3
▁ста	-11.3004
▁join	-11.3004
ææææææʔʔʔʔʔʔʔ	-11.3007
ejejejttt	-11.3008
ffffffffɒɒɒɒɒɒɒɒ	-11.3008
▁artists	-11.301
vvvvɚɚɚɚɚɚɚ	-11.3012
mmmmmmmmajajaj	-11.3013
▁jewish	-11.3013
▁guest	-11.3014
tttsssssss	-11.3018
row	-11.3018
bbbbbowowow	-11.3019
ги	-11.3021
dddddəəəə	-11.3025
iiiiiiipppppppp	-11.3028
əəəəəəəəlllllll	-11.3032
▁document	-11.3033
mes	-11.3034
▁llllllllll	-11.3035
▁bat	-11.3035
dddddəəəəəəəə	-11.3038
əəəəəbbbbbbbbbb	-11.3042
▁tail	-11.3043
kkkkkkkktttttttt	-11.3054
ological	-11.3054
vjvjvjɪɪɪɪɪɪ	-11.3054
zzzzzzzzbbbbbbbb	-11.3056
▁ec	-11.3058
▁prison	-11.3058
khkhawawawawawaw	-11.3059
▁z	-11.3061
▁reform	-11.3064
mmmməəəəəəə	-11.3064
wwwwwwwwwwwɪɪɪɪɪ	-11.3066
▁manner	-11.3066
nnnnnnnnawawawaw	-11.3067
phphphphɛɛɛɛɛɛɛ	-11.3067
ɹɹɹɹɹɹɹɹɹɹowowow	-11.3068
▁sin	-11.3071
əəəəbbbbb	-11.3072
getting	-11.3074
▁ра	-11.3077
lllllllllləəəə	-11.3077
nnnnnnnnɑɑɑɑɑɑɑ	-11.3082
chchchɛɛɛɛɛɛ	-11.3082
ɪɪɪɪɪɪkkkk	-11.3084
vvvvvvvvɚɚɚɚɚ	-11.3086
ɟɟɟɟɟɟɟɹɹɹ	-11.3089
ington	-11.3089
dddddəəəəəəə	-11.309
mmmmmmmmmowowow	-11.3099
ɹɹɹɹɹɹɛɛɛɛ	-11.3099
ɛɛɛɛɛnnnnnnnnn	-11.3099
ɾɾɾɾɚɚɚɚɚɚɚɚɚ	-11.3101
▁security	-11.3103
ssssssssɐɐɐɐɐɐɐ	-11.3104
khkhkhkhkhowowow	-11.3105
ʊʊʊɹɹɹ	-11.3106
▁ɪɪɪɪɪɪɪɪɪʔʔʔʔʔʔ	-11.3107
ssssssssspppppp	-11.311
ɪɪɪɪɪɪɪkkkkkkkkk	-11.3112
▁d̪d̪d̪əəəə	-11.3113
ejejejejejddd	-11.3116
ɹɹɹɹɹɹɹɹəəəəəəəə	-11.3116
ɟɟɟɟɟɟɹɹɹɹɹɹɹɹ	-11.3117
▁score	-11.3118
ɫɫɫɫɫɫɫɫɫɫdddd	-11.3122
mmmmmmmɛɛɛɛɛɛɛɛɛ	-11.3123
ɛɛɛɹɹɹɹɹɹɹɹɹɹɹɹɹ	-11.3127
ttttttttttssssss	-11.313
kkkkkkkkkkkɹɹɹɹ	-11.313
ddssssssssssss	-11.3131
ɡɡɡɡɡəəə	-11.3132
nnnnnzzzzzzzz	-11.3132
▁principal	-11.3132
▁spread	-11.3132
lllləəəəəəə	-11.3136
ɫɫɫɫsssssssssss	-11.3136
æææææææænnnndd	-11.3137
▁younger	-11.3141
awawawawnnnnndd	-11.3142
ɛɛɛɛɛɛɛɛɛkkkkkkk	-11.315
zzzzzzzzwwwwwwww	-11.315
ɛɛɛɛɛɛkkkkk	-11.3153
ejejejmmmmmmmmmm	-11.3155
▁oak	-11.3156
ɑɑɑɑɑɑɑɑɑɑnnnnn	-11.3157
▁ber	-11.3161
ɐɐɐɐɐɐɐɐɐɐnnnnnn	-11.3162
▁retired	-11.3163
ɪɪɪɪɪʃʃʃʃʃʃʃʃʃ	-11.3164
ese	-11.3166
ɪɪɪɪɪɫɫɫɫɫɫɫɫ	-11.3167
ccccccccʎʎʎ	-11.3167
▁attempt	-11.3167
▁greater	-11.3169
nnnnnnəəəə	-11.3171
▁editor	-11.3172
▁looks	-11.3172
twtwtwtwiiiiiiii	-11.3172
▁він	-11.3173
▁d̪d̪d̪d̪əəəəəə	-11.3174
kkkkkkkttt	-11.3179
əəəɹɹɹɹɹɹɹɹɹɹ	-11.3179
▁mount	-11.318
▁vary	-11.3181
kkkkkkkkklll	-11.3182
bbbbowowow	-11.3184
▁hy	-11.3185
ddbbbbbbb	-11.3187
▁mor	-11.3187
mmmmmmmmppp	-11.3189
сі	-11.3189
▁jack	-11.319
hhhhhhhhhhhææææ	-11.319
ɹɹɹɹɹɹiii	-11.3192
▁interior	-11.3193
wwwwwwɝɝɝɝɝɝɝɝɝ	-11.3195
ɹɹɹɹɹɹɹɹɹɛɛɛɛɛ	-11.3195
nnnnnzzzzz	-11.3196
ɐɐɐɫɫɫɫɫɫɫɫ	-11.3199
hhhæææææææ	-11.3201
mjmjmjiiiiiii	-11.3203
ries	-11.3207
fer	-11.3207
▁acting	-11.3208
ɛɛɛɛɛɛɛddd	-11.321
▁august	-11.3212
▁opinion	-11.3212
▁male	-11.3213
▁paid	-11.3213
▁mill	-11.3217
əəəəəəɫɫɫɫɫɫɫɫɫɫ	-11.3219
ɑɑɑɑɑɑɑɑʔʔʔʔʔ	-11.3223
ɛɛɛɛɛɛɛɛɛɛɛɹɹɹɹɹ	-11.3223
ccccccccccʎʎʎʎʉ	-11.3224
▁angeles	-11.3225
ajajajajajajɹɹɹɹ	-11.3228
▁signed	-11.3228
tation	-11.3229
▁officers	-11.323
▁elements	-11.3231
əəəədjdjdjdj	-11.3232
əəəəəəəəəəənnnnn	-11.3232
▁economy	-11.3233
ɪɪɪɪddddd	-11.3233
nnnnnnthththth	-11.3234
ððððððððəəəə	-11.3236
nnnnnnnbbbb	-11.3236
res	-11.3236
ay	-11.324
ба	-11.324
ɐɐɐɐɐɐɐɐzzzzzzz	-11.324
end	-11.3241
ɫɫɫsssssssssssss	-11.3242
▁ɐɐɐɐɐɐɐɐɐɐɐ	-11.3247
ɪɪɪɪɪɪɪɲɲɲɲɲɲɲɲ	-11.3251
▁trains	-11.3252
ddvvvvvvvvvv	-11.3253
lllllowowowow	-11.3254
▁necessary	-11.3259
cccccʃʃʃʃʃʃʃʃʃ	-11.326
мі	-11.326
▁traffic	-11.3262
ʂʂʂʂʂʂʂ	-11.3264
ɛɛɛɛɛɛɛmmmmmmmm	-11.3265
wwwwwəəəəəəə	-11.3265
ccccccʃʃʃʃʃʃʃʃʃʃ	-11.3265
ɪɪɪɲɲɲɲɲɲ	-11.3265
ɪɪɪttttt	-11.3266
ŋŋŋŋŋŋŋŋɡɡɡɡɡ	-11.3269
▁contain	-11.3271
bbbbbɚɚɚɚɚɚɚɚ	-11.3271
uuuuuuuuuuuu	-11.3272
ththththɑɑɑɑɑɑɑɑ	-11.3272
▁function	-11.3274
vvvvvvvvəəəə	-11.3274
ssssssssppppp	-11.3276
lllləəə	-11.3278
ɪɪɪɪmmmmm	-11.328
owowowowmmmmmmmm	-11.3281
▁pretty	-11.3283
▁edition	-11.3283
▁knowledge	-11.3283
ɡɡɡɡɡɡəəə	-11.3283
bjbjbjbjʉ	-11.3284
æææææʔʔʔʔʔʔʔ	-11.3289
khkhkhkhkhawawaw	-11.3291
▁louis	-11.3293
▁owner	-11.3293
ɪɪɪɪnnnnnnnnnnnn	-11.3293
▁prominent	-11.3293
ɪɪɪɲɲɲɲ	-11.3295
су	-11.3296
əəəjjj	-11.3296
▁succeeded	-11.3297
▁develop	-11.3301
cccccʃʃʃʃʃʃʃʃ	-11.3302
ɪɪɪmmmmm	-11.3302
and	-11.3303
▁г	-11.3303
▁refused	-11.3305
ator	-11.3306
əəəəchchchchch	-11.3312
mjmjmjmjmjmjiiii	-11.3314
tttssssss	-11.3315
ɪɪɪɪɲɲɲɲɲɲɲ	-11.3315
▁бу	-11.3316
ɪɪɪɪɪɪvvvvv	-11.3316
pjpjpjpjpjɪɪɪɪɪɪ	-11.3319
▁championship	-11.332
hhhhhhhɝɝɝɝɝɝɝ	-11.3321
▁custom	-11.3322
▁challenge	-11.3323
▁literature	-11.3323
ɪɪɪɪɪɪɪvvvvvv	-11.3323
tu	-11.3324
▁growing	-11.3324
nnntjtjtj	-11.3328
ɛɛɛɛɛɛɛɛɛɛɛɛɹɹɹɹ	-11.3331
tʃtʃtʃɚɚɚɚɚɚɚɚɚɚ	-11.3339
жд	-11.3339
ppppppppəəəəəə	-11.3339
ææææææææpppppppp	-11.3339
ɪɪɪsssssss	-11.334
back	-11.3341
bbbəəəə	-11.3341
ɛɛɛɛɛɛɫɫɫɫɫɫɫɫɫ	-11.3342
▁ends	-11.3342
ɦɦɦɦɦɦ	-11.3343
▁dropped	-11.3344
ɹɹɹɹowowowowow	-11.3347
əəəəəəəllllll	-11.335
ɑɑɑɑɑɑɑnnnnnnn	-11.3351
ɑɑɑɑɑɑɑɑɑɑʔʔʔʔʔʔ	-11.3353
nnnnssssss	-11.3356
▁rise	-11.3361
▁colors	-11.3362
▁leg	-11.3362
ɒɒɒɒɒɒɫɫɫɫɫɫɫɫɫɫ	-11.3364
mmmmmppp	-11.3366
ify	-11.3368
ppppppssssssss	-11.337
ath	-11.3371
wwwwɚɚɚ	-11.3372
əəəffffffffffff	-11.3374
ɟɟɟɟɟɹɹɹɹɹɹ	-11.3377
ный	-11.3378
ɹɹɹɹɹɹɹɹdddd	-11.338
əəədddddddd	-11.3381
thththththɛɛɛ	-11.3382
bbbbbbbbɛɛɛɛɛɛɛ	-11.3382
llllllllləəəəə	-11.3384
ææææææætttttttt	-11.3387
nnnnnnɛɛɛɛɛɛɛɛ	-11.3388
ʃʃʃʃʃʃʃʃʃəəənnnn	-11.3388
▁corn	-11.3389
ççççççççççɪɪɪɪɪ	-11.3391
lllllææææææææ	-11.3394
▁leaving	-11.3394
llllllajajaj	-11.3395
ɡɡɡɡɡɡɡɡɑɑɑɑɑɑɑɑ	-11.3396
ɡɡɡɡəəəə	-11.3397
nnnnnawawawawaw	-11.3397
ssssssssɝɝɝɝɝɝɝɝ	-11.3398
mmmmmmmmppppp	-11.3401
ppppppllll	-11.3402
bbbbɚɚɚɚɚɚɚ	-11.3402
▁warm	-11.3403
▁explain	-11.3404
ря	-11.3405
ɲɲɲejejejejejej	-11.3407
ɡɡɡɡɡɡɡɛɛɛɛɛɛɛɛ	-11.3407
iiiiiiiəəəəəə	-11.3416
ят	-11.3418
ked	-11.3418
fffɹɹɹ	-11.3419
ɛɛɛɛɫɫɫɫɫɫɫɫɫɫ	-11.3422
khkhkhkhɐɐɐ	-11.3424
ɲɲɲɲɲɲɲɲɪɪɪɪɪ	-11.3424
▁avoid	-11.3425
▁choice	-11.3425
▁roll	-11.3426
mjmjmjmjmjmjɪ	-11.3427
ɹɹɹɹajajaj	-11.3428
nnnnnnssssss	-11.3428
bbbbbɹɹɹɹɹ	-11.3431
ɲɲɲɲɲiiiii	-11.3433
wwwəəəɫɫɫ	-11.3433
▁wwwwwwwwwwwww	-11.3434
nnnnnnnndjdjdjdj	-11.3436
▁photograph	-11.3441
ді	-11.3441
ɫɫɫɫɫɫɫɫɫzzzzzzz	-11.3444
ɛɛɛɛɛɛvvvvvvv	-11.3444
mjmjmj	-11.3445
▁basketball	-11.3446
ɪɪɪɪɪɲɲɲɲɲɲɲɲ	-11.3446
tsjtsjtsj	-11.345
ɛɛɛɛɛɛɛɛɛɛɛɛnnnn	-11.3451
или	-11.3453
ev	-11.3456
ɚɚɚɚɚɚɚɚɚdd	-11.3462
act	-11.3465
ddɛɛɛɛɛɛ	-11.3466
▁occurs	-11.3467
ɲɲɲɲɲɲiiiii	-11.3469
ically	-11.347
▁piece	-11.3476
vvvvvvɛɛɛɛɛɛɛ	-11.3477
▁labour	-11.3477
zzzzzzssssssss	-11.3478
ɐɐɐɐɐpppppppp	-11.3482
dʒdʒdʒɪɪɪ	-11.3483
nnnnnzzzzzzz	-11.3487
iiiiiiiiiiiəəəəə	-11.3487
ɪɪɪɪʎʎʎʎʎʎʎʎ	-11.3487
▁stands	-11.3492
vvvvvɛɛɛɛɛɛɛ	-11.3493
ɛɛɛɛɛɛɛɛɛɛɹɹɹɹɹ	-11.3496
▁під	-11.3496
ɒɒɒɒɒɒɒɒɒɒɫɫɫɫ	-11.3498
ʒʒʒʒʒ	-11.35
▁highway	-11.3503
ɐɐɐmmmmmmmm	-11.3504
ææææææækkkkkkk	-11.3504
vvvvvɚɚɚ	-11.3505
nnnnndjdjdjdj	-11.3506
▁forced	-11.3506
dʒdʒdʒdʒdʒdʒɪɪɪɪ	-11.3508
ɦɦɦɦɦɦɦɦɦɦ	-11.3511
▁wait	-11.3512
▁para	-11.3515
town	-11.3518
▁dun	-11.3518
▁hills	-11.3521
▁worth	-11.3522
▁wonder	-11.3522
əəəɹɹɹiiiiiiii	-11.3523
▁ill	-11.3527
ɪɪɪɪɪɪɲɲɲɲɲɲɲ	-11.3527
▁strip	-11.3528
wwwwwɛɛɛɛɛɛ	-11.3528
▁risk	-11.3529
board	-11.3529
ɹɹɹɹɹɹɹɹɹɹiiiii	-11.353
dddwwwwwwwww	-11.3531
ɚɚɚɚɚɚɚɚɚɚdd	-11.3533
ʃʃʃʃʃʃʃʃʃʃiiii	-11.3534
▁serious	-11.3534
▁plu	-11.3535
ɒɒɒɒɫɫɫɫɫɫɫ	-11.3536
zzzzzzzffffffff	-11.3537
nnnnnndʒdʒdʒdʒdʒ	-11.3537
mmmmpppp	-11.3539
▁oldest	-11.3541
kkkkkkkkkkkkɹɹɹɹ	-11.3542
sssssstttttttttt	-11.3543
▁programme	-11.3543
▁strike	-11.3548
▁motor	-11.355
ɒɒɒɒɒɒɒɒɒɫɫɫɫɫ	-11.3551
vvvvvəəəəəəə	-11.3552
ðððððɚɚɚɚɚɚɚ	-11.3554
ʊʊʊʊʊddd	-11.3556
ɐɐɐɐɐɐmmmmmmmmm	-11.3558
▁whi	-11.3558
▁maintain	-11.3559
▁secretary	-11.356
▁format	-11.356
ches	-11.3561
d̪d̪d̪d̪d̪æææææ	-11.3563
▁nnnnnnnnnnn	-11.3564
nnnnnnnəəəəəə	-11.3566
zzzzəəəəəə	-11.3566
▁destroyed	-11.3567
ɛɛɛɛɛɛɫɫɫɫɫɫɫ	-11.3567
pppppppplllllll	-11.3567
ɛɛɛɛɛɫɫɫɫɫɫɫɫɫɫ	-11.3567
ɪɪɪɪɪɪɪɪɪdʒdʒdʒ	-11.3568
gs	-11.3568
ɹɹɹɹɹɹɹɪɪɪɪɪɪɪɪɪ	-11.357
tro	-11.3571
▁signal	-11.3572
nnnnnnnnnnbbbb	-11.3572
▁announced	-11.3573
kwkwkwkwajajajaj	-11.3574
vvvvvvvvəəəɹɹɹ	-11.3578
▁temple	-11.3582
▁pop	-11.3584
це	-11.3585
tttssssssss	-11.359
æææææʔʔʔʔʔʔʔʔ	-11.359
▁equipment	-11.359
ɹɹɹɛɛɛɛɛɛ	-11.3591
kkkktʃtʃtʃtʃtʃ	-11.3592
t̪s̪t̪s̪t̪s̪ɨɨɨɨ	-11.3596
▁levels	-11.3596
hhhhhhhhhawawaw	-11.3596
▁rules	-11.3596
▁depend	-11.3597
▁n̪n̪n̪n̪n̪n̪n̪	-11.3599
ɒɒɒɒɒɒɒɒɒɒɫɫɫɫɫɫ	-11.3599
ɒɒɒɒɒɒɒnnnnnn	-11.3599
▁jjjjjjjjj	-11.3599
▁broad	-11.3601
▁congress	-11.3601
tjtjtjɪɪɪɪdd	-11.3603
awawawawawʔʔʔʔʔʔ	-11.3604
▁fffffffffffffff	-11.3605
▁christ	-11.3606
ɛɛɛɛɛssssssss	-11.3607
▁branch	-11.3608
kkkkkktttttt	-11.361
▁junior	-11.3611
ɪɪɪɪvvvvv	-11.3611
əəəəəddddddd	-11.3615
▁product	-11.3616
▁gives	-11.3618
ій	-11.3619
ɹɹɹɹɹɹɹəəəəəəə	-11.3621
bbbbɹɹɹɹɹ	-11.3622
▁fifth	-11.3622
ɪɪɪɪɹɹɹɹɹɹɹɹ	-11.3626
▁jjjjjjjjjjjj	-11.3626
мен	-11.3631
па	-11.3633
▁relatively	-11.3635
ной	-11.3636
ие	-11.3637
ɹɹɹɹawawawawawaw	-11.3637
ɒɒɒɹɹɹɹɹɹɹɹɹɹɹɹɹ	-11.3637
ssssssssssɛɛɛɛ	-11.364
phphphphɔjɔjɔjɔj	-11.364
zzzzzzɪɪɪɪɪɪɪ	-11.364
d̪d̪d̪d̪ɛɛɛɛɛ	-11.364
▁platform	-11.3641
nnnnnnnnntttt	-11.3641
d̪d̪d̪d̪d̪d̪ɚɚɚ	-11.3643
▁tall	-11.3646
nnnnnnnnɛɛɛɛɛɛɛ	-11.3647
hhhææææææ	-11.3648
ððððəəəəəə	-11.3653
▁disease	-11.3653
▁fore	-11.3655
ththththʊʊʊʊʊʊ	-11.3655
▁cru	-11.3655
ɚɚɚɚɚɚɚɚddddddd	-11.3656
▁extremely	-11.3656
ɲɲɲɲɲɲɲɲɲejejej	-11.3658
стр	-11.3659
ʊʊʊʊʊʊʊʊʊʊʊdd	-11.3659
ɐɐɐɐɐɐɐɐɐnnnnn	-11.3663
▁effects	-11.3664
hhhhhhhhɛɛɛ	-11.3665
▁writer	-11.3666
vjvjvjɪɪɪɪ	-11.3668
ис	-11.3668
▁observed	-11.3669
mmmmmɛɛɛɛɛ	-11.3669
ск	-11.3672
ɫ	-11.3674
vvvvvvvvɚɚɚ	-11.3674
əəəɹɹɹiii	-11.3678
▁scar	-11.368
dor	-11.3683
əəəəəəəəthththth	-11.3684
▁unique	-11.3685
▁mad	-11.3685
lllajajaj	-11.369
mmmmmejejej	-11.3691
▁progress	-11.3693
▁online	-11.3693
ɑɑɑɑɑɑɑɑɑʔʔʔʔʔʔʔ	-11.3694
ɪɪɪɪɪɪɪɪɪsssssss	-11.3696
nnnnnnnnllll	-11.3701
ffffffffffllll	-11.3701
▁lllllllll	-11.3703
▁principle	-11.3706
▁produce	-11.3707
ssssssssstjtjtj	-11.3708
tjtjtjɹɹɹɪɪɪ	-11.3708
▁æææææææææææææææ	-11.3709
eeeeeeeeeeeee	-11.371
ɹɹɹəəəəmmmm	-11.3711
▁operates	-11.3711
▁jjjjjjjjjj	-11.3712
lllllllɑɑɑɑɑɑɑɑ	-11.3715
▁ham	-11.3715
▁wear	-11.3715
ight	-11.3718
ɑɑɑɑɑɑɑnnnn	-11.372
▁cool	-11.3722
ʎʎʎʎʎʎɪ	-11.3725
▁prime	-11.3726
▁expect	-11.3727
wwwwɐɐɐɐɐɐɐ	-11.3727
ɪɪɪɪɪɪɪɪɪɪɹɹɹɹɹɹ	-11.3729
nda	-11.3731
▁republican	-11.3732
dddddddejejejej	-11.3733
ejejejsssssssss	-11.3734
əəəəəpjpjpjpjpj	-11.3735
bbbbbbbajajaj	-11.3736
▁speech	-11.3737
▁portion	-11.3738
bjbjbjɪɪɪɪɪɪ	-11.3739
çççɪɪɪɪzzzzzzzz	-11.3741
▁discovered	-11.3745
zzzzzzɪɪɪɪɪɪɪɪ	-11.3745
nnnnnnnɑɑɑɑɑɑɑ	-11.3746
ɐɐɐɐɐɐnnnnnn	-11.3748
khkhkhəəənnnnn	-11.3752
thththʊʊʊʊʊʊʊʊ	-11.3753
əəəədjdjdjdjdjdj	-11.3755
ять	-11.3758
ɪɪɪɪɪɪɪɪvvvvvv	-11.3758
▁industrial	-11.3759
▁florida	-11.3759
▁growth	-11.3761
ɑɑɑɑɑɑɑɑɑɑʔʔʔʔ	-11.3763
▁lllllllllll	-11.3763
▁recording	-11.3765
▁bob	-11.3765
▁pick	-11.3767
ɟɟɟɟɟɟɟɟɟejejej	-11.3767
▁image	-11.3769
▁background	-11.377
nnnssssssss	-11.377
ɐɐɐɐɐɐbbbbbbbb	-11.3772
tter	-11.3773
llllllllllowowow	-11.3776
▁bomb	-11.378
can	-11.3783
ddddɹɹɹɹɹɹɹɹ	-11.3784
khkhkhɐɐɐɐɐɐɐɐɐ	-11.3786
ɹɹɹɹæææææ	-11.379
▁flight	-11.379
▁incident	-11.379
▁suburb	-11.3791
▁jjjjjjjjjʉ	-11.3791
▁fully	-11.3791
van	-11.3792
əəəəəɹɹɹɹɹɹɹɹɹɹɹ	-11.3792
ɪɪɪɪɪɪɪttttttttt	-11.3793
tttttttəəəəəəə	-11.3793
awawawawawʔʔʔʔʔ	-11.3794
phphphɑɑɑɑɑɑɑɑɑ	-11.3796
mmmɛɛɛɛɛɛɛ	-11.3797
▁classes	-11.3798
ɛɛɛɛɛɛɛvvvv	-11.3798
ajajajajɫɫɫɫɫɫɫɫ	-11.3799
llllllllɐɐɐɐɐɐɐɐ	-11.3799
əəəəllll	-11.38
ʃʃʃʃʃʃʃʃʃəəəənnn	-11.3801
ɹɹɹɹɹɑɑɑɑɑɑɑɑ	-11.3803
tttsssss	-11.3803
▁producer	-11.3805
llo	-11.3805
hhhhhhhhɛɛɛɛɛ	-11.3808
ejejejejtjtjtj	-11.3811
▁agriculture	-11.3812
ffffffffɒɒɒɹɹɹɹ	-11.3813
али	-11.3815
▁heat	-11.3817
ɐɐɐɐɐɐnnnn	-11.3822
▁earlier	-11.3823
əəəəəəɹɹɹɹɹɹɹɹɹ	-11.3826
▁tro	-11.3827
bbbbbbbbɹɹɹɹɹɹɹɹ	-11.3828
vvvvvvvvəəə	-11.3828
llləəəəəəə	-11.3832
▁strange	-11.3833
▁baseball	-11.3833
wwwwwwwwwejejej	-11.3837
▁graduated	-11.3837
ɲɲɲiiiii	-11.3838
▁broken	-11.3838
▁target	-11.3844
ɛɛɛɫɫɫɫɫɫɫɫɫ	-11.3847
nnnnnɑɑɑɑɑɑɑɑɑɑɑ	-11.3849
▁catch	-11.385
ajajajɹɹɹɹɹɹɹɹɹɹ	-11.3855
ɝɝɝɝɝɝɝɝssssssss	-11.3855
kkkkkkttt	-11.3857
▁fields	-11.3863
ajajajttttttttt	-11.3864
▁academic	-11.3865
owowowowɫɫɫɫɫɫɫ	-11.3866
ɪɪɪɪɪɪɪtjtjtj	-11.3867
als	-11.387
twtwtwtw	-11.387
ɫɫɫɫɫɫɫɫɫddd	-11.387
▁birds	-11.3871
▁animal	-11.3876
ɹɹɹɹɹɹəəəəəəə	-11.3877
▁build	-11.3878
nnnnnnnmmm	-11.3879
nnnnnntttttttttt	-11.3882
əəəəənnnnnnnndd	-11.3884
kkkkkkkkkkkəəəə	-11.3887
▁authority	-11.3889
ɲɲɲɲɲɪɪɪɪɪɪɪɪɪ	-11.3892
ʎʎʎʎʎʎʎʎʎʎiiiii	-11.3893
из	-11.3894
▁ку	-11.3896
▁orange	-11.3897
thththththʉʉʉʉʉ	-11.3899
▁learn	-11.39
ɟɟɟɟɟɟɟɟɟɹɹɹɹɹ	-11.3902
▁gro	-11.3902
æææææææættttt	-11.3902
ɛɛɛɛɛɛɛɫɫɫɫɫɫɫɫɫ	-11.3902
▁presented	-11.3902
ɹɹɹɹɹɹɹɹææææææææ	-11.3903
ery	-11.3903
▁determined	-11.3903
ɹɹɹæææ	-11.3904
zzzzzzzwwwwwwww	-11.3905
awawawawtttttttt	-11.3909
pjpjpjpjpjɪɪɪɪɪ	-11.3911
▁albums	-11.3914
ɪɪɪkkkk	-11.3917
wwwwwwɝɝɝɝɝɝɝɝɝɝ	-11.392
▁grey	-11.3921
▁sources	-11.3921
ejejejejejzzzzzz	-11.3922
vjvjvjvjvjiii	-11.3924
ability	-11.3926
bo	-11.3926
▁sch	-11.3926
llllejejej	-11.3929
▁ocean	-11.393
▁golden	-11.3931
▁accept	-11.3933
▁hhhhhhhhhawawaw	-11.3934
owowowowzzzzzzz	-11.3934
▁rem	-11.3935
ɪɪɪɪɪɪʃʃʃʃʃʃʃʃ	-11.3935
▁units	-11.3936
▁birth	-11.394
mmmɛɛɛ	-11.3944
nnnnnnajajajajaj	-11.3947
tttttttɹɹɹ	-11.3951
▁headquarters	-11.3951
▁memorial	-11.3951
▁activity	-11.3952
▁clean	-11.3953
wwwwwɛɛɛɛɛɛɛ	-11.3955
llləəəəəəəə	-11.3955
əəəəffffffff	-11.3956
▁sharp	-11.3957
ddddddddɛɛɛɛɛɛɛɛ	-11.3961
ccccccccccʎʎʎʉ	-11.3961
▁slightly	-11.3964
▁storm	-11.3966
əəəɲɲɲɲɲɲ	-11.3967
kkkkkkəəəəə	-11.3968
ɚɚɚɚɚɚɚɚɚɚɚdd	-11.397
ɛɛɛɛɛɛvvvvv	-11.3971
▁million	-11.3971
zjzjzj	-11.3971
▁stopped	-11.3973
▁toward	-11.3975
▁broke	-11.3977
ɹɹɹejejej	-11.3977
▁singer	-11.3978
əəəəəəlllll	-11.3979
fjfjfjɪɪɪɪɪɪɪɪɪ	-11.398
wwwwwwwwəəəəəəə	-11.3982
sssssssssscccccc	-11.3984
tjtjtjtjɹɹɹɹɹi	-11.3985
▁reading	-11.3985
ccccccccɪɪɪɪɪ	-11.3987
bbbbbowowowow	-11.3992
nnnnnzzzzzz	-11.3993
ʃʃʃʃʃʃʃʃəəəəəəə	-11.3995
ççççççççççɪɪɪɪɪɪ	-11.3997
sssssssscccccc	-11.3998
ɑɑɑɑɑɑɑɑɑɑnnnn	-11.3998
ɪɪɪɪɪɪɪɪɪɪŋŋŋŋŋŋ	-11.3999
ajajajddd	-11.3999
▁crime	-11.4
wwwwwwwwwɛɛɛɛɛɛɛ	-11.4
mmmmmmmmmmmmmmdd	-11.4
pppppppɹɹɹɪɪɪ	-11.4001
awawawawʔʔʔʔ	-11.4001
▁yesterday	-11.4005
▁jackson	-11.4006
ɚɚɚɚɚɚɚdddddddd	-11.4007
sssssttttttttt	-11.4008
tin	-11.4008
zzzzzzzbbbbbbbb	-11.4009
ɒɒɒɒɒɒɒɒɒnnnnnnn	-11.401
ddəəəəəəə	-11.401
ɪɪɪɪɪɪɪɪʔʔʔʔ	-11.4011
▁machine	-11.4016
ɲɲɲɲejejejej	-11.4017
▁cu	-11.4017
llllllææææææææææ	-11.4017
▁follows	-11.4019
light	-11.4019
сте	-11.4022
mpl	-11.4023
ɑɑɑɑɹɹɹɹ	-11.4023
wwwɚɚɚ	-11.4025
▁си	-11.4025
kkkkkkkkttttttt	-11.4028
▁cell	-11.4029
əəəəəənnnttt	-11.4031
▁fra	-11.4036
əəəəllllllllll	-11.4037
▁pitch	-11.4037
ssssssstjtjtj	-11.4037
▁fiction	-11.4038
▁navy	-11.4038
tttɚɚɚɚɚɚɚɚɚ	-11.404
əəəəbjbjbjbjbjbj	-11.4041
▁coat	-11.4042
əəəəəfffffffff	-11.4042
▁peak	-11.4045
rn	-11.4048
kkkkkəəəə	-11.405
ccccccccʎʎʎʉ	-11.4051
▁пред	-11.4051
ppppppppɚɚɚɚɚɚɚɚ	-11.4054
vvvvvɚɚɚɚ	-11.4054
▁latin	-11.4054
▁protect	-11.4057
əəəfffffffffffff	-11.406
vjvjvjvjiiiiiiii	-11.406
cla	-11.4061
stic	-11.4061
bbbbbɐɐɐʔʔʔʔ	-11.407
nnnnnnnɛɛɛɛɛɛɛ	-11.407
▁cars	-11.4071
ʋj	-11.4072
ates	-11.4073
wwwwwwɝɝɝɝɝɝ	-11.4074
▁cas	-11.4074
▁annual	-11.4077
bbbɐɐɐ	-11.4078
пи	-11.408
▁пре	-11.4081
▁stadium	-11.4082
kkkkkkkktjtjtjtj	-11.4083
tjtjtjtjɹɹɹɹɹɹi	-11.4083
əəəəəəəəɹɹɹ	-11.4083
▁def	-11.4086
ɹɹɹɹɹɪɪɪɪɪɪɪɪɪ	-11.4087
ɒɒɒɒɒɒɫɫɫɫɫ	-11.4089
▁ɪɪɪɪɪɪɪʔʔʔʔʔʔ	-11.4091
▁britain	-11.4093
mmmmmmmmmmbbbb	-11.4093
▁grant	-11.4093
ææææææææænnnnndd	-11.4093
don	-11.4098
kkkkkkkkəəəəɫɫɫ	-11.4099
n̪n̪n̪əəə	-11.4099
time	-11.4101
d̪d̪d̪d̪d̪ɚɚɚɚɚ	-11.4103
▁audience	-11.4104
▁website	-11.4104
wwwwwwwwwɝɝɝɝɝɝɝ	-11.4104
ɪɪɪɪɪchchchchch	-11.4105
mmmmmmmmɐɐɐɐɐ	-11.4109
əəəədddddd	-11.4109
nnnnnnnnddəəəəəə	-11.411
ʎʎʎʎʎʎʎʎʎʎʎʎɪɪɪ	-11.4111
llllllɚɚɚɚɚɚɚɚ	-11.4113
ɪɪɪɪkkkkkkkkkkk	-11.4113
bbbbbbbbowowow	-11.4119
ɪɪɪɪɪɪɪɪkkkkk	-11.4119
bbbbbbbɹɹɹɹɹɹ	-11.4121
ɐɐɐɐɐɐɐɐmmmmm	-11.4122
ɑɑɑɑɑɑɑɑɑnnnn	-11.4123
əəəʎʎʎɪɪɪ	-11.4124
ɒɒɒɒɫɫɫɫɫɫɫɫɫɫ	-11.4124
əəəəʎʎʎʎʎʎʎʎʎ	-11.4124
▁finish	-11.4128
fffffffffɒɒɒɒɒɒɒ	-11.4129
wwwwwɝɝɝɝɝ	-11.4132
tttttttttttɚɚɚ	-11.4134
ææææʔʔʔʔʔʔʔ	-11.4135
ɫɫɫɫɫsssssssssss	-11.4136
▁era	-11.4136
des	-11.4137
ass	-11.4141
▁ago	-11.4142
ʃʃʃʃʃʃʃʃʃʃʃiii	-11.4143
ɐɐɐɐɐɐɐɐŋŋŋŋŋŋŋŋ	-11.4146
▁buy	-11.4147
▁chamber	-11.4148
▁miles	-11.415
▁remaining	-11.4151
cccccccccʎʎʎ	-11.4152
sssssssəəəəə	-11.4155
▁baby	-11.4156
ɫɫɫɫɫɫɫzzzzzzzzz	-11.4159
▁remember	-11.4159
tʃtʃtʃtʃtʃtʃɹɹɹɹ	-11.416
▁çççççççççççç	-11.4161
bbbɹɹɹ	-11.4162
▁u	-11.4164
▁sunday	-11.417
win	-11.417
▁tend	-11.4171
ual	-11.4174
ppppppppɹɹɹɹɹɹɹ	-11.4175
tttttttejejejej	-11.4177
dddwwwwwwwwww	-11.4178
ɪɪɪɪɪɪɪmmmmmmm	-11.4182
pping	-11.4186
nnnnnnnnnnzzzzzz	-11.4189
▁mouth	-11.4189
ttttɚɚɚɚ	-11.419
▁loss	-11.419
æææææææækkkkkk	-11.4192
▁се	-11.4195
▁card	-11.4197
ʎʎʎʎʎʎʎʎʎʎʎʎiiii	-11.4198
ɛɛɛɛɛɛɛɛddddd	-11.42
▁daily	-11.4204
ɪɪɪɫɫɫɫɫɫɫɫɫ	-11.4204
▁fri	-11.4205
əəəəddd	-11.4208
ssssssssəəəəəəə	-11.4211
əəəəddddd	-11.4212
▁flow	-11.4215
wwwwwɑɑɑ	-11.4216
ɲɲɲɲɲɲɲɪɪɪɪ	-11.4218
ɪɪɪɪɪɪɪvvvvv	-11.4219
ejejejejejejmmmm	-11.4221
əəəbbbbbbbbb	-11.4223
hhhhhhhowowowow	-11.4224
kkkkkttttt	-11.4228
nnndjdjdj	-11.4229
ttttttttbbbbb	-11.423
ajajajajnnnnndd	-11.423
stone	-11.4234
▁labor	-11.4237
sssssssppppppppp	-11.4242
▁lee	-11.4247
ɪɪɪɪɪɪɪɪddththth	-11.4252
ddbjbjbjbjbjbjbj	-11.4253
ɔɔɔɔɔɔɔɔɔɔɔɔɔɔ	-11.4254
ddɐɐɐɐɐɐɐɐɐɐ	-11.4254
iiiiiiiəəəəəəə	-11.4254
▁ideas	-11.4256
ʊʊʊʊʊʊʊkkkkkkkk	-11.4259
▁concern	-11.4261
▁chart	-11.4261
▁syn	-11.4262
ɑɑɑɑɑɑɑɑɑʔʔʔʔ	-11.4262
əəəɡɡɡɡɡɡɡɡ	-11.4264
owowowowowɫɫɫɫɫɫ	-11.427
▁bowl	-11.427
▁walls	-11.4271
▁magic	-11.4272
khkhkhowowow	-11.4274
chchchchchæææææ	-11.4275
ɚɚɚɚɚɚɚɚddddd	-11.428
▁italy	-11.4281
ddddddddejejejej	-11.4282
lllllllllɛɛɛɛɛɛɛ	-11.4282
bbbbbɐɐɐɐʔʔʔ	-11.4285
▁pppppp	-11.4288
ffffffffəəəə	-11.4288
ɛɛɛkkkkkkk	-11.4291
▁ontario	-11.4292
əəəəəəəɹɹɹɹɹɹɹ	-11.4293
▁ep	-11.4294
▁semi	-11.4295
ɛɛɛɛɛɛɛɛdddddddd	-11.4295
▁lock	-11.4295
▁meeting	-11.4298
kkkkktttttt	-11.4298
əəəffffffffff	-11.4299
ett	-11.43
ththththɛɛɛ	-11.4301
kkkkssssssssss	-11.4301
▁occasionally	-11.4305
ɲɲɲɲɲiii	-11.4311
▁enter	-11.4311
ɹɹɹɹowowow	-11.4311
▁cry	-11.4311
ttttɚɚɚɚɚ	-11.4311
wwwəəəəəə	-11.4323
d̪d̪d̪d̪d̪d̪ɚɚɚɚ	-11.4325
▁zealand	-11.4326
▁details	-11.4328
ɪɪɪɪɪttttttttt	-11.4329
▁ти	-11.4337
із	-11.4337
ста	-11.4338
ɹɹɹɹɹɹɹɹɛɛɛ	-11.4341
ɫɫɫɫɫɫɫɫɫɫddd	-11.4341
▁mountains	-11.4342
▁theme	-11.4343
ɪɪɪtjtjtjtjiiiii	-11.4344
ɛɛɛɫɫɫɫɫ	-11.4347
▁edward	-11.4349
ajajajajəəəəəəəə	-11.435
əəəlllllllll	-11.4351
▁x	-11.4353
ɪɪɪɪɪzzzz	-11.4355
▁save	-11.4355
nnnnnnnnajajajaj	-11.4355
▁formal	-11.4356
▁democratic	-11.4357
ɛɛɛɛɛɛɛɛɫɫɫɫɫɫɫ	-11.4357
lllləəəəəəəə	-11.4358
▁cultural	-11.4359
▁rail	-11.4362
əəəəwwwwwwwww	-11.4363
bbbbbææææææææ	-11.4366
ɫɫɫɫɫɫɫɫɫɫɫdddd	-11.4366
nnnnnnnnnttttt	-11.4371
nnnnnnnndʒdʒdʒdʒ	-11.4374
ɲɲɲɲɲɲɪɪɪ	-11.4374
▁го	-11.4374
əəəʎʎʎiii	-11.4378
əəəəəəlllllllll	-11.4378
mmmmməəəəəəəə	-11.4381
▁express	-11.4382
▁martin	-11.4383
ɹɹɹɹɹɹɹɹɹajajaj	-11.4386
ɪɪɪɪɪɪɪɪɲɲɲɲɲ	-11.4389
▁steel	-11.4395
ɛɛɛɛɛɛɛɫɫɫɫɫɫɫ	-11.4396
ɪɪɪsssssssssssss	-11.4398
▁earned	-11.4398
nnnnnnmmmm	-11.4399
ɲɲɲɲɲɲɪɪɪɪɪɪɪɪɪ	-11.4402
ɟɟɟɟɟɟɟɟɟɟɟɟɟɟɟ	-11.4402
▁чи	-11.4404
ɐɐɐmmmmmmm	-11.4405
nnnnntttttttttt	-11.4407
nnnnnnnnnththth	-11.4408
əəədddddd	-11.441
right	-11.4413
ajajajajnnnnnndd	-11.4414
ɫɫɫɫɫɫddd	-11.4415
lllllɛɛɛɛɛ	-11.4415
əəəəɡɡɡɡɡɡɡɡɡ	-11.4415
▁rare	-11.4416
от	-11.4417
▁chairman	-11.4417
par	-11.4419
tjtjɪɪɪɪɪɪɪɪɪdd	-11.442
ddddddəəəəəəəə	-11.4421
ɟɟɟɟɟɟɟɟɟɹɹɹɹɹɹ	-11.4422
ɐɐɐɐɐɐɐbbbbbbb	-11.4424
ɟɟɟɟɟɟɟɟɟɹɹɹɹ	-11.4425
▁founded	-11.4425
ɟɟɟɟɟɹɹɹɹɹɹɹ	-11.4426
ddfffffffffffff	-11.4426
▁otherwise	-11.4427
ɪɪɪtjtjtjiiiii	-11.4431
əəəʎʎʎʎʎʎʎʎʎ	-11.4434
▁slow	-11.4437
▁split	-11.4438
ɒɒɒɫɫɫɫɫɫɫɫɫ	-11.4439
▁settled	-11.444
ɛɛɛɛɛɛɫɫɫɫɫɫɫɫɫɫ	-11.4441
ɹɹɹɹɹɹɹəəəəəəəə	-11.4442
ɪɪɪtttttttt	-11.4443
əəəəppppppp	-11.4443
▁emb	-11.4443
wwwɐɐɐɐɐ	-11.4444
əəəəəɲɲɲɲɲɲɲ	-11.4444
thththɪɪɪ	-11.4444
mmmɛɛɛɛɛɛ	-11.4447
▁driver	-11.445
mmmmmmɛɛɛɛ	-11.4451
atic	-11.4454
ɑɑɑɑɑɑɑɑɑɑɑɑʔʔʔʔ	-11.4454
ffffffffffffllll	-11.4454
ɒɒɒɒɒɒɒnnnn	-11.4457
▁intended	-11.4459
▁mmmmmmmmmmmmm	-11.446
▁pun	-11.4461
nnnnowowow	-11.4462
ddfffffffffff	-11.4464
nnnnnnɑɑɑɑɑɑɑɑɑ	-11.4466
əəəəɹɹɹɹɹɹɹɹɹɹɹɹ	-11.4468
phphphejejejejej	-11.4469
ɪɪɪɪthththththth	-11.447
bbbbbbbɹɹɹ	-11.447
awawawawʔʔʔʔʔ	-11.4474
əəəəəəəəəəənnnn	-11.4476
▁draw	-11.4477
xxxxx	-11.4478
▁sweet	-11.4481
▁models	-11.4485
fffɹɹɹɹ	-11.4487
▁represent	-11.4488
head	-11.4488
nnnnnɛɛɛɛɛɛɛɛ	-11.4488
ajajajajdjdjdjdj	-11.4491
▁uncle	-11.4495
▁mexico	-11.4495
▁assembly	-11.4497
bbbbbbbɛɛɛɛɛɛɛɛ	-11.4497
са	-11.4499
nnnttttssssssss	-11.4504
▁touch	-11.4505
chchchææææ	-11.4507
via	-11.4509
ces	-11.4509
wwwwwwwwwwwɐɐɐɐɐ	-11.4511
ɪɪɪɪɪɪɲɲɲɲ	-11.4512
ɪɪɪvvvvvvvv	-11.4513
▁plants	-11.4517
ççççççççççɪɪɪ	-11.4517
▁palace	-11.4518
ttttttttttəəəəə	-11.452
ddbbbbbajajaj	-11.4521
▁prize	-11.4524
▁perfect	-11.4525
▁defend	-11.4528
▁universal	-11.453
▁huge	-11.453
▁spec	-11.4532
ɹɹɹiiiiiiiiiiiii	-11.4533
dʒdʒdʒdʒdʒɪɪɪɪɪɪ	-11.4536
▁meant	-11.4536
▁actor	-11.4538
mmmmmmææææææææææ	-11.454
▁learned	-11.4541
ððððððɚɚɚɚɚɚɚ	-11.4541
▁moving	-11.4542
ɒɒɒɒɒɒɒɒɒɫɫɫɫɫɫ	-11.4546
▁ни	-11.455
ɹɹɹɹɹɹɹɹɹɹɹdd	-11.455
▁conservative	-11.4552
ccccccccccɪɪɪ	-11.4553
istic	-11.4554
▁causes	-11.4554
▁bla	-11.4555
wwwwwwwwwwɐɐɐɐ	-11.4555
▁rat	-11.4556
ɪɪɪsss	-11.4559
▁protest	-11.456
▁equal	-11.4561
▁honour	-11.4564
▁straight	-11.4564
əəəəəwwwwwwww	-11.4565
▁letters	-11.4565
tle	-11.4567
ɑɑɑɑɑɑɑɑɑɑɑʔʔʔʔ	-11.457
▁glad	-11.4571
ɪɪɪɪɪɪɪɲɲɲɲ	-11.4571
bbbbbæææææææææææ	-11.4572
awawawawawʔʔʔ	-11.4573
▁gained	-11.4573
phphphəəə	-11.4574
əəəəəəɹɹɹ	-11.4574
ppppppppppɹɹɹəəə	-11.4576
fffffffffffllll	-11.4578
ɪɪɪɪllllllll	-11.4579
ththʉʉʉʉʉʉʉʉʉʉʉ	-11.458
zzzzzəəəə	-11.4582
wwwwəəəəzzzzzz	-11.4585
ɡɡɡɡɡɡowowowowow	-11.4587
▁communities	-11.4587
▁crown	-11.4587
jee	-11.459
▁workers	-11.4592
əəəəəllllllllll	-11.4594
ppppppɹɹɹ	-11.4595
▁hero	-11.4595
▁boo	-11.46
use	-11.46
wwwəəəəəzzzzzzzz	-11.4601
ddffffffffffff	-11.4603
ddbbbbbbbbbbbbbb	-11.4604
aaaaaaaaaaaaaa	-11.4606
ɪɪɪɪɪɪɪɪɪɪdʒdʒdʒ	-11.4607
▁basic	-11.4607
▁software	-11.461
ɒɒɒɒɒɫɫɫɫɫɫ	-11.4611
▁require	-11.4611
our	-11.4612
əəəəəəəəəsssssss	-11.4612
ɦɦɦɦɦ	-11.4614
æææææææææʔʔʔʔ	-11.4616
ɡɡɡɡɡɡɡəəə	-11.4616
▁trying	-11.4621
fjfjfjfjiiiiiiii	-11.4621
▁weight	-11.4625
▁bbbbbbbbbbbb	-11.4626
▁fu	-11.4629
llllɛɛɛɛɛɛɛ	-11.4629
əəəttt	-11.4631
ɒɒɒɒɒɒɒɒɒɒnnnnnn	-11.4633
▁drug	-11.4633
cccccccccɪɪɪ	-11.4634
▁hum	-11.4635
wwwwwɛɛɛɛɛɛɛɛ	-11.4635
əəəəəənnnnnnnndd	-11.4635
cccccccccʎʎʎʉ	-11.4639
mmmmmmmmmzzzzzzz	-11.4641
▁solution	-11.4645
▁caught	-11.4645
khkhkhəəənnnnnn	-11.4649
iiiiiiizzzzzzzzz	-11.465
ɛɛɛkkkkkk	-11.4651
ʂʂʂʂʂʂʂʂʂʂʂʂʂ	-11.4652
ɪɪɪɪssssss	-11.4653
▁explor	-11.4656
əəəəəəfjfjfjfjfj	-11.4657
ɹɹɹəəəəmmmmm	-11.4662
ɹɹɹɹɹɹəəəəəəəə	-11.4663
▁gil	-11.4664
tjtjiiiiiiiiiiii	-11.4664
ал	-11.4664
ppppɹɹɹ	-11.4668
ŋŋŋŋŋŋŋɡɡɡɡɡ	-11.4671
çççɪɪɪɪɪzzzzzzzz	-11.4675
bbbbbɹɹɹɹɹɹ	-11.4675
ʊʊʊʊʊʊʊʊkkkkkkkk	-11.4676
▁fun	-11.4676
bbbbbɐɐɐɐɐɐɐ	-11.4677
ɹɹɹɹɹɹɹɹɹɹejejej	-11.468
▁safety	-11.468
ɛɛɛɹɹɹɹɹɹɹɹiiiii	-11.4682
▁begin	-11.4686
əəəəəppppppp	-11.4686
wwwwejejejejejej	-11.4687
nnnnndʒdʒdʒdʒdʒ	-11.4688
ɾɾɾɾɚɚɚɚɚɚɚɚɚɚ	-11.4689
ris	-11.469
▁williams	-11.4691
ɪɪɪɪɲɲɲ	-11.4692
ddɐɐɐɐɐɐ	-11.4693
fffffffffɒɒɒɹɹɹɹ	-11.4695
wick	-11.4695
bjbjbjɪɪɪɪɪɪɪ	-11.4696
▁mer	-11.4697
æææætttt	-11.4699
cccccccccʎʎʎʎʎ	-11.4699
əəəəəəəmmmmm	-11.4701
▁tourist	-11.4706
awawawawɹɹɹɹɹɹɹɹ	-11.4708
▁seek	-11.4708
▁strength	-11.4712
ææættttt	-11.4712
▁potential	-11.4714
▁interested	-11.4715
ɚɚɚɚɚɚɚɚdddddd	-11.4715
ɪɪɪɪɪɪɪɪʔʔʔʔʔ	-11.4718
▁trip	-11.4718
▁constructed	-11.4718
▁methods	-11.4719
ssssssstjtjtjtj	-11.4727
ttttttttəəəəəəəə	-11.473
▁repeated	-11.4731
zzzzzsssssssss	-11.4732
▁teacher	-11.4732
æææææææætttttt	-11.4733
ŋŋŋŋŋŋŋŋɡɡɡɡ	-11.4734
əəəəəəəkhkhkhkh	-11.4736
əəəəɲɲɲɲɲ	-11.4737
ɑɑɑɑɑɑpppppppp	-11.4741
ɫɫɫɫɫddd	-11.4742
ru	-11.4743
bbbbəəəəə	-11.4744
▁reasons	-11.4747
ab	-11.4748
▁conflict	-11.4749
ɟɟɟɟɟɟɹɹɹ	-11.4753
ajajajajajajnnn	-11.4754
ges	-11.4754
ɛɛɛɛɛɛɛdddd	-11.4754
twtwtw	-11.4756
▁burn	-11.4756
ɛɛɛɛɛkkkkkkkkkk	-11.4757
iiiiəəəəə	-11.4758
rian	-11.4758
ɪɪɪzzzz	-11.4758
ssstttttt	-11.4759
wwwwwəəəzzzzzzzz	-11.476
▁threat	-11.4761
▁somewhat	-11.4762
▁bbbbbbbbbbb	-11.4768
▁windows	-11.4769
▁figures	-11.477
▁increase	-11.4773
▁severe	-11.4773
ɐɐɐɐɐɐɐɐɐɐɐnnnnn	-11.4782
ɫɫɫɫssssssssss	-11.4782
əəəəəədddddddd	-11.4783
▁administration	-11.4785
▁responsible	-11.4785
▁roof	-11.4785
wwwwwɛɛɛɛɛ	-11.4791
ати	-11.4792
ɪɪɪɪɪɪɪɪɪɪʔʔʔʔʔʔ	-11.4794
▁climate	-11.4797
lk	-11.4799
▁pieces	-11.4799
chchchchchchææææ	-11.4802
kkkkkkkkkkssssss	-11.4803
▁talking	-11.4804
æææææænnnnnnndd	-11.4805
khkhkhowowowowow	-11.4806
ɪɪɪnnnnnnnnnnnn	-11.4811
▁secondary	-11.4812
mmmmmmmppppp	-11.4813
▁os	-11.4814
ɹɹɹɹɹɹɹowowow	-11.4816
▁pppp	-11.4817
lllllllllɒɒɒɒɒɒɒ	-11.4817
▁send	-11.4819
▁jones	-11.482
ɹɹɹɹɹttt	-11.482
▁demand	-11.4821
▁pit	-11.4824
dʒdʒdʒdʒdʒɪɪɪɪɪ	-11.4825
awawawawawawʔʔʔ	-11.4825
wwwwwɚɚɚɚ	-11.4828
ants	-11.4829
nnnnnɚɚɚɚɚɚɚɚ	-11.4831
▁columbia	-11.4832
▁memory	-11.4834
▁ven	-11.4834
æææææææææʔʔʔʔʔʔʔ	-11.4836
ʉʉʉʉʉʉʉʉzzzzzzzz	-11.4837
hhhhhhhhɝɝɝɝɝ	-11.4837
▁matches	-11.4838
ɹɹɹəəəəəmmmm	-11.4838
ɹɹɹɹɹɹɪɪɪɪɪɪɪɪɪ	-11.484
▁jersey	-11.4844
▁pilot	-11.4844
▁towns	-11.4844
əəəəəɹɹɹɹ	-11.4844
ɡɡɡɡɡɡɡəəəə	-11.4845
əəəəəɲɲɲɲɲɲɲɲ	-11.4846
lllllɚɚɚɚɚɚɚɚ	-11.4846
phphphphphɔjɔjɔj	-11.4847
əəəɹɹɹɹɹɹɹɹɹɹɹ	-11.4847
əəəəəəəəɹɹɹɹɹɹɹɹ	-11.4851
▁pattern	-11.4855
ɪɪɪɪtjtjtjiiiiii	-11.4856
əəəpjpjpjpjpjpj	-11.4856
▁boston	-11.4856
chchæææææææææææ	-11.4856
nnnnnnnnɑɑɑɑɑɑ	-11.4857
▁journal	-11.4858
ææææænnnnnnnnndd	-11.4858
vvvvvvvvajajajaj	-11.4859
ʒʒʒʒʒʒʒʒʒʒəəəə	-11.486
whose	-11.4861
llllllɛɛɛɛɛ	-11.4863
▁ken	-11.4864
nnnnnnnnphphphph	-11.4865
ɑɑɑɑɑɑɑɑlllllll	-11.4866
kkkkkkkkɹɹɹɹɹ	-11.4866
▁connection	-11.487
tjtjtjtjɹɹɹɹɪɪɪ	-11.4871
əəəəɲɲɲɲɲɲ	-11.4873
▁connected	-11.4875
khkhkhəəənnnn	-11.4875
▁сп	-11.4878
▁families	-11.4879
▁jjjjjjj	-11.488
▁solo	-11.4882
sssssssskkkkk	-11.4882
əəəəɲɲɲɲɲɲɲ	-11.4886
▁fjfjfjfjfjfjfj	-11.4886
▁sex	-11.4887
əəəəəəffffffffff	-11.4888
ɪɪɪɪɪɪɪpppppppp	-11.4891
pppppppppllllll	-11.4891
▁mode	-11.4893
ɛɛɛɹɹɹiiiiiiii	-11.4895
▁adopted	-11.4896
wwwɪɪɪɪɪɪɪ	-11.4896
vity	-11.4896
əəəədddd	-11.4897
▁van	-11.4899
sssttttttt	-11.4901
kkkkkkkkəəəəɫɫɫɫ	-11.4903
ɐɐɐɐɐɐɐɐɐɐnnnnn	-11.4903
æææææækkkkkkkkkk	-11.4904
hhhhhhɝɝɝɝɝɝɝɝ	-11.4907
▁adult	-11.4909
ɒɒɒɒɒɒɒɒɒɒɒnnnnn	-11.4909
▁han	-11.4912
zzzzzsssssss	-11.4912
əəəəəʎʎʎʎʎʎʎʎ	-11.4915
ɑɑɑɑɑɑɑɑnnn	-11.4915
wwwwwwɐɐɐɐɐɐɐɐɐ	-11.4916
zzzzəəəəə	-11.4917
ɪɪɪɪɪɲɲɲ	-11.4919
vin	-11.4925
əəəəəəbbbbbbbbb	-11.4925
ɛɛɛɛɛɫɫɫɫɫɫ	-11.4927
▁arrived	-11.4932
bbbbbɐɐɐ	-11.4933
▁everyone	-11.4939
▁task	-11.4939
hood	-11.4943
ɹɹɹɹɹɹɹɹɹɹɪɪɪ	-11.4943
ffffffffffɒɒɒɒɒɒ	-11.4944
ɪɪɪllllllll	-11.4949
hhhhhhhhhhhæææ	-11.4949
tʃtʃtʃtʃɪɪɪɪɪ	-11.4952
llllɚɚɚɚɚɚɚɚ	-11.4953
tjtjtjtjɹɹɹɪɪɪ	-11.4957
ение	-11.4957
phphphɑɑɑɑɑɑɑɑɑɑ	-11.4957
tɕtɕtɕtɕ	-11.4959
owowowowowddddd	-11.4959
▁die	-11.4961
ɒɒɒɒɒɒɒɒɒɒɒɒɫɫɫɫ	-11.4962
bra	-11.4962
▁moon	-11.4965
ɐɐɐɐɐɐɐɐbbbbbbb	-11.4967
hhhhhhhɝɝɝɝɝɝ	-11.4969
hhhææææææææ	-11.4971
ɐɐɐɐɫɫɫɫɫɫɫɫ	-11.4972
wwwwwwwwɑɑɑɑɑɑɑɑ	-11.4972
tttɚɚɚɚɚɚɚɚɚɚ	-11.4973
ɒɒɒɫɫɫɫɫɫɫɫɫɫɫɫɫ	-11.4974
▁debate	-11.4975
iiiiiiiiiiəəəə	-11.4976
thththɛɛɛɛɛɛɛɛɛ	-11.4978
▁extended	-11.4982
chchchɛɛɛɛɛɛɛɛ	-11.4983
bbbbbbɹɹɹɹ	-11.4983
ɹɹɹɹææææææææææ	-11.4984
tru	-11.4984
▁ɪɪɪɪɪɪɪɪnnnn	-11.4986
▁disc	-11.4988
▁victory	-11.4989
▁fan	-11.499
wwwwwɝɝɝɝɝɝɝɝɝ	-11.4992
zzzzzzzzwwwwww	-11.4995
phphphphɐɐɐɐɐɐɐ	-11.4996
ɪɪɪɫɫɫɫɫɫ	-11.4998
kkkkkksssss	-11.4998
▁нас	-11.5002
ɐɐɐɐɐɐtʃtʃtʃtʃ	-11.5003
ɹɹɹɹɹɐɐɐɐɐ	-11.5005
əəəəəəəlllll	-11.5006
phphphphɑ	-11.501
▁examples	-11.5011
ɝɝɝɝɝɝɝɝɝɝddd	-11.5012
pppppppppppəəəə	-11.5012
ððððððəəəəə	-11.5016
▁circle	-11.5023
▁johnson	-11.5025
▁extra	-11.5026
nnnnnɑɑɑɑɑɑɑɑɑɑ	-11.5027
ɪɪɪɪɪɪɪɪpppppppp	-11.5029
сть	-11.5031
əəəəwwwwwwwwww	-11.5032
vvvvvvvəəəɹɹɹ	-11.5032
bbbbbɐɐɐɐɐɐɐɐ	-11.5035
wwwwwwɑɑɑɑɑ	-11.5036
▁offices	-11.5038
▁shop	-11.5039
rus	-11.5039
ææææææænnnnnndd	-11.504
vvvəəəəəə	-11.5041
vvvvvvvvɝɝɝɝɝɝɝɝ	-11.5041
ffffffffffffɚɚɚ	-11.5042
▁status	-11.5042
▁bbbbbbbbbb	-11.5044
▁alternative	-11.5046
▁technical	-11.5046
▁teaching	-11.5052
pjpjpjpjiiiiiii	-11.5052
▁multi	-11.5052
vvvvvvvɝɝɝɝɝɝɝɝ	-11.5053
▁actual	-11.5054
fffffffɚɚɚɚɚɚ	-11.5055
ться	-11.5055
mmmmɛɛɛ	-11.5056
▁auto	-11.5056
▁pu	-11.5058
▁metropolitan	-11.5058
▁proposed	-11.5059
ая	-11.5061
▁speaking	-11.5064
ɒɒɒɫɫɫɫɫɫɫɫɫɫ	-11.5071
▁poetry	-11.5071
ddffffffffffffff	-11.5072
nnnnnnnnnnnmmmm	-11.5074
əəəəəəɹɹɹɹɹɹɹɹɹɹ	-11.5075
əəəmmmmmmmmmmm	-11.5075
▁пол	-11.5078
ɪɪɪɪɲɲɲɲɲɲɲɲ	-11.5082
ɒɒɒɒɒɒɒɒɒɒɒɫɫɫ	-11.5083
kkksss	-11.5083
dddɹɹɹɹɹɹɹɹɹɹ	-11.5084
æææææææææʔʔʔʔʔ	-11.5085
ɝɝɝɝɝɝɝɝkkkkkkkk	-11.509
nnnnnnnnddəəəəə	-11.5092
он	-11.5093
kkkkssssss	-11.5094
tjtjtjtjɪɪɪɪdd	-11.5096
▁ʃʃʃʃʃʃʃʃʃʃi	-11.5097
ress	-11.51
nnnndjdjdjdjɪɪɪ	-11.51
▁engineering	-11.5103
pjpjpjpjɪɪɪɪɪɪɪɪ	-11.5103
тов	-11.5103
uuuuuuuuuuuuu	-11.5104
ththththɪɪɪɪɪ	-11.5104
əəəəəmmmm	-11.5105
▁narrow	-11.5107
▁message	-11.5107
ɑɑɑɑɑɑɑɑɑʔʔʔʔʔ	-11.5108
nnnnɚɚɚɚɚɚɚɚ	-11.5108
hhhhhhhhɛɛɛɛɛɛɛ	-11.5111
ole	-11.5113
▁height	-11.5114
vvvvvɚɚɚɚɚɚɚɚɚ	-11.5116
ɪɪɪɪɪʎʎʎʎʎʎʎʎ	-11.5116
▁cricket	-11.5119
▁impact	-11.5119
▁projects	-11.5119
ɡɡɡɡɡɡɡɡɹɹɹɹɹɹɹɹ	-11.512
▁fur	-11.5124
llllllæææææææææ	-11.5125
chchchæææææ	-11.5125
çççççççççɪɪɪ	-11.5126
ɪɪɪɪɪsssss	-11.5127
ʎʎʎʎʎʎʎʎʎʎɪ	-11.5128
▁learning	-11.5128
ɒɒɒɒɒɒɒɒɒnnnnn	-11.513
ют	-11.513
▁showed	-11.5135
▁advanced	-11.5137
tjtjtjtjtjɪɪɪɪdd	-11.5138
phphphowowowowow	-11.5138
тя	-11.5139
▁carry	-11.5139
bbbbbææææææææææ	-11.514
ththththʊʊʊʊʊʊʊ	-11.514
▁hol	-11.5142
▁breath	-11.5143
▁map	-11.5146
ɪɪɪɪʃʃʃʃʃʃʃʃʃ	-11.5148
awawawnnnnnnnnnn	-11.5148
▁tw	-11.5152
ɛɛɛɛɛɛddd	-11.5152
ɒɒɒɒɒɒɒɒɒŋŋŋŋŋŋŋ	-11.5154
▁aim	-11.516
▁republic	-11.5162
ɚɚɚɚɚɚɚɚdddd	-11.5162
əəəbjbjbjbjbjbj	-11.5162
nnnnɑɑɑɑɑɑɑɑɑɑ	-11.5163
▁selected	-11.5163
əəəəəəəɫɫɫɫɫɫɫɫɫ	-11.5163
ejejejejejdddddd	-11.5164
mmməəəəəəə	-11.5175
ʊʊʊʊɹɹɹɹɹɹɹɹ	-11.518
▁permanent	-11.518
▁vo	-11.5181
▁laid	-11.5181
bbbbbɐɐɐɐɐʔʔʔ	-11.5182
ɐɐɐɐɐnnnn	-11.5184
d̪d̪d̪d̪d̪ææææ	-11.5185
phphphæææææææææ	-11.5187
khkhkhəəəəəəə	-11.5188
ез	-11.5188
▁skin	-11.5189
▁scientific	-11.5192
kins	-11.5194
▁agreed	-11.5196
dddddɪɪɪɪɪɪɪɪ	-11.5196
▁jump	-11.5197
▁grade	-11.5197
ɹɹɹɹɹɹɹɹɹɹɹɹɪɪɪɪ	-11.5199
phphphphphphəəəə	-11.5201
burg	-11.5204
▁llllllllllll	-11.5206
nnnnnnmmm	-11.5208
ffffffffɛɛɛɛɛɛɛɛ	-11.5208
ɡɡɡəəə	-11.5209
kkkkkkkkkkkkklll	-11.5209
aries	-11.521
ɑɑɑɑɑɑɑɑɑɑʔʔʔʔʔ	-11.5211
bbbbbejejejejej	-11.5211
cccccccccɹɹɹɹɹ	-11.5213
pppppppppəəəəə	-11.5214
wwwwwɚɚɚɚɚ	-11.5214
set	-11.5215
wwwwwwwwwajajaj	-11.5218
nnndjdjdjdjɪɪɪ	-11.5218
mmmmmææææææææ	-11.522
▁shore	-11.5221
ɹɹɹɹɹɹowowow	-11.5222
ɹɹɹɹɹɹææææææææ	-11.5223
▁s̪s̪s̪s̪s̪s̪	-11.5227
əəəəəəɡɡɡɡɡɡɡɡ	-11.5227
nnndjdjdjdjɪɪɪɪ	-11.5228
▁eighteen	-11.5229
ttttttɹɹɹɹɹ	-11.5236
əəəəəədjdjdjdjdj	-11.5236
ɪɪɪɪɪmmmmmmmmm	-11.5237
cccccccccɪɪɪɪ	-11.5237
zzzzzzzzssss	-11.5237
æææææææmmmmmmmm	-11.5239
cks	-11.5239
▁cli	-11.524
▁presence	-11.5241
▁mistake	-11.5241
▁legend	-11.5241
▁olympic	-11.5241
▁sit	-11.5243
kkkkkktjtjtjtjtj	-11.5243
▁electric	-11.5244
nnnnnnnnnnnbbbbb	-11.5247
əəəəvvvvd̪d̪d̪d̪	-11.525
ɪɪɪɪɪɹɹɹɹɹɹɹɹɹɹɹ	-11.5251
▁joy	-11.5252
▁bottom	-11.5253
▁illustrat	-11.5253
bury	-11.5254
ɪɪɪɫɫɫɫɫɫɫɫɫɫ	-11.5256
ɲɲɲɲɲɲɲiiiii	-11.5257
awawawnnn	-11.5258
əəəəəəəəəɫɫɫɫ	-11.5258
ŋŋŋŋŋŋŋɡɡɡɡ	-11.526
▁cri	-11.526
ajajajɹɹɹɹɹɹɹɹɹ	-11.5261
▁benefit	-11.5266
тер	-11.5266
зи	-11.5271
ɪɪɪɪɪɪɪɪɪɪɪʔʔʔʔʔ	-11.5271
ɛɛɛɛɛɛɛɛɛvvvvvvv	-11.5271
wwwwwwwwwɛɛɛɛɛɛ	-11.5275
pppppplll	-11.5276
ttttəəəəəəəə	-11.528
llllowowowow	-11.5281
ɪɪɪɪɪɪɪɪzzz	-11.5284
▁horses	-11.5285
phphphææææææææææ	-11.5286
ɐɐɐɐɐɐʔʔʔʔ	-11.5287
vvvvvvvɛɛɛɛɛɛ	-11.5287
çççççççç	-11.5288
▁entrance	-11.5291
ææææææææfffffff	-11.5293
ою	-11.5293
▁pat	-11.5296
ran	-11.5298
ɛɛɛɛɛɛɛɛɛɛnnn	-11.53
▁soviet	-11.5303
▁temperature	-11.5303
ство	-11.5303
tttəəənnn	-11.5304
▁але	-11.5305
əəəddddd	-11.5305
▁graduate	-11.5306
nnnnnnɑɑɑɑɑɑɑ	-11.5309
▁filled	-11.531
▁wal	-11.531
bert	-11.5312
ʃʃʃʃʃʃʃʃʃʃiiiiii	-11.5313
lar	-11.5316
▁gray	-11.5317
wwwwəəəəəəə	-11.5318
▁ɪɪɪɪɪɪɪɪnnnnnnn	-11.5318
▁folk	-11.5326
awawawawttttttt	-11.533
bbbbbɛɛɛɛɛɛɛ	-11.5331
wwwəəəzzzzz	-11.5332
▁ben	-11.5333
iiiiiiiəəəəəəəəə	-11.5336
nnnnnnnnnnnttt	-11.5337
ddɛɛɛɛɛɛɛɛɛɛ	-11.5337
▁ejejej	-11.5337
cade	-11.5338
▁qua	-11.5343
ɑɑɑɑɑɑɑʔʔʔʔʔʔʔʔ	-11.5344
▁claimed	-11.5349
əəəəəəəəəəəɫɫɫ	-11.535
▁articles	-11.5351
▁eleven	-11.5352
▁rural	-11.5353
thejejejejejejej	-11.5358
▁agent	-11.536
ffffffffllll	-11.536
▁waiting	-11.5363
▁vice	-11.5364
æææʔʔʔʔʔʔʔ	-11.5364
▁drew	-11.5365
▁spo	-11.5366
ɹɹɹɹɹɐɐɐɐɐɐ	-11.5367
ɪɪɪɪchchchchchch	-11.5368
bbbbbbbbllllll	-11.5372
▁pea	-11.5374
▁request	-11.5378
ɹɹɹiiiiiiiiii	-11.5378
ððððəəəəəəəə	-11.538
thththɪɪɪɪɪɪ	-11.5383
ɹɹɹɹɐɐɐɐɐɐɐɐ	-11.5383
▁drawn	-11.5383
▁fighting	-11.5383
cwcwcwcwɛɛɛɛɛɛɛ	-11.5383
əəəəəəəəəəvvvv	-11.5384
dʒdʒdʒdd	-11.5385
dddəəəəəəəəə	-11.5386
nnnnnnnnddəəəə	-11.5388
▁contact	-11.539
ppppppppɹɹɹɹəəə	-11.5391
nnnnnɛɛɛɛɛɛɛ	-11.5391
ææææææætttt	-11.5393
bbbbbɐɐɐɐʔʔʔʔ	-11.5393
fjfjfjfjʉʉʉʉʉʉʉʉ	-11.5394
▁initial	-11.5399
art	-11.5399
ɹɹɹəəəəmmm	-11.54
ky	-11.541
bbbbɹɹɹɹɹɹ	-11.5412
wwwwəəəə	-11.5412
tttttttttɹɹɹəəə	-11.5413
▁northeast	-11.5415
tttttttttɚɚɚɚ	-11.5417
ppppppppppllllll	-11.542
ʒʒʒʒʒʒʒʒʒəəəə	-11.5421
▁dan	-11.5423
tʃtʃtʃəəə	-11.5424
ɪɪɪɪɪɪɪɪɪɪɪɪɪzzz	-11.5424
▁val	-11.5425
ʎʎʎʎʎʎʎʎʎʎʎiii	-11.5427
▁overall	-11.5427
▁dick	-11.5435
▁normal	-11.5436
hhhhhhhhɛɛɛɛɛɛ	-11.5437
bbbbbbbbbɹɹɹɹɹ	-11.5439
▁holiday	-11.544
ɲɲɲɲɲɲiii	-11.544
▁ɡɡɡɡɡɡɡ	-11.5444
ɑɑɑɑɑɑɑɑɑɑɑɑnnnn	-11.5445
ʊʊʊʊʊʊkkkkkkkk	-11.5445
▁sad	-11.5445
ɹɹɹɛɛɛɛɛɛɛ	-11.5445
▁prove	-11.5448
nder	-11.5448
sssssssssɛɛɛɛ	-11.545
▁ride	-11.5452
ough	-11.5452
▁applied	-11.5452
▁drink	-11.5457
bbbbbbbəəəɫɫɫɫɫɫ	-11.5458
bu	-11.5459
æææættt	-11.5466
▁recognized	-11.5468
▁titles	-11.5468
ccccccccʎʎʎʎʎʎ	-11.5468
▁ççççççççɪɪɪɪɪ	-11.5469
ɒɒɒɫɫɫɫɫ	-11.5469
ejejejtjtjtjɪɪɪ	-11.5469
vvvvvvɝɝɝɝɝɝɝɝ	-11.5469
▁increases	-11.5472
ɡɡɡɡɡɡɡɡɹɹɹɹɹ	-11.5473
vvvvvvvvvvvvvvdd	-11.5474
kkkkkkkkkkkɹɹɹɹɹ	-11.5478
ров	-11.5478
bjbjbjɪɪɪɪɪɪɪɪ	-11.5479
▁fli	-11.5479
æææææææææækkkkkk	-11.548
nnnnnnnɐɐɐɐɐɐɐɐ	-11.5481
ɹɹɹɹɹɹɹææææææææ	-11.5483
▁hal	-11.5483
əəəəəəəəllllll	-11.5484
hhhhhhhhɛɛɛɛɛɛɛɛ	-11.5484
▁ɪɪɪɪɪɪɪɪnnnnn	-11.5485
▁organ	-11.5485
ɪɪɪɪɪɡɡɡɡɡɡ	-11.5486
ɪɪɪɪɪɪmmmmmm	-11.549
▁israel	-11.549
▁crater	-11.5491
▁thinking	-11.5494
▁regarded	-11.5495
▁seasons	-11.5496
ок	-11.5496
fffffffffllll	-11.5497
▁suppose	-11.5498
vvvvvvvvɚɚɚɚ	-11.5503
▁planned	-11.5503
tttttɹɹɹɹ	-11.5506
▁tone	-11.5506
dale	-11.5506
ɪɪɪɲɲɲɲɲɲɲ	-11.5507
bbbbbbbəəəəə	-11.5507
nnnnttttssssssss	-11.5508
lllllllɒɒɒɒɒɒɒɒɒ	-11.5513
▁georgia	-11.5515
▁ohio	-11.5516
tʃtʃtʃtʃtʃtʃttt	-11.5517
vvvvəəəəəəə	-11.5518
ɡɡɡɡɡɡowowow	-11.5522
▁sn	-11.5523
▁pain	-11.5525
tttttəəəəəəəə	-11.5528
▁motion	-11.553
ɚɚɚɚɚɚɚɚɚɚɚɚɚzzz	-11.5536
vis	-11.5537
▁effective	-11.5537
kkkssssssss	-11.5538
sssssssssskkkkk	-11.554
▁occurred	-11.5541
əəənnnnnnnndd	-11.5542
nnnnnnɛɛɛɛɛɛɛ	-11.5542
ɫɫɫɫɫɫɫɫɫɫɫddd	-11.5545
ɡɡɡɡɡɡɡɡɹɹɹɹɹɹɹ	-11.5545
əəəənnnnnnndd	-11.5547
awawawtttttttt	-11.5549
ɪɪɪɪɪɪɫɫɫɫɫɫɫɫ	-11.5551
ttttttəəəəəəəə	-11.5553
dle	-11.5562
ren	-11.5564
ɾjɾjɾjɾjɾjɾjɾj	-11.5564
▁bishop	-11.5566
▁religion	-11.5566
vvvvɚɚɚɚɚɚ	-11.5568
lllllæææææææææ	-11.5569
ɡɡɡɡɡəəəəə	-11.5572
ɒɒɒɒɒɒɒɒɒɒnnnnn	-11.5575
jjjjjjjjjɪ	-11.5583
ajajajajkkkkkkkk	-11.5588
ththththawawawaw	-11.5588
nnnnnɑɑɑɑɑɑɑ	-11.559
sssssssssajajaj	-11.559
▁volume	-11.5591
ssssssssskkkkk	-11.5592
əəəədʒdʒdʒdʒdʒdʒ	-11.5593
▁jjjjjjjjjjʉ	-11.5594
ɹɹɹɹɹowowow	-11.5596
ɡɡɡɡəəə	-11.5599
▁efforts	-11.56
awawawawawawtttt	-11.5602
тор	-11.5604
xxxxxxxxxxxxxx	-11.5605
ssssssssssskkkkk	-11.5609
ɛɛɛɛɛɛmmmmmmmm	-11.561
zzzzzəəəəəəəə	-11.5612
fffffffffffffɹɹɹ	-11.5615
▁pacific	-11.5617
▁territory	-11.5617
▁oxford	-11.5617
▁advance	-11.5618
ɪɪɪɪɪɪɪɪvvvvv	-11.5619
▁engineer	-11.562
cccccccccccɹɹɹ	-11.5622
pjpjpjpjɪɪɪɪɪɪɪ	-11.5623
жи	-11.5626
ɑɑɑɑɑɑɑɑppppppp	-11.5626
ɫɫɫɫɫɫzzzzzzzzzz	-11.5628
ɛɛɛɛɛɛɛɛddddddd	-11.5631
ɪɪɪvvv	-11.5635
▁salt	-11.5636
▁ро	-11.5636
ɟɟɟɟɟɟɟɟɪɪɪɪɪɪɪɪ	-11.564
tttɚɚɚɚɚɚɚɚɚɚɚ	-11.564
ɐɐɐɐɐɐbbbbbbb	-11.5641
▁rev	-11.5642
ððððɚɚɚɚɚɚɚɚ	-11.5646
ɟɟɟɟɟɟɟɟɟɹɹɹɹɹɹɹ	-11.5646
ɒɒɒɒɒɒɒɒɒnnnnnn	-11.5648
wwwwwwwɑɑɑɑɑɑɑɑ	-11.5651
ɛɛɛɛɛɛɛɛɛsssssss	-11.5654
▁senator	-11.5655
djdjdjiii	-11.5655
▁pin	-11.5656
əəədddd	-11.5656
жа	-11.5657
fffffffɹɹɹəəəmmm	-11.5657
llllɛɛɛɛɛɛɛɛ	-11.5657
els	-11.5661
ððððəəəəəəə	-11.5663
ɾɾɾɾɚɚɚɚɚɚ	-11.5663
ssssssssɛɛɛɛ	-11.5665
bbbbɐɐɐ	-11.5668
ththawawawawawaw	-11.5668
ɪɪɪɪɪɪɪɪʔʔʔ	-11.5676
ін	-11.5678
zjzjzjzjzj	-11.5682
bbbbɐɐɐɐɐ	-11.5687
▁sell	-11.5687
ɒɒɒɒɒɒɒnnnnnnn	-11.5687
▁extensive	-11.5689
tjtjɪɪɪɪɪɪɪɪɪɪdd	-11.5692
▁h	-11.5693
▁negative	-11.5694
▁mat	-11.5694
▁ty	-11.5695
owowowowowowɫɫɫɫ	-11.5696
ajajajajttttt	-11.5696
pjpjpjɪɪɪɪ	-11.5698
ɟɟɟɟɟɟɟɟɪɪɪɪɪɪɪ	-11.57
▁çççççççɪɪɪɪɪ	-11.5701
▁soldiers	-11.5703
pp	-11.5705
ɫɫɫɫɫɫdddd	-11.5707
cccccccʎʎʎ	-11.5707
nnnnnnnnkhkhkhkh	-11.5708
ðððððððɚɚɚɚɚɚɚ	-11.5711
ddhhhhhhhh	-11.5711
▁del	-11.5711
▁conduct	-11.5712
▁asia	-11.5713
nnnnnnnəəəəəəəəə	-11.5713
ddbbbbbbbajajaj	-11.5714
nnnndjdjdjdjɪɪɪɪ	-11.5714
▁subsequent	-11.5715
ssssssssscccccc	-11.5715
▁bjbjbjbjbj	-11.5716
▁saying	-11.5717
ɾɾɾɚɚɚɚɚɚɚɚ	-11.5718
llllllllɒɒɒɒɒɒɒ	-11.5718
nnnnnəəəəəəəəə	-11.5719
cccccʃʃʃʃʃʃʃʃʃʃ	-11.572
ую	-11.5721
ɟɟɟɟɟɟɟɪɪɪɪɪɪɪɪ	-11.5725
ɹɹɹɹɹɹɹɹɹəəəəə	-11.5726
ɨɨɨɨɨɨɨɨɨ	-11.5727
ejejejtttt	-11.5735
▁эти	-11.5736
əəəhhhhhhhh	-11.5737
ити	-11.5738
ɛɛɛɛɛɛɛɛdddddd	-11.5738
ɹɹɹɹɹɹɹɹɑɑɑɑɑɑɑɑ	-11.5738
ææææææææmmmmm	-11.5739
▁stated	-11.5741
▁generation	-11.5743
wa	-11.5746
ɟɟɟɟɟɟɟɪɪɪɪɪɪɪ	-11.5748
pppɹɹɹɹɹ	-11.5748
ɲɲɲɲɲɲɲiii	-11.5748
ɪɪɪɪɪɪɪkkkk	-11.5756
tur	-11.5756
ɒɒɒɒɒɒɒnnnnnnnn	-11.5757
ах	-11.5758
▁dedicated	-11.5758
ɲɲɲɲiiiii	-11.576
s̪s̪s̪s̪t̪t̪t̪t̪	-11.576
ɹɹɹɹɹɹɹɹɹɹɛɛɛɛɛɛ	-11.5762
oon	-11.5763
off	-11.5766
ccccccɪɪɪɪ	-11.5766
ajajajtttttttttt	-11.5767
▁begins	-11.5767
▁agricultural	-11.5771
ŋŋŋŋŋŋɡɡɡɡ	-11.5771
▁chain	-11.5771
▁terr	-11.5774
wwwəəəəəzzzzzzz	-11.5774
ɑɑɑɑɑɑɑɑllllllll	-11.5781
ɛɛɛɛkkkkkkkkk	-11.5782
▁situated	-11.5784
sssɪɪɪ	-11.5787
llllɛɛɛɛɛɛ	-11.5788
▁chosen	-11.5788
tjtjtjtjɹɹɹɹɪɪɪɪ	-11.5789
▁dia	-11.579
▁surprise	-11.5792
əəəəɡɡɡɡɡɡɡ	-11.5793
▁э	-11.5794
▁exhibit	-11.5796
ɫɫɫmmmmmmmm	-11.5798
ɲɲɲɲiii	-11.5799
▁slowly	-11.5802
nnnnnɑɑɑɑɑɑɑɑɑ	-11.5804
wwwwwwɛɛɛɛ	-11.5807
▁fashion	-11.581
▁carolina	-11.581
▁soil	-11.5812
ɒɒɒɒɒɒɫɫɫ	-11.5812
ɫɫɫɫɫɫɫɫɫɫɫɫdddd	-11.5812
▁rec	-11.5819
▁failure	-11.5823
wwwwwwwɒɒɒɒɒɒɒɒ	-11.5825
ccccccccccʎʎʎʎʎ	-11.5825
lllajajajajaj	-11.5828
ppppppəəə	-11.5829
▁hang	-11.5829
▁conve	-11.583
▁affected	-11.5831
bbbbbæææææææææ	-11.5832
llllllllləəəəəə	-11.5838
▁ду	-11.584
▁weak	-11.584
▁ban	-11.5843
▁mentioned	-11.5844
ɡɡɡɡɡɡɡɡɹɹɹɹ	-11.5844
▁mac	-11.5845
æææææææææʔʔʔʔʔʔ	-11.5845
bbbbbbbbɑɑɑɑɑɑɑɑ	-11.5846
▁pri	-11.5846
ɐɐɐmmmmmm	-11.5848
æææææætttttttt	-11.585
▁contained	-11.585
▁laws	-11.585
ssssssɪɪɪɪ	-11.5852
əəəəəəəbbbbbbb	-11.5852
ɛɛɛɛɛɫɫɫɫɫɫɫɫɫɫɫ	-11.5853
kkkkksssss	-11.5857
ɹɹɹɹɹɛɛɛ	-11.5858
ɪɪɪɪɪɡɡɡɡɡɡɡ	-11.5858
mmmmppp	-11.5859
ddzzz	-11.5859
pjpjpjpjpjpjʎʎʎ	-11.5865
çççɪɪɪɪzzzzzzz	-11.5867
bbbbbbəəəəə	-11.5867
hhhhhhhhhhhhææææ	-11.5867
ææææʔʔʔʔʔʔʔʔ	-11.5868
bbbbɐɐɐɐ	-11.587
▁maintained	-11.5876
wwwwwwajajajaj	-11.5876
chchchɛɛɛ	-11.5881
▁ɪɪɪɪɪɪɪɪɪɪɪɪʔʔʔ	-11.5881
wwwwɑɑɑɑ	-11.5882
ɫɫɫɫɫɫɫddddd	-11.5882
wwwɐɐɐɐɐɐ	-11.5883
əəədjdjdjdjdjdj	-11.5884
mmmməəəəəəəə	-11.5887
mmmmmmpppp	-11.5889
▁heavily	-11.589
mmmmæææææææææææ	-11.589
ɪɪɪkkkkkkkkk	-11.589
əəəəbbbbbbbbbbb	-11.5891
▁сам	-11.5891
▁gain	-11.5891
ɾɾɾɾɾɚɚɚɚɚɚɚɚɚ	-11.5891
▁distinct	-11.5891
nnnnnnnzzzz	-11.5892
əəəəəɡɡɡɡɡɡɡɡɡ	-11.5896
nnnnnnnnddɚɚɚ	-11.5897
wwwwwəəəzzzzzzz	-11.5899
▁est	-11.5901
▁пос	-11.5901
iiiiəəəəəəəə	-11.5902
wwwwwəəəəzzzzzz	-11.5905
▁greatest	-11.5906
bbbbbbbbbɹɹɹɹɹɹ	-11.5909
əəəbbbbbbbbbb	-11.591
one	-11.5911
jjjjjjjjɪɪɪɪɪɪɪɪ	-11.5911
rupt	-11.5912
old	-11.5913
ug	-11.5914
ɒɒɒɒɒɒɒɒɒɒɒɫɫɫɫɫ	-11.5916
▁прав	-11.5916
ɪɪɪɪɫɫɫɫɫɫɫɫɫɫ	-11.5917
ɡɡɡɡɡɡɡɡɹɹɹɹɹɹ	-11.5917
▁achieved	-11.5917
llllllllɑɑɑɑɑɑɑ	-11.592
dddddɚɚɚɚɚɚɚɚ	-11.5923
ɒɒɒɒɒɒnnnnn	-11.5924
nnnnɛɛɛɛɛɛɛɛ	-11.5924
▁blo	-11.5924
iiiiikhkhkhkhkh	-11.5924
bbbbbbbbɐɐɐɐɐɐɐɐ	-11.5925
ɪɪɪɪɪɡɡɡɡɡ	-11.5927
ɪɪɪɪɪcccccccc	-11.5927
ɲɲɲɲɲɲɲɪɪɪɪɪɪɪɪɪ	-11.5927
▁knight	-11.5928
ɪɪɪɪɪɪʔʔʔʔʔ	-11.5931
yard	-11.5934
bbbbbbbbəəəəəəəə	-11.5936
▁reaction	-11.5937
▁hhhhhhhhhhhhhh	-11.5942
nnndjdjdjɪɪɪ	-11.5943
▁diver	-11.5944
ooooooooooooo	-11.5945
ɑɑɑɑɑɑɑɑʔʔʔ	-11.5948
dddwwwwwww	-11.595
ade	-11.5951
mmmmmmmmphphphph	-11.5954
owowowowkkkkkkkk	-11.5958
ɛɛɛɛɛɛɛcccccccc	-11.5959
əəəʎʎʎʎʎʎʎʎi	-11.5959
ɔɔɔɔɔɔɔɔɔɔɔɔɔɔɔ	-11.596
ɹɹɹajajaj	-11.5961
ææææææænnnnndd	-11.5961
pppɹɹɹəəə	-11.5962
tha	-11.5962
▁classical	-11.5963
mmmmmmɐɐɐɐɐɐɐ	-11.5963
ææææækkkkkkkk	-11.5965
ɹɹɹɹɹowowowow	-11.5965
▁fox	-11.5969
hhhhhhawawawawaw	-11.597
əəəəəəəəəəənnn	-11.597
▁она	-11.5971
ɹɹɹɹɹawawawawaw	-11.5972
ttttttɹɹɹɹejejej	-11.5975
eeeeeeeeeeeeee	-11.5975
iiiiəəəəəə	-11.5977
ajajajmmmmmmmmm	-11.5979
ɪɪɪʎʎʎ	-11.5982
æææææææænnndd	-11.5983
rit	-11.5985
ɛɛɛɛɫɫɫɫɫ	-11.5986
▁arrested	-11.5986
nna	-11.5989
▁dogs	-11.5991
nnnnnnndʒdʒdʒdʒ	-11.5993
▁roads	-11.5993
ʃʃʃʃʃʃʃʃəəəənnnn	-11.5993
▁rugby	-11.5994
▁struggle	-11.5994
nnnnttttttttt	-11.6
sen	-11.6001
kkkkkkkkkkɹɹɹɹɹ	-11.6002
▁existence	-11.6008
ejejejmmmmmmmdd	-11.601
ccccccccccɹɹɹɹɹ	-11.6014
hhhhhɝɝɝɝɝɝɝɝ	-11.6015
cre	-11.602
▁neighborhood	-11.6021
ŋŋŋŋŋŋɡɡɡɡɡ	-11.6023
ification	-11.6024
gar	-11.6025
kkkkkkktttt	-11.6026
lllllɐɐɐɐɐɐɐɐ	-11.6026
▁riding	-11.6027
gged	-11.6027
zzzzzzzzzzəəəəəə	-11.6033
çççççççççççɪɪɪɪɪ	-11.6034
▁clark	-11.6034
ɪɪɪɪɪɪɪɫɫɫɫɫɫɫɫ	-11.6043
▁чо	-11.6043
llllɐɐɐɐɐɐɐɐ	-11.6045
wwwwwwwwɝɝɝɝɝɝ	-11.6045
dge	-11.6047
əəəəpppppp	-11.6048
tttəəəɫɫɫ	-11.605
▁clubs	-11.6054
ration	-11.6054
ɲɲɲɲɲɲɲɲɲɲɲɲɪ	-11.6055
▁angel	-11.6058
cccccccccccʎʎʎʎʉ	-11.6059
▁jjjjjjjʉ	-11.6059
▁option	-11.606
cccccccccccɹɹɹɹɹ	-11.606
▁toronto	-11.6061
ɪɪɪɪɪɪɪvvvv	-11.6063
ɪɪɪɪɪththththth	-11.6063
ɛɛɛɛɛɛɛɛɛvvvvvv	-11.6064
bbbɹɹɹɹ	-11.6066
ææææææssssssssss	-11.6066
ththththʊʊʊʊʊʊʊʊ	-11.6069
nnnndʒdʒdʒdʒdʒdʒ	-11.6069
▁declared	-11.6074
vvvvvvvvɛɛɛɛɛɛ	-11.6074
▁interview	-11.6074
▁col	-11.6075
ʃʃʃʃʃʃʃʃəəəəəəəə	-11.6083
▁correct	-11.6083
ɹɹɹɹɹɹɹɛɛɛ	-11.6084
ты	-11.6087
ɒɒɒɒɒɒɒɒɒɫɫɫ	-11.6087
▁princess	-11.6088
dent	-11.6092
▁ear	-11.6094
ddffffffffff	-11.6095
ws	-11.6097
lllɛɛɛ	-11.6098
mmmmmmmphphphph	-11.6099
▁exchange	-11.6101
▁composition	-11.6101
sssssssssssssow	-11.6101
▁nice	-11.6101
▁freedom	-11.6101
ingly	-11.6101
mmmmmmmɐɐɐɐɐ	-11.6102
khkhkhkhɝɝɝɝɝɝɝɝ	-11.6102
ɟɟɟɟɟɟɪɪɪɪɪɪ	-11.6104
ɹɹɹm̩m̩m̩	-11.6105
▁file	-11.6106
əəəəkkkkkkk	-11.6107
ɐɐɐɐɐɐɐɐɐmmmmmmm	-11.611
ɪɪɪvvvvvv	-11.6114
▁joseph	-11.6114
ʐʐʐʐ	-11.6116
▁apparently	-11.6116
ɹɹɹɛɛɛɛɛɛɛɛ	-11.6116
▁june	-11.6116
▁vac	-11.6117
▁basis	-11.6118
nnnnnnnnɐɐɐɐɐɐɐɐ	-11.612
▁ward	-11.612
tttttttttɹɹɹɹɹɹ	-11.6123
ææææææættt	-11.6125
ɲɲɲɲɲɲɲɲææææææææ	-11.6127
▁priest	-11.6128
ððððððɚɚɚɚɚɚ	-11.6128
▁bbb	-11.6131
vvvvvvvəəəəəə	-11.6134
mmmppp	-11.6136
pppppllll	-11.6136
khkhkhkhɒɒɒɒɒɒɒ	-11.614
▁founder	-11.6144
ppppppppɹɹɹəəəə	-11.6144
ejejejzzzzz	-11.6147
▁frame	-11.6148
▁survive	-11.615
▁nations	-11.6155
ææækkkkkkkk	-11.6155
▁assistant	-11.6155
ход	-11.6156
ddɐɐɐ	-11.6156
pjpjpjɪɪɪɪɪ	-11.6157
▁check	-11.6158
ɪɪɪɪɪɪɪɪɪɪɪɹɹɹ	-11.6158
nnnntjtjtjtjtj	-11.6159
ejejejejmmmmm	-11.6163
ʉʉʉʉʉʉʉʉmmmmmmmm	-11.6165
▁cy	-11.6165
əənnnnnnnnnnnnnn	-11.6166
ced	-11.6169
лу	-11.6176
hhhhhhhhhɛɛɛɛ	-11.6176
wwwwwɛɛɛɛ	-11.6177
ssssssssccccc	-11.6179
▁blow	-11.6181
▁його	-11.6182
▁flower	-11.6183
▁notes	-11.6184
ɲɲɲejejejejej	-11.6185
wwwwwwwwwəəəə	-11.6186
ɐɐɐɐɐɐɐɐppppppp	-11.6188
ɒɒɒɒɒɒɒɒɒɒɫɫɫɫɫ	-11.6188
mmmmmowowow	-11.6191
ɐɐɐɐmmmmm	-11.6192
ɲɲɲɲɪ	-11.6192
ɛɛɛɛɛɛɛpppppppp	-11.6193
▁guide	-11.6193
▁drama	-11.6194
▁partner	-11.6198
nnnnnnnnzzzz	-11.6199
▁painting	-11.62
▁visitors	-11.62
▁pur	-11.6201
▁quick	-11.6201
rrrrrrrrr	-11.6202
phphphphɐɐɐɐɐ	-11.6202
sssssssssspppppp	-11.6205
ɑɑɑɑɑɑnnnnnn	-11.6208
ɲɲɲɪ	-11.6209
mmmmmmmmmɐɐɐɐɐɐɐ	-11.621
ɲɲɲɲɲɲɲææææææææ	-11.6211
əəəfffffffff	-11.6211
lllllllɒɒɒɒɒɒɒɒ	-11.6211
ɪɪɪɪɪkkk	-11.6212
▁surrounded	-11.6212
▁elections	-11.6212
ɪɪɪɪɪɪɡɡɡɡɡ	-11.6214
▁environment	-11.6214
ency	-11.6215
▁reflection	-11.6215
▁singing	-11.6216
tttttttttɚɚɚɚɚɚɚ	-11.6217
tttəəənnnnnnnn	-11.6219
▁comic	-11.6221
▁rear	-11.6222
▁golf	-11.6223
chchchchɛɛɛɛɛ	-11.6224
▁ççççççççɪɪɪɪ	-11.6225
▁greatly	-11.6226
sssssttttttttttt	-11.6228
ɚɚɚɚɚɚɚɚɚɚɚɚdd	-11.6228
çççɪɪɪɪɪzzzzzzz	-11.623
ним	-11.6231
ssssspppppppp	-11.6231
ɪɪɪɪɪvvvv	-11.6232
nnnnnnzzzz	-11.6233
nnnnnttttttttttt	-11.6234
▁column	-11.6236
▁fifty	-11.6236
▁debut	-11.6236
▁expression	-11.6236
ddbbbbajajaj	-11.6237
ɡɡɡɡɡɡɡɹɹɹɹ	-11.6237
ʒʒʒʒ	-11.6239
nnnnnnddɚɚɚɚɚɚɚɚ	-11.6243
t̪t̪t̪t̪t̪t̪ɹɹɹɹ	-11.6245
dic	-11.6252
vvvvvvd̪d̪d̪d̪	-11.6252
▁рук	-11.6254
ejejejtttttt	-11.6256
vj	-11.6257
▁fans	-11.6257
ɛɛɛɛɛɛɛɛɛvvvvv	-11.6259
▁fly	-11.6261
nnnnnnnnbbbbbb	-11.6262
▁sam	-11.6265
ʊʊʊʊʊʊʊkkkkkkk	-11.6272
ɹɹɹɹɪɪɪɪɪɪɪɪɪ	-11.6273
ɪɪɪɪɪɪddthththth	-11.6275
▁edinburgh	-11.6276
▁premier	-11.6276
ttttttttttttəəəə	-11.6276
ɒɒɒɒɒɒɒɒɒɒnnnn	-11.6277
ɑɑɑɑɑɑɑɑmmmmmmm	-11.6278
ejejejttttt	-11.6281
▁merc	-11.6286
wwwwwwwwwwejejej	-11.6286
▁experiment	-11.6287
ɪɪɪɪɪɪɪɪɪɪɹɹɹ	-11.6287
ŋŋŋŋŋŋŋŋkkkkkkkk	-11.629
▁excellent	-11.629
▁fifteen	-11.629
vvvvvvvɛɛɛɛ	-11.629
▁stick	-11.629
əəəppp	-11.6291
ɟɟɟɟɟɟɪɪɪɪɪɪɪ	-11.6291
ɪɪɪɪɪɪɪɪɪɪɪɹɹɹɹɹ	-11.6293
ɐɐɐɐɐbbbbbbbb	-11.6293
əəəəkkkkkkkk	-11.6298
ɑɑɑɑɑɑɑɑɑɑʔʔʔ	-11.6298
əəəəəəənnnttt	-11.6298
▁grown	-11.6299
əəəəwwwwwwwwwww	-11.6302
bbbbbbbbbɹɹɹɹ	-11.6307
▁functions	-11.6308
ɛɛɛɛɛkkkkk	-11.631
ɹɹɹɹɹɹɹɹɹɹɛɛɛɛɛ	-11.6311
ɪɪɪɪɪɪpppppppp	-11.6315
dddddzzzzzzzz	-11.6316
khkhkhəəənnn	-11.6317
wwwəəəəə	-11.6318
ɪɪɪɪɪɪɪɪɪŋŋŋŋŋ	-11.6321
bbbbbbbblllllll	-11.6332
ððððððððəəəəə	-11.6335
▁reports	-11.6336
раз	-11.6337
▁су	-11.6338
ææææææættttttt	-11.6338
ejejejejejejɫɫɫ	-11.6338
ɐɐɐɐɐɐɐŋŋŋŋŋŋŋŋ	-11.6339
ŋŋŋɡɡɡ	-11.634
nnnnnnnnnnnbbbb	-11.6341
tʃtʃtʃtʃtʃəəəɹɹɹ	-11.6342
▁ob	-11.6342
iiiiiiiitʃtʃtʃtʃ	-11.6342
tʃtʃtʃtʃejejejej	-11.6343
nnnddɚɚɚɚɚɚɚɚ	-11.6344
kkkkkkkkkttttt	-11.6344
▁pool	-11.6346
ɲɲɲiiiiiiiiii	-11.6347
ppppppəəəəə	-11.635
ɾɾɾɾɾɚɚɚɚɚɚɚ	-11.6352
ppppppppəəəəəəə	-11.6355
lllllææææææææææ	-11.6356
bbbbɚɚɚɚɚɚ	-11.6356
▁unusual	-11.6358
▁contemporary	-11.6359
hhhhhhææææææææææ	-11.636
▁materials	-11.6366
▁opera	-11.637
▁pennsylvania	-11.6372
əəəəəəchchchchch	-11.6373
ɛɛɛɛɛɛɛɛɾɾɾɾɾɾɾɾ	-11.6373
▁duty	-11.6374
ddɹɹɹɹɹɹɹɹɹɹɹɹ	-11.6376
bbbbbɹɹɹ	-11.6376
d̪d̪d̪d̪d̪æææ	-11.6377
▁throw	-11.6381
▁дв	-11.6383
▁drawing	-11.6383
▁article	-11.6387
wwwwwwwwwəəəəə	-11.6388
ccccccɪɪɪ	-11.639
ffffffftttttt	-11.6391
▁translated	-11.6391
kkktʃtʃtʃtʃtʃ	-11.6391
tar	-11.6391
ɟɟɟɟɟɟɟɪɪɪɪɪɪ	-11.6392
▁wine	-11.6393
▁ɪɪɪɪɪɪɪɪnnnnnn	-11.6394
▁bound	-11.6394
ɛɛɛɛɛɛɛɛkkkk	-11.6394
▁gods	-11.6395
kkkkkkksssss	-11.6395
bbbbbbɹɹɹɹɹ	-11.6395
bbbbbɚɚɚɚɚɚɚ	-11.6398
ɪɪɪɪɪɪɪɪɪɪɪɪɹɹɹɹ	-11.6401
əəəəəbjbjbjbjbj	-11.6401
ææææææææææʔʔʔʔ	-11.6402
chchchɛɛɛɛɛ	-11.6402
nnnnntjtjtjtj	-11.6404
▁roles	-11.6404
▁pack	-11.6404
xxx	-11.6406
яв	-11.6408
tttttttttəəəəəə	-11.6411
ɛɛɛɛɛɛɛnnnttt	-11.6416
ttttttttttɹɹɹɹɹɹ	-11.6418
nnnnnnnddəəəəə	-11.6419
▁duke	-11.6419
ððððððððɚɚɚ	-11.6421
ajajajajajmmmmm	-11.6425
mjmjmjɪɪɪɪɪɪɪɪɪ	-11.6426
ɾjiiiiiii	-11.6426
▁october	-11.6427
▁digital	-11.6427
mic	-11.6429
zzzzəəəəəəə	-11.6429
ник	-11.6432
hhhhhhæææææææææ	-11.6432
wwwwwwwwwɒɒɒɒɒɒɒ	-11.6435
ɹɹɹɹɹɒɒɒɒɒɒɒɒ	-11.6435
ʎʎʎʎʎʎʎɪɪɪɪɪɪɪɪɪ	-11.6435
owowowowdddddddd	-11.6436
əəəvvvvvd̪d̪d̪d̪	-11.6438
ʃʃʃʃʃʃʃəəənnn	-11.6441
▁loved	-11.6442
nnnnnnnddɚɚɚɚɚɚɚ	-11.6442
ɑɑɑɑɑʔʔʔʔʔʔʔʔ	-11.6443
ɒɒɒɒɒɒɒɒɒɒɒɫɫɫɫ	-11.6445
ɾɾɾɾɚɚɚɚɚɚɚɚɚɚɚ	-11.6446
▁empire	-11.6447
▁fro	-11.6449
wwwwwɑɑɑɑɑ	-11.645
ɫɫɫɫzzzzzzzz	-11.6452
ɪɪɪɪɪɪdddddd	-11.6453
war	-11.6453
ɐɐɐɐɐɐɐmmmm	-11.6455
▁urban	-11.6455
nnnnnnəəəəəəəəə	-11.6456
ɛɛɛɛɛkkkkkkkkkkk	-11.6456
ets	-11.6457
fffffffɹɹɹ	-11.6457
▁fixed	-11.6461
▁covers	-11.6463
ɐɐɐɐɐmmmmmmmmm	-11.6464
ɦɦɦɦɦɦɦɦɦɦɦ	-11.6468
▁differ	-11.6468
▁revolution	-11.6469
▁piano	-11.6469
ʋjʋjʋjiii	-11.647
ным	-11.6471
fully	-11.6475
ɲɲɲɲɲɲɲɲʎʎʎʎʎiii	-11.6478
nnnnnajajajaj	-11.6483
▁advantage	-11.6483
▁nevertheless	-11.6483
ɒɒɒɒɒɒŋŋŋŋŋŋŋŋ	-11.6483
ssssstttttttttt	-11.6483
ʔʔʔʔɪɪɪɪɪɪɪ	-11.6485
▁wales	-11.6487
hhhhhhɝɝɝɝɝɝɝ	-11.6487
ɪɪɪɪɪɪtttttttttt	-11.6491
water	-11.6491
nnnnnnnnwwww	-11.6493
gle	-11.6494
vvvvvɝɝɝɝɝɝɝɝ	-11.6494
pppppplllll	-11.6497
▁afternoon	-11.6497
ɛɛɛɛɛɛɛddddd	-11.6497
▁phase	-11.6497
▁spa	-11.6497
sssssssowowowow	-11.6497
ccccccccɹɹɹɪɪɪ	-11.6498
fect	-11.6498
mmmmmmmbbbbɚɚɚ	-11.65
▁contest	-11.65
pjpjpjpjɪɪɪɪ	-11.6501
ɑɑɑɑɑɑpppppppppp	-11.6502
▁ser	-11.6503
бі	-11.6503
mmmmmɛɛɛɛ	-11.6504
ʃʃʃʃʃʃʃʃiii	-11.6507
mmmmmmmmmmɛɛɛɛɛɛ	-11.651
wwwwɪɪɪɪɪɪɪɪ	-11.6511
tttɚɚɚɚɚɚɚɚɚɚɚɚ	-11.6512
▁rela	-11.6513
vvvvɛɛɛɛɛɛ	-11.6514
▁sales	-11.6514
ppppɹɹɹəəə	-11.6515
sssssssspjpjpj	-11.6518
ɪɪɪɪɪɪɪdddddd	-11.652
▁zone	-11.6521
▁çççççççɪɪɪɪ	-11.6521
▁journey	-11.6525
▁medicine	-11.6525
▁spain	-11.6525
ææææææææææʔʔʔʔʔ	-11.6527
ай	-11.6528
wwwwwajajaj	-11.6528
▁ye	-11.6529
ties	-11.653
ɡɡɡɡɡɡɡɑɑɑɑɑɑɑɑ	-11.653
ŋŋŋŋŋɡɡɡɡ	-11.6531
fffɚɚɚ	-11.6531
них	-11.6531
bbbbbbɐɐɐɐɐɐ	-11.6533
▁rush	-11.6533
cccccccccccʎʎʎʉ	-11.6534
▁proposal	-11.6539
▁electronic	-11.6539
▁architecture	-11.6539
æææææææææsssssss	-11.654
dddddddɛɛɛɛɛɛɛɛ	-11.655
▁ash	-11.6551
▁northwest	-11.6553
▁cooper	-11.6553
▁colonel	-11.6553
▁lane	-11.6555
▁setting	-11.6556
▁ççççççççɪɪɪ	-11.6556
▁powerful	-11.6556
ии	-11.656
▁hhh	-11.6562
sssssssɛɛɛɛɛɛɛɛɛ	-11.6563
▁claim	-11.6564
ssssssssɐɐɐɐɐɐ	-11.6567
ɝɝɝɝɝɝɝɝɝɝɝddddd	-11.6568
dʒdʒdʒɐɐɐɐɐɐɐɐ	-11.657
▁legs	-11.6571
sssssssssstjtjtj	-11.6575
▁па	-11.6576
▁manufacture	-11.6576
▁bbbbbɐɐɐʔʔʔ	-11.6577
ɝɝɝɝɝɝɝɝɝɝdddd	-11.6578
ɲɲɲɲɲɲɲcccc	-11.6578
ʉʉʉʉʉʉʉʉmmmmmmm	-11.6578
æææættttt	-11.6579
▁corporation	-11.6581
▁winning	-11.6582
ɪɪɪɪɫɫɫɫɫɫɫɫɫɫɫ	-11.6588
ddbjbjbjbjbj	-11.659
iiiiəəəəəəə	-11.6591
tttɚɚɚɚɚɚ	-11.6592
ɫɫɫɫɫɫɫɫɫddddd	-11.6592
ɹɹɹɹɹɹɹɹɹɹajajaj	-11.6593
▁ком	-11.6593
ɹɹɹɹɹɹawawawawaw	-11.6595
▁september	-11.6595
ʊʊʊʊʊʊʊʊʊʊʊʊdd	-11.6597
▁aid	-11.6598
▁agreement	-11.6599
▁episodes	-11.6602
▁compete	-11.6603
ɹɹɹɹɹɹɹɹdddddddd	-11.6609
▁massachusetts	-11.6609
▁uniform	-11.6609
▁profit	-11.6609
ajajajajajajvvvv	-11.661
▁drum	-11.661
▁possess	-11.661
щи	-11.6612
wwwwwwwwʊʊʊʊʊdd	-11.6612
lllllllɐɐɐɐɐɐɐɐ	-11.6614
tʃtʃtʃɚɚɚ	-11.6617
lllllæææææææææææ	-11.6618
▁elizabeth	-11.6623
▁bodies	-11.6623
wwwwwɝɝɝɝ	-11.6623
ɛɛɛɛkkkkk	-11.6625
▁polish	-11.6625
ɑɑɑɑɑɑɑɑmmmmmm	-11.6626
ɟɟɟɟɟɟɪɪɪɪɪ	-11.6629
ddvvvvvvvvvvv	-11.6631
ер	-11.6631
енно	-11.6636
wwwwwɚɚɚɚɚɚɚ	-11.6637
▁farming	-11.6638
▁abandoned	-11.6641
▁refer	-11.6641
tttthththth	-11.6642
dʒdʒdʒdʒiiiiiiii	-11.6645
▁buck	-11.6645
▁defeated	-11.6646
ddddɚɚɚɚɚɚɚɚɚ	-11.6649
ɦɦɦ	-11.6649
iiiiiiippppppppp	-11.665
▁sm	-11.665
▁relations	-11.6651
▁struck	-11.6651
▁bbbbbbbbbbbbb	-11.6652
▁becoming	-11.6655
▁singles	-11.6661
▁poet	-11.6664
tjtjtjtjɹɹɹɪɪɪɪ	-11.6664
mmməəəəəəəə	-11.6664
ejejejejejvvvvvv	-11.6666
▁ththth	-11.6667
ɐɐɐɐɐɐmmmm	-11.667
▁spin	-11.6672
əəəəəwwwwwwwwwww	-11.6673
pppppppllllll	-11.6674
owowowowowdddddd	-11.6676
ðððððððəəəəə	-11.6677
▁spar	-11.6678
tjtjtjtjtjɪɪɪdd	-11.6678
vvvvvɚɚɚɚɚɚɚɚɚɚ	-11.6678
ʃʃʃʃʃʃʃʃəəənnnn	-11.6679
bbbbbbbɚɚɚɚɚɚɚɚ	-11.6679
▁facility	-11.668
▁pioneer	-11.668
▁repair	-11.668
ɹɹɹəəəəəmmmmm	-11.6682
nnnnnnnnddɚɚɚɚɚ	-11.6683
ɑɑɑnnn	-11.6683
▁ɪɪɪɪɪɪɪɪnnn	-11.6683
▁anne	-11.6684
ɪɪɪɪkkkkkkkkkkkk	-11.6685
tʃtʃtʃtʃtʃɪɪɪɪɪɪ	-11.6685
ɒɒɒɒɒɫɫɫɫɫ	-11.6688
nnnnnnɑɑɑɑɑɑ	-11.669
lllllllllləəəəə	-11.669
▁bass	-11.6695
tttttttəəəəəəəə	-11.6696
ssssssssəəəəəəəə	-11.6697
hhhhhhhhajajaj	-11.6698
nnnnthththththth	-11.6699
lia	-11.6699
ssssssssajajajaj	-11.6699
▁butter	-11.6699
▁glo	-11.67
lf	-11.67
▁lose	-11.6702
ddɛɛɛɛɛɛɛɛɛɛɛ	-11.6704
ɪɪɪɪɪvvvvvvvvv	-11.6704
▁criminal	-11.6708
▁opposite	-11.6708
ɛɛɛɛɛɛpppppppp	-11.6708
ɟɟɟɟɟɟɟɟɟɟɹɹɹɹ	-11.6709
pppppssssssss	-11.6712
ɑɑɑɑɑɑɑɑɑɑɑnnnn	-11.6714
ɪɪɪɾɾɾəəəɫɫɫ	-11.6716
djdjdjɪɪɪɪɪɪdd	-11.6717
ɹɹɹɹɹɹɹɹɹɹɹiii	-11.6717
ɾ̃ɾ̃ɾ̃ɾ̃	-11.6718
▁finds	-11.6718
ɹɹɹɹɹɹɹɹawawawaw	-11.6719
▁rooms	-11.672
▁exercise	-11.6722
▁desert	-11.6722
▁cloud	-11.6723
pjpjpjɪɪɪɪɪɪ	-11.6724
cccccccɪɪɪɪɪ	-11.6724
pppppppttttt	-11.6725
vvvvvvəəəəəəə	-11.6727
bbbbɹɹɹ	-11.6728
bility	-11.6731
ɪɪɪɪvjvjvjvjvjvj	-11.6734
ææææææættttt	-11.6734
əəəəəmjmjmjmjmj	-11.6735
kkkkttttt	-11.6736
▁jjjjjjjjjjjjj	-11.6737
▁wilson	-11.6737
▁ordered	-11.6739
ʔʔʔʔɪɪɪɪɪɪ	-11.674
▁steam	-11.6743
ха	-11.6743
sssttttt	-11.6744
ɪɪɪɪkkk	-11.6745
nnnnajajajajajaj	-11.6746
əəəəlll	-11.6747
ɪɪɪɪkkkkkkkkəəəə	-11.6748
bbbbbbɐɐɐɐʔʔʔ	-11.675
▁phil	-11.6751
hhhhhhhhhɝɝɝɝɝɝɝ	-11.6752
▁ultimately	-11.6752
llllllllləəə	-11.6753
ɛɛɛɛɛɛɛɛpppppppp	-11.6754
▁fre	-11.6755
▁scott	-11.6757
ɪɪɪɪɪɪɪɪɪttttttt	-11.6761
▁log	-11.6762
▁mil	-11.6765
▁inspired	-11.6765
▁opposition	-11.6765
khkhkhəəəənnnnn	-11.6766
rj	-11.6768
ɫɫɫɫddd	-11.6771
▁luc	-11.6771
phphphphiiiiiii	-11.6771
ɛɛɛɛɛɛvvvvvvvv	-11.6773
bbbbbɹɹɹɹɹɹɹ	-11.6775
ɪɪɪɹɹɹɹɹɹɹɹɹɹɹɹɹ	-11.6776
hhhhhhhɛɛɛɛ	-11.6776
əəənnnnnssssssss	-11.6777
ɲɲɲejejej	-11.6778
ddzzzz	-11.6778
ææææææææææʔʔʔʔʔʔ	-11.6781
▁hop	-11.6783
ddæææææææææææ	-11.6785
nnnnnnnnddɚɚɚɚɚɚ	-11.6787
▁без	-11.679
▁web	-11.6791
ʊʊʊʊʊʊʊʊkkkkkkk	-11.6792
▁afraid	-11.6794
▁christmas	-11.6794
▁lincoln	-11.6794
llllllɑɑɑɑɑɑɑɑ	-11.6794
ðððəəəəəə	-11.6795
mate	-11.6797
▁zzzzzzzzzzzzzzz	-11.68
əəəəɲɲɲɲɲɲɲɲ	-11.6801
d̪d̪d̪əəəəkhkhkh	-11.6802
▁churches	-11.6802
ɡɡɡɡɡɡəəəəə	-11.6803
əəəllllllllll	-11.6804
ɒɒɒɒɒɒɒɒɒnnnn	-11.6807
ɑɑɑɑɑɑɑɑɑɑɑʔʔʔ	-11.6808
nnnnnnnwwwww	-11.6811
thththʉʉʉʉʉʉ	-11.6812
cular	-11.6813
ddajajajaj	-11.6814
kkkkkkkktttt	-11.6814
hhhææædd	-11.6816
ffffffffɛɛɛɛɛɛɛ	-11.6816
ɟɟɟɟɟɹɹɹɹɹɹɹɹ	-11.6817
▁pink	-11.6819
ʊʊʊʊʊʊʊʊʊʊʊʊʊɹɹɹ	-11.6819
ddddɪɪɪɪɪɪɪɪɪɪ	-11.682
nnnnnnnnnmmm	-11.6821
əəəlllɚɚɚ	-11.6821
ɪɪɪɪɪɡɡɡɡɡɡɡɡ	-11.6824
▁questions	-11.6825
▁lar	-11.6826
vvvvvvd̪d̪d̪d̪d̪	-11.6827
▁affairs	-11.6829
illa	-11.6834
əəəəəəəəəəəəɫɫɫ	-11.6835
cccccccccɹɹɹ	-11.6836
▁enemy	-11.6837
▁scheme	-11.6837
hhhhhhhhhhɛɛɛɛ	-11.6841
owowowɫɫɫ	-11.6844
əəəəəbbbbbbbbbbb	-11.6845
wwwwwɚɚɚɚɚɚ	-11.6845
ffffffttt	-11.685
▁slave	-11.6852
əəəʎʎʎiiiii	-11.6852
ɹɹɹɹɹɹɹttt	-11.6853
▁ну	-11.6854
▁reduced	-11.6856
▁victoria	-11.6856
кі	-11.6857
jjjʊʊʊʊ	-11.6861
ɲɲɲɲɲɲɲɲɲɟwɪɪɪɪɪ	-11.6862
ɒɒɒɒɒɒɫɫɫɫɫɫɫɫɫ	-11.6863
bbbbbbbejejejej	-11.6863
ppppppppttt	-11.6865
▁gen	-11.6869
▁əəəəəəəəəəəə	-11.687
mmmppppp	-11.687
chchchchæææææ	-11.6873
▁хо	-11.6873
ously	-11.6874
ɛɛɛɫɫɫɫɫɫɫɫɫɫ	-11.6874
n̪n̪n̪n̪əəə	-11.6875
▁hunting	-11.6876
ич	-11.6876
pjpjpjpjɪɪɪ	-11.6877
khkhɑɑɑɑɑɑɑɑɑɑɑ	-11.6878
mmmmmmajajajaj	-11.6878
ɪɪɪɪɡɡɡɡɡɡɡ	-11.6879
cal	-11.6879
▁internet	-11.688
wwwwwəəəəəzzzzzz	-11.6885
ththththowowowow	-11.6885
ɡɡɡɡɡɡɡɑɑɑɑɑɑɑɑɑ	-11.6885
kkkkkkkkkɹɹɹɹɹ	-11.6888
chchchchææææ	-11.6888
log	-11.6888
ɪɪɪɫɫɫɫɫ	-11.6889
vvvvvvvɛɛɛɛɛ	-11.6891
▁hole	-11.6892
▁neck	-11.6892
ʊʊʊʊʊʊkkkkkkk	-11.6892
nnnnnntʃtʃtʃtʃ	-11.6893
▁shock	-11.6896
vvvvvɛɛɛɛɛɛ	-11.6899
tttd̪d̪d̪əəə	-11.69
ɾɾɾɾɾɚɚɚɚɚɚɚɚɚɚ	-11.6901
ɪɪɪɪɪɪɪɪɪɪɪɪzzzz	-11.6902
nnnnnnnddəəəə	-11.6903
wwwwwwʊʊʊʊʊdd	-11.6903
d̪d̪d̪ɪɪɪɪɪɪɪɪɪ	-11.6903
ɚɚɚɚəəəəəəəəəəəə	-11.6907
ам	-11.6908
ðððððəəəəəə	-11.6909
ɛɛɛɛɛɛɛɛnnnttt	-11.6909
▁definition	-11.6909
əəəɹɹɹəəəəə	-11.6911
▁fuel	-11.6912
ook	-11.6912
sssssssssccccccc	-11.6914
duct	-11.6914
çççççççççççɪɪɪ	-11.6916
▁regularly	-11.6918
bbbbææææææææ	-11.6921
ssssssskkkkkkkkʉ	-11.6923
▁beauty	-11.6924
▁troops	-11.6924
▁eggs	-11.6924
ccccccɹɹɹɹ	-11.6926
▁protection	-11.6928
bbbbbbbbllllllll	-11.6929
▁exception	-11.693
ɪɪɪɪzzzz	-11.6931
си	-11.6931
ʃʃʃʃʃʃʃʃəəəənnn	-11.6932
ɪɪɪmmm	-11.6933
vvvəəəɹɹɹ	-11.6935
кр	-11.6935
▁switch	-11.6939
nnnnnajajaj	-11.6944
fffffffftttt	-11.6944
▁expanded	-11.6945
▁moral	-11.6945
jjjəəəə	-11.6946
▁constant	-11.695
ssssssssssssow	-11.695
▁speaker	-11.6951
awawawawʔʔʔʔʔʔ	-11.6952
▁sections	-11.6952
▁characteristic	-11.6954
bil	-11.6954
əəəəpppppppppppp	-11.6955
▁distribution	-11.6956
tjtjtjtjɪɪɪdd	-11.6956
▁hosts	-11.6958
ththththæææææææ	-11.6959
ɡɡɡɡəəəəə	-11.6959
▁formation	-11.696
cket	-11.6963
phphphphææææææ	-11.6964
fffffffttttt	-11.6964
əəəəəɲɲɲɲɲɲ	-11.6964
▁hor	-11.6967
ɫɫɫɫɫdddd	-11.6967
▁supply	-11.6968
▁yourself	-11.6968
▁че	-11.6969
▁prepared	-11.697
ppppppppɛɛɛɛɛɛɛɛ	-11.697
▁lyrics	-11.6971
▁actions	-11.6973
çççɪɪɪzzzzzz	-11.6977
mmmmmmmmɑɑɑɑɑɑɑɑ	-11.6977
ɪɪɪɪɪɪɪɡɡɡɡɡɡ	-11.6979
cccccccʎʎʎʎʎ	-11.6982
wwwwwwɐɐɐɐɐɐɐɐɐɐ	-11.6986
wwwwwwɝɝɝɝɝ	-11.6987
сто	-11.6989
▁streets	-11.699
▁fame	-11.6995
vvvvɚɚɚ	-11.6997
▁clearly	-11.6998
uuuuuuuuuuuuuu	-11.6998
bbbbbbbbɐɐɐɐɐɐɐ	-11.7
▁destroy	-11.7001
▁effort	-11.7002
дь	-11.7002
ɒɒɒɒɫɫɫɫɫɫɫɫɫ	-11.7002
▁fin	-11.7003
phphphphɒɒɒɒɒɒɒɒ	-11.7003
dddwwwwwwwwwww	-11.7005
fffffffffflllll	-11.7008
æææææææææfffffff	-11.7009
ɪɪɪɪɪɪɲɲɲ	-11.701
▁joe	-11.7011
▁ɐɐɐɐɐɐɐɐɐɐɐɐ	-11.7011
lllllɑɑɑɑɑɑɑɑ	-11.7012
▁explanation	-11.7012
bbbbbbbææææææææ	-11.7012
nny	-11.7012
▁individuals	-11.7012
llllllllɐɐɐɐɐɐɐ	-11.7016
ejejsssssssssss	-11.7016
ðððððððɚɚɚɚɚɚ	-11.7017
▁sisters	-11.7018
mmmmmmmpppppp	-11.7023
▁talent	-11.7029
dddɚɚɚɚɚɚɚɚɚ	-11.703
bbbbbbbbbɹɹɹɹɹɹɹ	-11.703
ɪɪɪɪɹɹɹɹɹɹɹɹɹɹɹɹ	-11.7031
▁concert	-11.7031
ɪɪɪɪcccccccc	-11.7032
▁barr	-11.7032
▁rome	-11.7033
ры	-11.7033
▁lan	-11.7034
əəəəkkkkkk	-11.7035
tttɚɚɚɚɚɚɚɚɚɚɚɚɚ	-11.7036
▁tor	-11.7041
ppppppppɛɛɛɛɛɛɛ	-11.7042
ppppppppəəəɹɹɹ	-11.7042
▁platforms	-11.7043
▁nest	-11.7047
d̪d̪d̪d̪æææ	-11.705
▁quiet	-11.7051
mjmjmjiiiiiiiiii	-11.7055
▁wwwwwwwwwwwwww	-11.7055
▁rescue	-11.7056
ɹɹɹəəəəəmmm	-11.7056
ssssssssssccccc	-11.7056
ɡɡɡɡɡɡɡɹɹɹɹɹ	-11.7058
▁depends	-11.7058
▁tim	-11.7058
▁resulted	-11.7059
əəəəəəəəkhkhkhkh	-11.706
ææææææætttttt	-11.7062
ɪɪɪɪɪɪɡɡɡɡɡɡ	-11.7063
ɚɚɚɚɚɚɚɚɚɚɚɚɚdd	-11.7065
bbbbbbbbɚɚɚɚɚɚɚɚ	-11.7069
ssssssssccccccc	-11.7069
tttbbbb	-11.7069
▁interesting	-11.707
▁seats	-11.7072
nnnnnttttsssssss	-11.7075
ɪɪɪɪɪɪɪʔʔʔʔʔʔʔʔʔ	-11.7077
əəəəbjbjbjbjbj	-11.7077
wwwwwwwwwwajajaj	-11.7078
▁racing	-11.7079
wwwwwwwɝɝɝɝɝɝ	-11.708
▁lie	-11.708
hhhhhhhɝɝɝɝɝ	-11.7083
▁russia	-11.7083
▁athletic	-11.7085
▁volunteer	-11.7085
d̪d̪d̪əəəəphphph	-11.7086
ccccccccɹɹɹ	-11.7086
▁forty	-11.7086
nnnnsssss	-11.7087
sjsjsjɪɪɪɪ	-11.7087
ɐɐɐɐɐɐɐɐvvvvvvvv	-11.7088
ththththɪɪɪɪɪɪɪ	-11.7089
▁n̪n̪n̪n̪n̪	-11.7089
bbbbbbbɹɹɹɹɹɹɹ	-11.7089
▁sale	-11.709
nnnndjdjdjdj	-11.7091
jjjʊ	-11.7092
d̪d̪d̪d̪ɚɚɚɚɚɚ	-11.7094
ddddɐɐɐɐɐɐɐɐ	-11.7094
khkhkhəəəənnnnnn	-11.7095
▁objects	-11.7095
ɪɪɪɪɫɫɫɫɫɫ	-11.7096
hhhhhhhhɑɑɑɑɑɑɑɑ	-11.7096
zing	-11.7097
ue	-11.7098
ejejejnnnnnnnnn	-11.7098
ppppɹɹɹɹɹ	-11.7102
hhhæææzzzzzzz	-11.7104
ðððððððɚɚɚ	-11.7104
djdjdjdjɪɪɪɪɪdd	-11.7105
wwwwwɝɝɝɝɝɝɝɝɝɝ	-11.7106
ejejejejbbbbbbbb	-11.7106
ffffffffɒɒɒɒɹɹɹɹ	-11.7107
ʒʒʒʒʒʒʒʒʒʒʒəəə	-11.7109
əəəəəəədddddddd	-11.7109
▁yard	-11.711
▁injured	-11.7115
▁monument	-11.7115
▁adventure	-11.7115
ddddwwwwwwww	-11.7117
ajajajmmmmmmmmmm	-11.7119
jjjjee	-11.7122
æææɫɫɫɫɫɫɫɫ	-11.7126
▁reflect	-11.7127
sta	-11.7129
▁wil	-11.7129
əəəəvvvd̪d̪d̪d̪	-11.713
▁tourism	-11.7131
ɐɐɐɐɐɐmmmmmmmmmm	-11.7132
▁script	-11.7135
ʒʒʒʒʒʒʒʒʒʒʒʒʒʒʒ	-11.7136
phphɑɑɑɹɹɹɹɹɹɹɹ	-11.7137
tjtjtjɹɹɹɹiiiii	-11.7138
ска	-11.7138
ððððððððɚɚɚɚɚɚɚ	-11.7139
ɑɑɑɑɑɑnnnnn	-11.7139
ɟɟɟɟɟɟɟɟɪɪɪɪɪɪ	-11.714
▁ц	-11.7146
▁twin	-11.7148
▁adapted	-11.7148
ɪɪɪɪɪɪɪɡɡɡɡɡɡɡ	-11.715
ejejejejejkkkkkk	-11.7151
▁claims	-11.7157
vvvvvvɛɛɛɛɛɛ	-11.7158
ŋŋŋŋŋŋŋŋkkkkk	-11.7159
▁heaven	-11.7159
ust	-11.7165
nnnnnɑɑɑɑɑɑ	-11.7166
ɪɪɪɪʎʎʎʎʎʎʎ	-11.7167
▁convention	-11.7167
ɪɪɪɫɫɫɫɫɫɫɫddd	-11.7167
æææææææækkkkk	-11.717
tttɚɚɚɚɚ	-11.7173
ɪɪɪɪɪɪɪɪɲɲɲɲ	-11.7176
nnnnzzzzz	-11.7178
thththʊʊʊbjbjbj	-11.718
▁painted	-11.7181
▁vol	-11.7181
▁exists	-11.7182
ææææætttt	-11.7185
ɪɪɪɲɲɲɲɲɲɲɲ	-11.7188
ɒɒɒɒɒɫɫɫɫ	-11.7189
дов	-11.7189
▁someone	-11.7192
nnnnnnnnwwwwwww	-11.7192
▁coin	-11.7194
əəəəəɡɡɡɡɡɡɡ	-11.7194
vjvjvjvjiii	-11.7195
ttttttttttɚɚɚɚ	-11.7197
ɒɒɒɒɒɒnnnnnn	-11.7199
lllllllllɛɛɛɛɛɛ	-11.72
hhhæææzzzzzzzz	-11.72
▁creature	-11.7204
▁anyone	-11.7206
ɑɑɑɑɑɑɑkkkkkkkkk	-11.7206
▁borough	-11.7206
▁cancer	-11.7207
ɡɡɡɡɡɡɡɐɐɐɐɐɐɐ	-11.7207
▁commander	-11.7209
əəənnnnssssssss	-11.7209
ке	-11.7211
ɪɪɪtjtjtjiii	-11.7212
bbbbbbbɐɐɐ	-11.7213
wwwwwwwwɒɒɒɒɒɒɒ	-11.7214
ɲɲɲɲɲɲɲɲiiiii	-11.7215
ɪɪɪɪɪɪɡɡɡɡɡɡɡ	-11.7217
▁tank	-11.7219
▁needs	-11.7222
most	-11.7224
ææætttttt	-11.723
▁illinois	-11.7234
▁orchestra	-11.7234
со	-11.7236
лся	-11.7237
bbbbɛɛɛɛɛɛɛɛ	-11.7237
tttttejejejejej	-11.7238
ɪɪɪɪɪllllllll	-11.7239
æææææættt	-11.7249
▁jim	-11.7249
vvvvvvəəəɹɹɹ	-11.7249
▁combat	-11.7249
▁suggest	-11.7249
▁bro	-11.725
▁considerable	-11.7251
əəəvvvd̪d̪d̪d̪	-11.7252
▁bull	-11.7253
rge	-11.7253
cccccccccccʎʎʎʎʎ	-11.7254
ccccccccccɹɹɹ	-11.7255
awawawawawtttttt	-11.7255
хо	-11.7256
ffffffffffɹɹɹɹɹɹ	-11.7259
▁organizations	-11.726
ɲɲɲɲɲɲɲʎʎʎʎʎiiii	-11.726
wwwwɝɝɝɝɝɝɝɝ	-11.7261
æææææætttt	-11.7264
▁faith	-11.7266
яз	-11.7266
ssttttttejejejej	-11.727
▁knock	-11.7272
tttttttttɚɚɚɚɚɚ	-11.7275
nnnd̪d̪d̪əəəəə	-11.7275
ɡɡɡɡɡɡɡɐɐɐɐɐɐɐɐ	-11.7275
ajajajajtttttt	-11.7278
▁люд	-11.7278
nnnnnnddəəəə	-11.7279
▁также	-11.728
əəəəəəllll	-11.7282
kkkkkkkəəəɫɫɫ	-11.7282
ɑɑɑɑɑppppppppp	-11.7283
d̪d̪d̪d̪ɛɛɛɹɹɹ	-11.7287
ʊ	-11.7287
rid	-11.7288
ejejtjtjtjtjtjtj	-11.7291
æææʔʔʔʔʔʔʔʔ	-11.7294
▁courses	-11.7296
ɹɹɹəəəmmmmmm	-11.7296
▁shoulder	-11.7297
ɛɛɛɛɛɛnnnttt	-11.73
ил	-11.73
▁organized	-11.7301
▁pictures	-11.7304
▁guy	-11.7305
▁sentence	-11.7305
ʊʊʊʊɹɹɹ	-11.7306
▁grace	-11.7307
▁smile	-11.7309
▁impossible	-11.731
▁domestic	-11.731
chel	-11.731
▁poly	-11.7312
мер	-11.7312
khkhkhəəənnnnnnn	-11.7313
▁proceed	-11.7314
▁agree	-11.7315
kkkttttt	-11.7318
од	-11.732
ɪɪɪzzzzzzzzzzzzz	-11.7321
nnnndʒdʒdʒdʒdʒ	-11.7321
jjjjjjjjɪɪɪɪɪɪɪ	-11.7322
ции	-11.7322
phphphphɐɐɐɐɐɐɐɐ	-11.7323
▁novels	-11.7324
▁важ	-11.7324
wwwwwɝɝɝɝɝɝɝɝɝɝɝ	-11.7324
▁serving	-11.7325
▁pure	-11.7329
ɐɐɐɐɐmmmm	-11.733
ʋʋʋʋʋʋʋʋʋʋʋ	-11.733
wwwwwwɑɑɑɑɑɑɑɑ	-11.7331
▁haven	-11.7331
▁winner	-11.7332
ɐɐɐɐɐbbbbbbb	-11.7333
vvvvvvɛɛɛɛɛ	-11.7335
nnnnɑɑɑɑɑɑɑ	-11.7337
▁hence	-11.7339
▁shadow	-11.734
▁blu	-11.734
ɪɪɪɪɪpppppppp	-11.734
▁entertainment	-11.734
dʒdʒdʒdʒɛɛɛɛɛɛ	-11.7342
finite	-11.7342
iiiiiiiiiizzzzzz	-11.7344
кий	-11.7346
ɑɑɑɑɑpppppppp	-11.7347
bbbbɚɚɚɚɚɚɚɚɚ	-11.7347
ɹɹɹɹɹɹɛɛɛ	-11.7349
ɡɡɡɡɡɡɡɡɐɐɐɐɐɐɐɐ	-11.7349
▁hay	-11.7355
ɹɹɹɹɹɑɑɑɑɑɑɑ	-11.7357
wwwɑɑɑɑɑɑ	-11.736
▁shoot	-11.7361
▁applications	-11.7363
nnnnnnnwwww	-11.7363
ffffffffffflllll	-11.7364
phphphphphɚɚɚ	-11.7367
▁limit	-11.7367
over	-11.7368
wwwwwɝɝɝ	-11.737
▁landscape	-11.737
▁visible	-11.737
nnnnnnntʃtʃtʃtʃ	-11.7374
wwwwwwwʊʊʊʊʊdd	-11.7378
ɐɐɐɐɐɐɐzzzzzzzzz	-11.7379
fffffffffɛɛɛɛɛɛɛ	-11.7383
▁ticket	-11.7385
▁heritage	-11.7386
▁descent	-11.7386
mmmmmmmɛɛɛ	-11.7389
ɡɡɡɡɡɡɡɛɛɛɛɛɛɛ	-11.7389
▁performances	-11.7392
ttttttɹɹɹəəə	-11.7393
fjfjfjɪɪɪɪɪɪɪɪɪɪ	-11.7393
wwwwwwɚɚɚɚɚɚɚ	-11.7396
▁companion	-11.7401
▁solid	-11.7401
▁cho	-11.7402
mmmmowowow	-11.7403
▁theater	-11.7404
нов	-11.7406
wwwwwwwwwwɛɛɛɛɛɛ	-11.7406
ɪɪɪɪɪɪɪɪdddddd	-11.7407
▁application	-11.7408
▁desire	-11.7409
▁brick	-11.7409
▁z̪z̪z̪z̪z̪z̪	-11.7411
ŋŋŋŋŋŋŋŋzzzzzzzz	-11.7413
iiiiiiiippppppp	-11.7414
▁cle	-11.7415
hhhhhhhowowow	-11.7415
▁meanwhile	-11.7416
▁michigan	-11.7416
bbbbbbbəəəəəəəə	-11.7416
▁contributed	-11.7418
▁rh	-11.7422
ɪɪɪʃʃʃʃʃʃʃʃʃʃʃʃʃ	-11.7423
▁apart	-11.7424
ɪɪɪnnnnnnnnnnnnn	-11.7425
nnnnəəəəəəəəə	-11.7425
ddɛɛɛɛɛ	-11.7427
ɑɑɑɑɑɑɑʔʔʔʔʔ	-11.7427
▁heads	-11.7429
том	-11.743
phphphphɝɝɝɝɝɝ	-11.7431
əəəəəəəəəəəvvvv	-11.7431
▁silent	-11.7432
bbbbbbbblllll	-11.7432
ttttttttttttɚɚɚ	-11.7433
kkkkkkkkktttttt	-11.7439
▁finding	-11.7439
ɾ̃ɾ̃ɾ̃ɾ̃ɾ̃	-11.7444
ɲɲɲɲɲɪɪɪɪɪɪɪɪɪɪ	-11.7447
phphphɑɑɑɹɹɹɹɹɹɹ	-11.7448
pjpjpjpjɪɪɪɪɪ	-11.7448
chester	-11.745
▁global	-11.7455
jo	-11.7461
▁dinner	-11.7462
ɲɲɲɲɲɲææææææææ	-11.7462
▁defense	-11.7462
▁dutch	-11.7463
▁operate	-11.7465
nnndjdjdjdjɪɪɪɪɪ	-11.7467
nnnnnzzzz	-11.7468
▁camera	-11.7469
ejejejnnn	-11.7469
ɪɪɪɪɪɪɪɪɪɪɪɪʔʔʔʔ	-11.747
əəənnnəəəəəəə	-11.7471
əəəənnnnnndd	-11.7472
bbbbbbowowowowow	-11.7473
ctor	-11.7473
phphphphɚɚɚɚɚ	-11.7476
ðððɚɚɚ	-11.7476
▁d̪d̪d̪d̪əəəəəəə	-11.7476
▁analysis	-11.7477
▁cambridge	-11.7477
wwwwwwɚɚɚ	-11.7479
djdjdjɪɪɪɪɪɪɪɪɪɪ	-11.7487
lllowowowow	-11.7489
zzzzzzd̪d̪d̪d̪	-11.7491
wwwwəəəzzzzzz	-11.7492
əəəəəəpppppppp	-11.7492
▁thereafter	-11.7493
ʔʔʔəəəəə	-11.7494
mjmjmjʉʉʉʉʉʉʉʉʉʉ	-11.7495
phphphɔjɔjɔjɔjɔj	-11.7496
llllɛɛɛɛɛ	-11.7503
vvvvvɚɚɚɚɚɚɚɚɚɚɚ	-11.7507
nnnnnnnddɚɚɚɚɚɚ	-11.7507
▁ought	-11.7508
wwwwwwɒɒɒɒɒɒɒɒ	-11.7511
▁promoted	-11.7512
ʔʔʔɪɪɪ	-11.7514
▁sites	-11.7515
▁wounded	-11.7515
lie	-11.7515
əəəəəəəlllllllll	-11.7516
▁conducted	-11.7521
ajajajdjdjdjdjdj	-11.7521
zzzzzzffffffff	-11.7522
ffffffffɹɹɹəəəəə	-11.7522
▁ram	-11.7523
▁circuit	-11.7524
ɛɛɛɛɫɫɫɫɫɫɫɫɫɫɫ	-11.7526
dʒdʒdʒdʒdʒəəəəə	-11.753
nnnnnnnddɚɚɚɚɚ	-11.7531
ɟɟɟɟɟɟɟɟɟɟejejej	-11.7534
nnnnnddɚɚɚɚɚɚɚɚ	-11.7536
wwwwwwəəəəzzzzzz	-11.7536
ɛɛɛɫɫɫ	-11.7536
nnnnnnddɚɚɚɚɚɚɚ	-11.7539
▁работ	-11.7539
▁occupied	-11.754
▁exhibition	-11.754
wwwwwwɑɑɑ	-11.7543
tttd̪d̪d̪	-11.7544
▁consisted	-11.7548
▁ɪɪɪɪɪɪɪɪɪnnnnn	-11.7548
verse	-11.7549
sssssssswwwww	-11.7549
ɹɹɹɹɹɐɐɐɐ	-11.7549
▁unlike	-11.7551
[...]
