<unk>	0
<s>	0
</s>	0
dd	-4.81465
əəəə	-4.90172
əəəəə	-4.97619
əəə	-5.09702
•••	-5.15705
əəəəəə	-5.16324
zzzzzzzz	-5.28694
ɪɪɪɪɪɪɪɪ	-5.30479
mmmmmmmm	-5.33251
ɪɪɪɪɪɪɪ	-5.33625
əəəəəəə	-5.3512
sssssssssss	-5.35569
ɪɪɪɪ	-5.3679
ssssssssssss	-5.38635
ssssssssss	-5.39516
nnnnnnn	-5.41607
ɪɪɪɪɪɪ	-5.42963
mmmmmmm	-5.44171
ɪɪɪɪɪ	-5.44475
nnnnnnnn	-5.44523
nnnnnn	-5.48696
ɪɪɪ	-5.48917
əəəəəəəə	-5.52543
sssssssssssss	-5.53375
sssssssss	-5.54364
nnnnn	-5.5467
zzzzzzz	-5.56074
ɹɹɹɹɹ	-5.56236
ssssssss	-5.56603
ɛɛɛɛɛɛɛɛ	-5.56693
ɹɹɹɹ	-5.58824
ɹɹɹɹɹɹ	-5.6483
ttt	-5.65316
ɛɛɛɛɛɛɛ	-5.67371
mmmmmm	-5.69922
ssssssssssssss	-5.70667
ɹɹɹɹɹɹɹ	-5.74879
ɹɹɹɹɹɹɹɹ	-5.75316
nnnn	-5.75385
tttttttt	-5.76041
ɹɹɹ	-5.81765
zzzzzzzzz	-5.82376
ɛɛɛɛɛɛ	-5.90682
tttt	-5.92053
ttttt	-5.92524
kkkkkkkk	-5.93771
sssssssssssssss	-5.95976
ddd	-5.97007
ɐɐɐɐɐɐɐɐ	-5.98067
ɪɪɪɪɪɪɪɪɪ	-5.98256
mmmmm	-6.01022
ɐɐɐɐɐɐɐ	-6.02083
ttttttt	-6.02427
zzzzzzzzzz	-6.03265
nnnnnnnnn	-6.04459
ɛɛɛɛɛ	-6.05767
ææææææææ	-6.06147
llllllll	-6.06482
zzzzzz	-6.08923
bbbbbbbb	-6.10536
lllllll	-6.12485
tttttt	-6.1309
ɐɐɐɐɐɐ	-6.13204
nnn	-6.13229
mmmm	-6.13753
mmmmmmmmm	-6.14228
kkkkkkk	-6.14255
••••	-6.15786
ejejejejejejejej	-6.16065
sssssss	-6.16626
bbbbb	-6.17942
ejejejejejejejejejej	-6.185
ejejejejejejejejej	-6.18862
dddd	-6.20759
••••••••	-6.23375
ɹɹɹɹɹɹɹɹɹ	-6.24054
ɐɐɐɐɐ	-6.26641
nnnnnnnnnn	-6.26755
ssssssssssssssss	-6.26938
llllll	-6.27002
vvvvvvv	-6.27585
ejejejejejejejejejejej	-6.28094
ɪɪɪɪɪɪɪɪɪɪ	-6.28863
ɚɚɚɚɚɚɚɚ	-6.29487
zzzzzzzzzzz	-6.30074
pppppppp	-6.30194
wwwwwwww	-6.30422
ɑɑɑɑɑɑɑɑ	-6.30429
bbbbbbb	-6.31521
vvvvvvvv	-6.31694
iːiːiːiːiːiːiːiː	-6.31704
owowowowowowowow	-6.31863
•••••	-6.31979
ɛɛɛɛɛɛɛɛɛ	-6.32689
æææææææææ	-6.33551
d̪d̪d̪d̪d̪d̪	-6.33833
lllll	-6.35517
ææææææææææ	-6.36619
ddddd	-6.36751
d̪d̪d̪d̪d̪	-6.37291
ffffffff	-6.38096
ɚɚɚ	-6.38366
vvvvv	-6.3854
•••••••	-6.39103
vvvvvv	-6.39162
wwwwwww	-6.39667
ɛɛɛɛ	-6.39879
fffffffffff	-6.39961
d̪d̪d̪d̪d̪d̪d̪	-6.40265
ttttttttt	-6.41241
æææææææ	-6.41904
ɚɚɚɚɚɚɚ	-6.42166
ffffffffff	-6.42368
ɹɹɹɹɹɹɹɹɹɹ	-6.42844
ejejejejejejejejejejejej	-6.43392
kkkkkkkkk	-6.44127
bbbbbb	-6.44315
••••••	-6.45685
llll	-6.47594
zzzzzzzzzzzz	-6.48419
ffffffffffff	-6.48694
mmm	-6.49174
mmmmmmmmmm	-6.49229
zzzzz	-6.49459
wwwwww	-6.49594
æææææææææææ	-6.49771
dʒdʒdʒdʒdʒdʒdʒdʒ	-6.50729
əəəəəəəəə	-6.51342
ɐɐɐɐ	-6.51719
ejejejejejejej	-6.51739
d̪d̪d̪d̪	-6.54432
iiiiiiii	-6.55468
tttttttttt	-6.55553
nnnnnnnnnnn	-6.5586
ajajajajajajajaj	-6.56635
ɑɑɑɑɑɑɑ	-6.56875
fffffffff	-6.56996
kkkkkk	-6.5744
dddddddd	-6.57655
iiiii	-6.57682
ɛɛɛɛɛɛɛɛɛɛ	-6.58139
ɛɛɛ	-6.58215
ɲɲɲɲɲɲɲ	-6.5898
sssssssssssssssss	-6.59365
ɹɹɹɹɹɹɹɹɹɹɹ	-6.59439
vvvv	-6.60628
wwwww	-6.60899
ajajajajajajajajajajaj	-6.61575
ejejejejejejejejejejejejej	-6.61774
iiiiiii	-6.6194
ɫɫɫɫɫɫɫɫ	-6.61994
kkkkkkkkkk	-6.62144
bbbb	-6.62295
ɚɚɚɚɚ	-6.62357
ɚɚɚɚɚɚ	-6.63361
ppppppp	-6.63463
ææææææææææææ	-6.6348
phphphphphphphph	-6.63634
ɑɑɑɑɑɑɑɑɑ	-6.65034
ajajajajajajajajajajajaj	-6.6511
ɪɪɪɪɪɪɪɪɪɪɪ	-6.65581
iːiːiːiːiːiːiː	-6.65609
thththththththth	-6.66719
ajajajajajajajajajaj	-6.66812
dddddd	-6.67014
d̪d̪d̪d̪əəəə	-6.67765
ddddddd	-6.68596
ɚɚɚɚ	-6.686
owowowowowowow	-6.68634
iiii	-6.69548
iiiiii	-6.69628
fffffffffffff	-6.7007
ɲɲɲɲɲɲɲɲ	-6.70196
owowowowowowowowow	-6.71526
ʉːʉːʉːʉːʉːʉːʉːʉː	-6.71849
ththththththththth	-6.72034
iii	-6.72078
thththththththththth	-6.72764
ɡɡɡɡɡɡɡ	-6.73339
ajajajajajajajajajajajajaj	-6.73698
zzzzzzzzzzzzz	-6.74089
ɐɐɐ	-6.74365
d̪d̪d̪d̪d̪əəəə	-6.7479
ajajajajajajajajaj	-6.75145
iːiːiːiːiːiːiːiːiː	-6.7534
ɑɑɑɑɑɑɑɑɑɑ	-6.77233
ɡɡɡɡɡɡɡɡ	-6.78125
owowowowowowowowowow	-6.7844
ɐɐɐɐɐɐɐɐɐ	-6.78801
lll	-6.79092
ɑɑɑɑɑɑ	-6.79897
ttttttttttt	-6.80686
d̪d̪d̪d̪d̪d̪d̪d̪	-6.80771
ɹɹɹɹɹɹɹɹɹɹɹɹ	-6.81221
ææææææ	-6.81223
ɚɚɚɚɚɚɚɚɚ	-6.81471
mmmmmmmmmmm	-6.81891
d̪d̪d̪d̪əəə	-6.82555
kkkkk	-6.82803
ɫɫɫɫɫɫɫ	-6.83054
wwwwwwwww	-6.83078
əəəəəəəəəə	-6.83344
ejejejejejejejejejejejejejej	-6.83367
nnnnnnnnnnnn	-6.83629
ajajajajajajajajajajajajajaj	-6.83756
ththththththththththth	-6.84132
ppppppppp	-6.84455
lllllllll	-6.8447
æææææææææææææ	-6.8524
pppppp	-6.85937
æææ	-6.86116
iiiiiiiii	-6.87072
ɲɲɲɲɲɲ	-6.87286
ɫɫɫɫɫɫɫɫɫ	-6.87515
bbbbbbbbb	-6.87668
hhhhhhhh	-6.88596
iːiːiːiːiːiːiːiːiːiː	-6.88979
owowowowowowowowowowow	-6.89989
ssssss	-6.90297
ɑɑɑɑɑɑɑɑɑɑɑ	-6.90413
ɫɫɫ	-6.90426
ʃʃʃʃʃʃʃʃʃʃʃ	-6.90645
ɛɛɛɛɛɛɛɛɛɛɛ	-6.90849
ssssssssssssssssss	-6.91341
ʃʃʃʃʃʃʃʃʃʃʃʃ	-6.91401
wwww	-6.9215
ʃʃʃʃʃʃʃʃʃʃʃʃʃ	-6.92163
kkkkkkkkkkk	-6.92265
d̪d̪d̪d̪d̪əəə	-6.929
nnnnnnnndd	-6.93226
ɑɑɑɑɑ	-6.94363
ɲɲɲɲɲ	-6.94572
zzzzzzzzzzzzzz	-6.95165
•••••••••	-6.95286
ɫɫɫɫɫɫ	-6.95475
iːiːiːiːiːiː	-6.95594
dʒdʒdʒdʒdʒdʒdʒ	-6.95968
ɚɚɚɚɚɚɚɚɚɚ	-6.96084
wwwwwwwwww	-6.96155
www	-6.96241
ɝɝɝɝɝɝɝɝ	-6.96432
fffffff	-6.96872
ffffffffffffff	-6.97941
zzzzzzzzzzzzzzz	-6.98149
ɡɡɡɡɡɡ	-6.98579
ajajajajajajajajajajajajajajaj	-6.98596
ææææææææææææææ	-6.99452
iiiiiiiiii	-7.0034
ɫɫɫɫɫ	-7.01295
ɫɫɫɫɫɫɫɫɫɫ	-7.01369
ɪɪɪɪɪɪɪɪɪɪɪɪ	-7.02875
phphphphphphphphph	-7.0306
tttttttttttt	-7.03186
ʃʃʃʃʃʃʃʃʃʃʃʃʃʃ	-7.03374
ʃʃʃʃʃʃʃʃʃʃ	-7.03514
ææææ	-7.04165
ɲɲɲɲ	-7.04247
ʉːʉːʉːʉːʉːʉːʉː	-7.04456
æææææ	-7.05581
ejejejejejejejejejejejejejejej	-7.05591
phphphphphphphphphph	-7.05771
ppppp	-7.06117
thththththththththththth	-7.06121
owowowowowowowowowowowow	-7.06871
••••••••••	-7.07161
owowowowowow	-7.07642
iːiːiːiːiːiːiːiːiːiːiː	-7.07796
ɫɫɫɫ	-7.07841
ɹɹɹɹɹɹɹɹɹɹɹɹɹ	-7.08218
d̪d̪d̪d̪d̪d̪əəəə	-7.09518
zzzz	-7.09711
ɑɑɑɑɑɑɑɑɑɑɑɑ	-7.1039
phphphphphphph	-7.11799
ʊʊʊʊʊ	-7.12364
ɐɐɐɐɐɐɐɐɐɐ	-7.12751
ɚɚɚɚɚɚɚɚɚɚɚ	-7.13153
vvv	-7.13779
nnnnnnnnnnnnn	-7.14178
tjtjtjtjtjtjtjtj	-7.14208
zzzzzzzzzzzzzzzz	-7.14411
iiiiiiiiiii	-7.14443
ajajajajajajajajajajajajajajajaj	-7.14834
d̪d̪d̪d̪əəəəə	-7.15188
pppppppppp	-7.15359
mmmmmmmmmmmm	-7.16027
sssss	-7.16554
ɑɑɑ	-7.16744
ejejejejejej	-7.17021
nnnnnnndd	-7.17155
ʊʊʊʊ	-7.17496
llllllllll	-7.17542
dʒdʒdʒdʒdʒdʒdʒdʒdʒ	-7.17629
kkkkkkkkkkkk	-7.18644
•••••••••••	-7.18912
θθθθθθθθ	-7.1893
owowow	-7.18947
æææææææææææææææ	-7.20201
əəəəəəəəəəə	-7.20333
ɑɑɑɑ	-7.20403
ɛɛɛɛɛɛɛɛɛɛɛɛ	-7.20665
kkkk	-7.20916
wwwwwwwwwww	-7.2124
ɝɝɝɝɝɝɝɝɝ	-7.22439
sss	-7.2244
tʃtʃtʃtʃtʃtʃtʃtʃtʃtʃtʃ	-7.22448
ʃʃʃʃʃʃʃʃʃ	-7.22738
iːiːiːiːiː	-7.22871
ththththththth	-7.23492
phphphphphphphphphphph	-7.23646
əəəɫɫɫ	-7.23885
sssssssssssssssssss	-7.2389
ɫɫɫɫɫɫɫɫɫɫɫ	-7.23988
iːiːiːiːiːiːiːiːiːiːiːiː	-7.24257
ɑɑɑɑɑɑɑɑɑɑɑɑɑ	-7.24464
owowowowowowowowowowowowow	-7.24532
d̪d̪d̪d̪d̪d̪əəə	-7.24741
khkhkhkhkhkhkhkhkhkhkhkh	-7.24788
ɝɝɝɝɝɝɝɝɝɝ	-7.24925
zzzzzzzzzzzzzzzzz	-7.26123
ssss	-7.26307
fffffffffffffff	-7.26323
iiiiiiiiiiii	-7.26609
tʃtʃtʃtʃtʃtʃtʃtʃtʃtʃtʃtʃ	-7.26743
••••••••••••	-7.27086
bbbbbbbbbb	-7.2721
ttttttttttttt	-7.27294
ajajajajajajaj	-7.2749
ɚɚɚɚɚɚɚɚɚɚɚɚ	-7.27821
ʔʔʔʔʔʔʔ	-7.28186
hhhhhhhhh	-7.28306
ʔʔʔʔ	-7.28359
hhhhhhh	-7.2863
tjtjtjtjtjtjtj	-7.28805
owowowowow	-7.28842
cccccccc	-7.28957
ejejejejejejejejejejejejejejejej	-7.29014
d̪d̪d̪d̪d̪əəəəə	-7.29371
ʉːʉːʉːʉːʉːʉːʉːʉːʉː	-7.29435
khkhkhkhkhkhkhkhkhkhkh	-7.29983
••••••••••••••••••••••	-7.30257
ththththththththththththth	-7.30853
tʃtʃtʃtʃtʃtʃtʃtʃtʃtʃ	-7.31172
ʃʃʃʃʃʃʃʃʃʃʃʃʃʃʃ	-7.31539
ajajajajajajajajajajajajajajajajaj	-7.31858
ʔʔʔ	-7.32211
zzz	-7.32646
d̪d̪d̪	-7.3327
ɝɝɝɝɝɝɝɝɝɝɝ	-7.33505
ɲɲɲ	-7.33734
ɪɪɪɪɪɪɪɪɪɪɪɪɪ	-7.33918
hhhhhhhhhh	-7.34286
khkhkhkhkhkhkhkhkh	-7.34553
ʉːʉːʉːʉːʉːʉː	-7.34889
kkk	-7.35714
•••••••••••••	-7.35737
ɫɫɫɫɫɫɫɫɫɫɫɫ	-7.37057
nnnnnnnnnnnnnn	-7.37585
ɹɹɹɹɹɹɹɹɹɹɹɹɹɹ	-7.37874
•••••••••••••••••••••••	-7.37926
khkhkhkhkhkhkhkh	-7.38168
ʊʊʊ	-7.38178
pppp	-7.3829
khkhkhkhkhkhkhkhkhkh	-7.39139
ʔʔʔʔʔ	-7.39591
ppppppppppp	-7.39686
ʊʊʊʊʊʊ	-7.39901
ʉːʉːʉːʉːʉːʉːʉːʉːʉːʉː	-7.40233
ʔʔʔʔʔʔʔʔ	-7.40387
tʃtʃtʃtʃtʃtʃtʃtʃtʃtʃtʃtʃtʃ	-7.40849
vvvvvvvvv	-7.41154
ʃʃʃʃʃʃʃʃ	-7.41232
zzzzzzzzzzzzzzzzzz	-7.41338
hhhhhhhhhhh	-7.41982
dʒdʒdʒdʒdʒdʒdʒdʒdʒdʒ	-7.42421
owowowow	-7.42588
ɝɝɝɝɝɝɝ	-7.43264
iːiːiːiːiːiːiːiːiːiːiːiːiː	-7.43465
ɡɡɡɡɡ	-7.43526
phphphphphphphphphphphph	-7.43625
ɚɚɚɚɚɚɚɚɚɚɚɚɚ	-7.43645
bbb	-7.44153
d̪d̪d̪əəə	-7.44251
••••••••••••••	-7.44982
iiiiiiiiiiiii	-7.45035
ʊʊʊʊʊʊʊ	-7.45065
owowowowowowowowowowowowowow	-7.45324
iːiːiːiː	-7.45816
khkhkhkhkhkhkhkhkhkhkhkhkh	-7.4592
ddddddddd	-7.46062
d̪d̪d̪əəəə	-7.469
ccccccc	-7.47107
tʃtʃtʃtʃtʃtʃtʃtʃ	-7.47397
ɝɝɝɝɝɝɝɝɝɝɝɝ	-7.47466
ɾɾɾɾɾ	-7.48085
tjtjtjtjtjtjtjtjtj	-7.48251
iːiːiː	-7.49143
ffffff	-7.49196
ŋŋŋŋŋŋŋŋ	-7.49266
wwwwwwwwwwww	-7.49498
ææææææææææææææææ	-7.49518
əəəəəəəəəəəə	-7.4994
ʎʎʎʎʎʎʎ	-7.50117
kkkkkkkkkkkkk	-7.50147
t̪t̪t̪t̪t̪t̪t̪t̪	-7.50223
ɐɐɐɐɐɐɐɐɐɐɐ	-7.50424
ʔʔʔʔʔʔ	-7.50445
ajajajajajajajajajajajajajajajajajaj	-7.50492
tjtjtjtjtjtjtjtjtjtj	-7.5068
•••••••••••••••	-7.50805
tʃtʃtʃtʃtʃtʃtʃtʃtʃ	-7.50966
mmmmmmmmmmmmm	-7.50978
ʉːʉːʉː	-7.51323
khkhkhkhkhkhkh	-7.51591
ʉːʉːʉːʉːʉː	-7.51661
tjtjtjtjtjtjtjtjtjtjtj	-7.52017
tttttttttttttt	-7.52095
ʉːʉːʉːʉːʉːʉːʉːʉːʉːʉːʉː	-7.52364
zzzzzzzzzzzzzzzzzzz	-7.52613
ssssssssssssssssssss	-7.5263
ejejejejejejejejejejejejejejejejej	-7.52634
nnnnnndd	-7.52654
tjtjtjtjtjtj	-7.53126
ʎʎʎʎʎʎʎʎ	-7.53337
jjj	-7.54065
əəənnn	-7.54394
ɛɛɛɛɛɛɛɛɛɛɛɛɛ	-7.54439
thththththth	-7.5452
ʊʊʊʊʊʊʊʊ	-7.54574
ɒɒɒɒɒɒɒɒɒ	-7.55126
ɑɑɑɑɑɑɑɑɑɑɑɑɑɑ	-7.55447
ɾɾɾɾ	-7.55902
ɚɚɚɚɚɚɚɚɚɚɚɚɚɚ	-7.56776
lllllllllll	-7.57086
••••••••••••••••	-7.57275
ɒɒɒɒɒɒɒɒɒɒ	-7.57421
ʉːʉːʉːʉː	-7.58452
ejejejejej	-7.58469
mjmjmjmjmjmjmjmj	-7.58647
ppp	-7.58651
phphphphphphphphphphphphph	-7.6013
hhhhhhhhhhhh	-7.60685
ffffffffffffffff	-7.6088
tʃtʃtʃtʃtʃtʃtʃtʃtʃtʃtʃtʃtʃtʃ	-7.61112
dʒdʒdʒdʒdʒdʒ	-7.612
tjtjtjtjtj	-7.61563
θθθθθθθ	-7.61707
iiiiiiiiiiiiii	-7.61898
nnnnnnnnnnnnnnn	-7.61979
ɫɫɫɫɫɫɫɫɫɫɫɫɫ	-7.62054
iːiːiːiːiːiːiːiːiːiːiːiːiːiː	-7.62275
•••••••••••••••••	-7.62435
ɹɹɹɪɪɪ	-7.62487
d̪d̪d̪d̪d̪d̪əəəəə	-7.6256
ɝɝɝɝɝɝɝɝɝɝɝɝɝ	-7.6322
thththththththththththththth	-7.63368
zzzzzzzzzzzzzzzzzzzzzz	-7.63453
ssssssssssssssssssssss	-7.63683
phphphphphph	-7.63735
ʎʎʎʎʎʎ	-7.63736
ʃʃʃʃʃʃʃʃʃʃʃʃʃʃʃʃ	-7.6445
••••••••••••••••••	-7.65358
sssssssstttttt	-7.65834
chchchchchchchchchch	-7.65992
ɒɒɒɒɒɒɒɒɒɒɒ	-7.66282
owowowowowowowowowowowowowowow	-7.66325
ʉʉʉʉʉʉʉʉ	-7.66339
awawawawawawawawawawawaw	-7.66862
bbbbbbbbbbb	-7.66936
ɹɹɹɹɹɹɹɹɹɹɹɹɹɹɹ	-7.67165
zzzzzzzzzzzzzzzzzzzz	-7.67345
ththththth	-7.6737
ʉːʉːʉːʉːʉːʉːʉːʉːʉːʉːʉːʉː	-7.68072
•••••••••••••••••••	-7.68326
nnnnnnnnndd	-7.68826
ɒɒɒɒɒɒɒɒɒɒɒɒ	-7.68845
ajajajajajajajajajajajajajajajajajajaj	-7.69516
əəənnnnn	-7.69734
dʒdʒdʒdʒdʒdʒdʒdʒdʒdʒdʒ	-7.70168
ejejej	-7.70409
əəənnnn	-7.70475
θθθθθθθθθ	-7.70672
ɪɪɪɪɪɪɪɪɪɪɪɪɪɪ	-7.70892
chchchchchchchchch	-7.71214
••••••••••••••••••••	-7.71323
ʎʎʎʎʎʎʎʎʎʎ	-7.71429
•••••••••••••••••••••	-7.71439
chchchchchchchch	-7.71846
ɚɚɚɚɚɚɚɚɚɚɚɚɚɚɚ	-7.71938
əəəɹɹɹ	-7.72275
chchchchchchchchchchch	-7.72378
əəəəəəəəəəəəə	-7.72662
t̪t̪t̪t̪t̪t̪t̪	-7.73075
ɒɒɒɒɒɒɒɒɒɒɒɒɒ	-7.73277
ejejejejejejejejejejejejejejejejejej	-7.73571
dddddddddd	-7.74267
ɲɲɲɲɲɲɲɲɲ	-7.74669
ʎʎʎʎʎ	-7.75038
d̪d̪d̪d̪d̪d̪d̪əəəə	-7.75179
ððððð	-7.75607
ccccccccc	-7.75912
ɾɾɾɾɾɾ	-7.75936
iiiiiiiiiiiiiii	-7.764
awawawawawawawawawawawawaw	-7.76406
cccccc	-7.76511
ɟɟɟɟɟɟɟɟ	-7.76635
awawawawawawawawawawawawawaw	-7.76749
vvvvvvvvvv	-7.76847
jjjjjjjj	-7.76945
æææææææææææææææææ	-7.77195
khkhkhkhkhkhkhkhkhkhkhkhkhkh	-7.77252
θθθθθθθθθθ	-7.77458
ŋŋŋŋŋŋŋ	-7.77885
ɡɡɡɡɡɡɡɡɡ	-7.77897
ɒɒɒɒɒɒɒɒ	-7.78129
ɪ	-7.7822
pppppppppppp	-7.78533
awawawawawawawawawawaw	-7.78759
ɑɑɑɑɑɑɑɑɑɑɑɑɑɑɑ	-7.78779
ɫɫɫɫɫɫɫɫɫɫɫɫɫɫ	-7.7906
ɟɟɟɟɟɟɟ	-7.79129
n̪n̪n̪n̪n̪n̪n̪	-7.79255
mjmjmjmjmjmjmj	-7.79913
əəəənnnnnnn	-7.80119
d̪d̪d̪d̪d̪d̪d̪d̪d̪	-7.8048
zzzzzzzzzzzzzzzzzzzzzzz	-7.80502
ɝɝɝɝɝɝɝɝɝɝɝɝɝɝ	-7.80726
nnnnndd	-7.80734
••••••••••••••••••••••••	-7.80884
kkkkkkkkkkkkkk	-7.81041
ðððððð	-7.81266
ttttttttttttttt	-7.81439
əəəənnnnnn	-7.81532
chchchchchchchchchchchch	-7.81811
jjjj	-7.81972
nnnnnnnnnnnnnnnn	-7.82465
•••••••••••••••••••••••••	-7.82688
jjjjj	-7.82723
bjbjbjbjbjbjbjbj	-7.83045
tjtjtjtjtjtjtjtjtjtjtjtj	-7.83308
jjjjjjj	-7.83488
zzzzzzzzzzzzzzzzzzzzz	-7.83553
phphphphph	-7.83658
wwwwwwwwwwwww	-7.839
ɚɚɚɚɚɚɚɚɚɚɚɚɚɚɚɚ	-7.83969
sssssssssssssssssssss	-7.83979
fffff	-7.84024
•••••••••••••••••••••••••••••••••••••	-7.84214
djdjdjdjdjdj	-7.84509
awawawawawawawaw	-7.84537
ʎʎʎʎʎʎʎʎʎ	-7.846
iːiːiːiːiːiːiːiːiːiːiːiːiːiːiː	-7.8462
ððððððð	-7.84648
ʉːʉːʉːʉːʉːʉːʉːʉːʉːʉːʉːʉːʉː	-7.84878
owowowowowowowowowowowowowowowow	-7.85108
mmmmmmmmmmmmmm	-7.85248
••••••••••••••••••••••••••	-7.85725
ɒɒɒɒɒɒɒɒɒɒɒɒɒɒ	-7.85927
tʃtʃtʃtʃtʃtʃtʃtʃtʃtʃtʃtʃtʃtʃtʃ	-7.86022
əəəənnnnn	-7.86133
ɐɐɐɐɐɐɐɐɐɐɐɐ	-7.86391
ʉʉʉ	-7.86462
fff	-7.86529
ɝɝɝɝɝɝ	-7.8665
ffff	-7.86708
•••••••••••••••••••••••••••	-7.87096
jjjjjj	-7.87163
ajajajajajajajajajajajajajajajajajajajaj	-7.87394
ajajajajajajajajajajajajajajajajajajajajajaj	-7.87395
ɛɛɛɛɛɛɛɛɛɛɛɛɛɛ	-7.87727
ɒɒɒɒɒɒɒ	-7.881
awawawawawawawawawawawawawawaw	-7.88341
ɟɟɟɟɟɟ	-7.88342
ðððð	-7.88563
phphphphphphphphphphphphphph	-7.89226
awawawawawawawawawaw	-7.89314
••••••••••••••••••••••••••••	-7.89458
ɾɾɾɾɾɾɾ	-7.89647
θθθθθθθθθθθ	-7.89727
hhhhhhhhhhhhh	-7.89946
əəəəəəəəəəəəəə	-7.90188
əəəəənnnnnnn	-7.90222
θθθθθθ	-7.90381
iiiiiiiiiiiiiiii	-7.90692
djdjdjdjdjdjdj	-7.90756
ejejejej	-7.91242
əəənnnnnn	-7.91472
ɟɟɟɟɟ	-7.91527
d̪d̪d̪d̪əəəəəə	-7.91533
cccccccccc	-7.91709
•••••••••••••••••••••••••••••	-7.92188
hhhhhh	-7.93584
ssssssssttttttt	-7.93905
əəəənnnn	-7.93976
ʎʎʎʎʎʎʎʎʎʎʎ	-7.9437
ɾɾɾɾɾɾɾɾ	-7.94536
bjbjbjbjbjbjbj	-7.94676
əəənnnnnnn	-7.94717
ajajajajajaj	-7.95045
d̪d̪d̪əəəəə	-7.95095
bbbbbbbbbbbb	-7.95121
d̪d̪d̪d̪d̪d̪d̪əəə	-7.95296
sssssssssssssssssssssss	-7.95814
vvvvvvvvvvv	-7.95824
•••••••••••••••••••••••••••••••	-7.96022
nnnnnnnnnndd	-7.96174
ɚɚɚɚɚɚɚɚɚɚɚɚɚɚɚɚɚ	-7.96195
ejejejejejejejejejejejejejejejejejejej	-7.96375
fffffffffffffffff	-7.96475
ʉʉʉʉʉʉʉ	-7.96507
djdjdjdjdj	-7.96917
••••••••••••••••••••••••••••••	-7.97346
ʎʎʎʎ	-7.97415
ɾɾɾ	-7.97712
əəəəənnnnnn	-7.9821
djdjdjdjdjdjdjdj	-7.98212
ɒɒɒɒɒɒɒɒɒɒɒɒɒɒɒ	-7.98533
n̪n̪n̪n̪n̪n̪n̪n̪	-7.98845
llllllllllll	-7.98866
thththth	-7.98965
ʃʃʃʃʃʃʃʃʃʃʃʃʃʃʃʃʃ	-7.99385
n̪n̪n̪n̪n̪n̪	-7.99416
awawawawawawawawawawawawawawawaw	-7.99616
mjmjmjmjmjmjmjmjmj	-7.9968
chchchchchchchchchchchchch	-7.99807
••••••••••••••••••••••••••••••••••••••	-7.99812
ɹɹɹɹɹɹɹɹɹɹɹɹɹɹɹɹ	-7.99898
ɫɫɫɫɫɫɫɫɫɫɫɫɫɫɫ	-8.0037
dʒdʒdʒdʒdʒdʒdʒdʒdʒdʒdʒdʒ	-8.0039
ssssssssttttt	-8.00506
tttttttttttttttt	-8.00773
ddddddddddd	-8.00804
ʎʎʎ	-8.00956
d̪d̪d̪d̪d̪əəəəəə	-8.01009
ɝɝɝɝɝɝɝɝɝɝɝɝɝɝɝ	-8.01208
awawawawawawawawaw	-8.01303
əəəəəəəəəəəəəəə	-8.01388
əəəəənnnnnnnn	-8.01441
əəəəɫɫɫ	-8.01527
t̪t̪t̪t̪t̪t̪	-8.02201
ɡɡɡɡ	-8.02288
••••••••••••••••••••••••••••••••	-8.02603
ththththththththththththththth	-8.02814
ʉːʉːʉːʉːʉːʉːʉːʉːʉːʉːʉːʉːʉːʉː	-8.03208
əəəənnnnnnnn	-8.03847
owowowowowowowowowowowowowowowowow	-8.03933
θθθθθ	-8.0411
ðððððððð	-8.04378
ɚɚɚɚɚɚɚɚɚɚɚɚɚɚɚɚɚɚ	-8.04668
əəəəənnnnn	-8.05205
θθθθθθθθθθθθ	-8.05271
əəənnnnnnnn	-8.05877
iːiːiːiːiːiːiːiːiːiːiːiːiːiːiːiː	-8.06035
əəəənnn	-8.06257
dʒdʒdʒdʒdʒ	-8.06568
ajajajajajajajajajajajajajajajajajajajajaj	-8.06665
ɑɑɑɑɑɑɑɑɑɑɑɑɑɑɑɑ	-8.06757
ŋŋŋŋŋŋŋŋŋ	-8.07308
ææææææææææææææææææ	-8.08365
ʔʔʔʔʔʔʔʔʔ	-8.08659
•••••••••••••••••••••••••••••••••	-8.08799
d̪d̪d̪d̪d̪d̪d̪d̪d̪d̪	-8.09262
ɲɲɲɲɲɲɲɲɲɲ	-8.09553
ththth	-8.09605
bjbjbjbjbjbjbjbjbj	-8.09711
bjbjbjbjbj	-8.10066
aaaaaaaa	-8.10125
ɪɪɪɪɪɪɪɪɪɪɪɪɪɪɪ	-8.10547
ɑːɑːɑːɑːɑːɑːɑːɑː	-8.10778
kkkkkkkkkkkkkkk	-8.11074
ɹɹɹəəə	-8.11102
ccccccccccc	-8.11374
jjjjjjjjj	-8.12169
phphphph	-8.1218
••••••••••••••••••••••••••••••••••	-8.12302
ŋŋŋŋŋŋŋŋŋŋ	-8.12321
ththththththththʊʊʊ	-8.13009
n̪n̪n̪n̪n̪	-8.13103
pjpjpjpjpjpjpjpj	-8.13467
ssssssssstttttt	-8.13499
khkhkhkhkhkhkhkhkhkhkhkhkhkhkh	-8.13677
bjbjbjbjbjbj	-8.13693
nnnnnnnnnnnnnnnnn	-8.13749
ɡɡɡɡɡɡɡɡɡɡ	-8.13889
əəəəəənnnnnnn	-8.13948
eeeee	-8.14404
mjmjmjmj	-8.15352
iiiiiiiiiiiiiiiii	-8.15496
əəəəəənnnnnnnn	-8.15814
tʃtʃtʃtʃtʃtʃtʃtʃtʃtʃtʃtʃtʃtʃtʃtʃ	-8.16032
ppppppppɹɹɹɹ	-8.16181
ɡɡɡ	-8.162
ɒɒɒɒɒɒ	-8.16241
ccccc	-8.1625
jjjjjjjjjj	-8.16591
iiiiiiiiiiiiiiiiii	-8.16655
əəəəəəəəəəəəəəəə	-8.16841
awawawawawawawawawawawawawawawawaw	-8.1736
mmmmmmmmmmmmmmm	-8.17539
əəəəənnnn	-8.17859
ɛɛɛɛɛɛɛɛɛɛɛɛɛɛɛ	-8.17979
ŋŋŋŋŋŋ	-8.18283
•••••••••••••••••••••••••••••••••••	-8.18641
d̪d̪d̪d̪d̪d̪d̪əəəəə	-8.18757
ppppppppppppp	-8.18802
ɝɝɝɝɝ	-8.18873
əəəəəəənnnnnnnn	-8.19103
əəəəɫɫɫɫɫɫɫɫ	-8.19222
ɟɟɟɟɟɟɟɟɟ	-8.19223
ejejejejejejejejejejejejejejejejejejejejejej	-8.19328
chchchchchchch	-8.19486
ɫɫɫɫɫɫɫɫɫɫɫɫɫɫɫɫ	-8.19577
tjtjtjtjtjtjtjtjtjtjtjtjtj	-8.19743
əəəɫɫɫɫ	-8.19906
ɚɚɚɚɚɚɚɚɚɚɚɚɚɚɚɚɚɚɚ	-8.20855
ʉːʉːʉːʉːʉːʉːʉːʉːʉːʉːʉːʉːʉːʉːʉː	-8.20867
eeeeeeee	-8.20949
ɐɐɐɐɐɐɐɐɐɐɐɐɐ	-8.2107
ejejejejejejejejejejejejejejejejejejejej	-8.21095
hhhhhhhhhhhhhh	-8.21165
ɝɝɝɝɝɝɝɝɝɝɝɝɝɝɝɝ	-8.215
ɪɪɪɪɪɪɪɪnnnnnnn	-8.216
jjjjjjjjjjj	-8.21624
j	-8.21776
phphphphphphphphphphphphphphph	-8.22373
owowowowowowowowowowowowowowowowowow	-8.22664
wwwwwwwwwwwwww	-8.22727
ɒɒɒɒɒɒɒɒɒɒɒɒɒɒɒɒ	-8.2279
djdjdjdjdjɪɪɪɪ	-8.22938
djdjdj	-8.23138
ʎʎʎʎʎʎʎʎʎʎʎʎ	-8.2332
ajajajajajajajajajajajajajajajajajajajajajajaj	-8.23335
ʉʉʉʉʉʉʉʉʉ	-8.23389
ɛɛɛɹɹɹ	-8.23432
sssssssssstttttt	-8.23625
eeeeeee	-8.23757
djdjdjdj	-8.23942
ɪɪɪɪɪɪɪzzzzzzzz	-8.241
ʔʔʔʔʔʔʔʔʔʔ	-8.24113
ttttttttttttttttt	-8.24226
••••••••••••••••••••••••••••••••••••	-8.24381
ɒːɒːɒːɒːɒːɒːɒːɒː	-8.24603
ððð	-8.24657
ɹɹɹɹɹɹɹɹɹɹɹɹɹɹɹɹɹ	-8.24693
mjmjmjmjmjmj	-8.24883
eeeeee	-8.24936
iːiːiːiːiːiːiːiːiːiːiːiːiːiːiːiːiː	-8.2515
fjfjfjfjfjfjfjfjfjfjfjfj	-8.25263
vvvvvvvvvvvv	-8.25299
hhh	-8.25387
θθθθθθθθθθθθθ	-8.25422
eeee	-8.25461
n̪n̪n̪n̪	-8.25829
ɪɪɪɪɪɪɪɪnnnnnnnn	-8.25922
əəəəvvvvv	-8.26399
ssssssstttttt	-8.26623
dʒdʒdʒdʒdʒdʒdʒdʒdʒdʒdʒdʒdʒ	-8.26659
djdjdjdjɪɪɪɪ	-8.26918
əəəəəənnnnnn	-8.27065
s̪s̪s̪s̪s̪s̪s̪s̪	-8.27224
ɔɔɔɔɔ	-8.2726
əəəəɫɫɫɫ	-8.2733
nnnndd	-8.27427
əəəəəəəəəəəəəəəəə	-8.2743
hhhhh	-8.27504
ʉʉʉʉ	-8.27558
ʃʃʃʃʃʃʃ	-8.27691
dddddddddddd	-8.27765
rrrrr	-8.28033
ɒɒɒɒɒ	-8.28327
ʉʉʉʉʉʉ	-8.2841
θθθ	-8.29602
ɪɪɪɪɪɪɪɪzzzzzzzz	-8.29646
iiiiiiiiiiiiiiiiiii	-8.30282
djdjdjdjdjɪɪɪɪɪ	-8.30441
əəəəəəənnnnnnn	-8.305
ɪɪɪɪɪɪɪɪnnnnnn	-8.30534
ɔɔɔɔɔɔ	-8.30612
ʉʉʉʉʉ	-8.31067
chchchchchchchchchchchchchch	-8.31107
ɝɝɝ	-8.31284
θθθθ	-8.31458
ɔɔɔɔɔɔɔ	-8.3206
nnnnnnnnnnnnnnnnnn	-8.32289
nnnnnnnnnnndd	-8.32487
pjpjpjpjpjpjpjpjpj	-8.32542
əəəəəənnnnn	-8.32957
t̪t̪t̪t̪t̪t̪t̪t̪t̪	-8.3302
djdjdjdjɪɪɪɪɪ	-8.33401
ɪɪɪɪɪɪɪɪnnnnn	-8.33405
ɫɫɫɫɫɫɫɫɫɫɫɫɫɫɫɫɫ	-8.33803
fjfjfjfjfjfjfjfjfjfjfjfjfj	-8.33954
əəəəɫɫɫɫɫɫɫ	-8.34122
mjmjmjmjmjmjmjmjmjmj	-8.34221
ɚɚɚɚɚɚɚɚɚɚɚɚɚɚɚɚɚɚɚɚ	-8.34295
thththththththʊʊʊ	-8.34419
əəəəɫɫɫɫɫ	-8.34927
t̪t̪t̪t̪t̪	-8.34993
bbbbbbbbbbbbb	-8.35019
ʊʊʊʊʊʊʊʊʊ	-8.35064
əəəəəəəənnnnnnnn	-8.35196
ffffffffffffffffff	-8.35302
əəəəvvvvvv	-8.3541
ʉʉʉʉʉʉʉʉʉʉ	-8.35472
awawawawawawawawawawawawawawawawawaw	-8.35537
æææææææææææææææææææ	-8.36048
d̪d̪d̪d̪d̪d̪əəəəəə	-8.36065
sssssssstttttttt	-8.36356
ajajaj	-8.36522
vjvjvjvjvjvjvjvj	-8.36588
vjvjvjvjvjvjvj	-8.36695
kkkkkkkkkkkkkkkk	-8.36843
tjtjtj	-8.37031
bjbjbj	-8.37161
ʃʃʃʃʃʃʃʃʃʃʃʃʃʃʃʃʃʃ	-8.37594
ɑɑɑɑɑɑɑɑɑɑɑɑɑɑɑɑɑ	-8.3805
d̪d̪d̪d̪d̪d̪d̪d̪d̪d̪d̪	-8.38563
jjjjjjjjjjjj	-8.38951
ŋŋŋŋŋŋŋŋŋŋŋ	-8.39055
æææææææænnnnn	-8.39059
əəəɫɫɫɫɫ	-8.39122
ɨɨɨɨ	-8.39378
owowowowowowowowowowowowowowowowowowow	-8.39763
ɪɪɪɪɪɪɪnnnnnnn	-8.399
aaaaaaa	-8.4011
khkhkhkhkhkhkhkhəəə	-8.40176
pjpjpjpjpjpjpj	-8.40226
tttəəə	-8.40309
ɒɒɒɒ	-8.40596
ɹɹɹɪɪɪɪ	-8.40604
ɝɝɝɝɝɝɝɝɝɝɝɝɝɝɝɝɝ	-8.40679
əəəəvvvvvvv	-8.40773
ɪɪɪɪɪɪɪɪɪɪɪɪɪɪɪɪ	-8.40844
ɲɲɲɲɲɲɲɲɲɲɲ	-8.40873
ɪɪɪɪɪɪɪnnnnnnnn	-8.41121
ɫɫɫɫɫɫɫɫɫɫɫɫɫɫɫɫɫɫɫ	-8.4131
ejejejejejejejejejejejejejejejejejejejejej	-8.41649
hhhh	-8.41817
ɪɪɪɪɪɪɪnnnnnn	-8.41886
cccccccccccc	-8.42134
ʉːʉːʉːʉːʉːʉːʉːʉːʉːʉːʉːʉːʉːʉːʉːʉː	-8.42375
ɔɔɔɔɔɔɔɔ	-8.42554
əəəəənnn	-8.42588
ɪɪɪɪɪɪɪnnnnn	-8.43016
ajajajajaj	-8.43399
iiiiiiiiiiiiiiiiiiii	-8.43438
rrrrrr	-8.43489
bjbjbjbj	-8.43697
ɫɫɫɫɫɫɫɫɫɫɫɫɫɫɫɫɫɫ	-8.43701
thththththththththththththththth	-8.43784
sssssssssttttt	-8.43893
ssssssssssstttttt	-8.43992
nnnttt	-8.44057
əəəɫɫɫɫɫɫɫɫ	-8.44185
əəəəəvvvvv	-8.44237
iːiːiːiːiːiːiːiːiːiːiːiːiːiːiːiːiːiː	-8.4449
z̪z̪z̪z̪z̪z̪z̪z̪	-8.44619
lllllllllllll	-8.44901
əəəəəəəəəəəəəəəəəə	-8.45203
əəəəɫɫɫɫɫɫ	-8.45265
ɪɪɪnnn	-8.45368
ɒɒɒ	-8.45426
ɪɪɪɪɪɪɪzzzzzzz	-8.45557
mjmjmjmjmj	-8.45801
əəəəəvvvvvv	-8.46157
əəəəəəənnnnnn	-8.46242
ɒɒɒɹɹɹɹɹɹɹɹ	-8.46246
djdjdjdjdjdjɪɪɪɪ	-8.46283
mmmmmmmmmmmmmmmm	-8.4653
ɪɪɪɪɪɪzzzzzzzz	-8.46563
ɪɪɪɪɪɪɪɪzzzzzzz	-8.46572
khkhkhkhkhkhkhkhəəəə	-8.46643
ɚɚɚɚɚɚɚɚɚɚɚɚɚɚɚɚɚɚɚɚɚɚ	-8.46734
owowowowowowowowowowowowowowowowowowowowowow	-8.46753
khkhkhkhkhkh	-8.4764
•••••••••••••••••••••••••••••••••••••••	-8.47731
æææææææænnnn	-8.48159
tʃtʃtʃtʃtʃtʃtʃtʃtʃtʃtʃtʃtʃtʃtʃtʃtʃ	-8.4869
ɔɔɔɔ	-8.48715
oooooooo	-8.48786
θθθθθθθθθθθθθθ	-8.48964
sssssssssttttttt	-8.49197
djdjdjdjɪɪɪɪɪɪ	-8.49243
ɛɛɛɛɛɛɛɛɛɛɛɛɛɛɛɛ	-8.49448
sssssssttttttt	-8.49473
ɟɟɟɟ	-8.49553
tttttttttttttttttt	-8.49634
ɡɡɡɡɡɡɡɡɡɡɡ	-8.49704
tʃtʃtʃtʃtʃtʃtʃ	-8.49771
ɨɨɨɨɨ	-8.49837
vjvjvjvjvjvj	-8.49964
djdjdjdjdjɪɪɪ	-8.49991
ɒɒɒɒɒɒɒɒɹɹɹɹɹɹɹɹ	-8.5011
ɪɪɪɪɪnnnnn	-8.50156
ɪɪɪɪɪɪnnnnnn	-8.50207
əəəəəəəənnnnnnn	-8.50406
djdjdjdjdjɪɪɪɪɪɪ	-8.50429
çççççççççç	-8.50471
ɒɒɒɒɒɒɒɒɒɒɒɒɒɒɒɒɒ	-8.50502
ɹɹɹɹɹɹɹɹɹɹɹɹɹɹɹɹɹɹ	-8.50708
ʉʉʉʉʉʉʉʉʉʉʉ	-8.50932
pppppppppppppp	-8.51253
ɝɝɝɝ	-8.51403
ɚɚɚɚɚɚɚɚɚɚɚɚɚɚɚɚɚɚɚɚɚ	-8.51477
ɪɪɪɪɪnnnnnn	-8.51566
hhhæææ	-8.51906
ɪɪɪɪɪzzzzzzzz	-8.52116
əəəəəənnnn	-8.52122
ɪɪɪɪɪɪnnnnn	-8.52313
ɒɒɒɹɹɹɹɹɹɹ	-8.52434
ɪɪɪɪɪɪnnnnnnn	-8.5262
ɹɹɹəəəə	-8.52682
djdjdjdjɪɪɪ	-8.52919
ʔʔʔʔʔʔʔʔʔʔʔ	-8.5346
••••••••••••••••••••••••••••••••••••••••	-8.53491
nnnnnnnnnnnnnnnnnnn	-8.5366
d̪d̪d̪d̪d̪d̪d̪d̪əəəə	-8.53994
əəəəəvvvvvvv	-8.54061
tjtjtjɪɪɪ	-8.54122
ɑːɑːɑːɑːɑːɑːɑːɑːɑːɑː	-8.54139
əəəɫɫɫɫɫɫɫ	-8.54145
tjtjtjtj	-8.54184
ɫɫɫɫɫɫɫɫɫɫɫɫɫɫɫɫɫɫɫɫɫɫ	-8.54303
ssssssssssttttt	-8.5452
awawawawawawawawawawawawawawawawawawaw	-8.54639
nnndd	-8.54997
ɑːɑːɑːɑːɑːɑːɑːɑːɑː	-8.5502
ççççççççççççç	-8.55218
rrrr	-8.55408
ɛɛɛɛɛɛɛɛnnnnnnn	-8.55499
khkhkhkhkhkhkhkhkhkhkhkhkhkhkhkh	-8.55499
ççç	-8.55547
zzzzzzzzzzzzzzzzzzzzzzzz	-8.55737
əəəəvvvvvvvv	-8.55783
s̪s̪s̪s̪s̪s̪s̪s̪s̪	-8.55959
ɪɪɪɪɪɪɪɪnnnn	-8.55964
ɹɹɹɹɪɪɪɪ	-8.55992
ɟɟɟɟɟɟɟɟɟɟ	-8.56085
ɪɪɪɪɪnnnnnnn	-8.56521
hhhhhhhhhhhhhhh	-8.56602
ejejejejejejejejejejejejejejejejejejejejejejej	-8.5674
dʒdʒdʒdʒdʒdʒdʒdʒdʒdʒdʒdʒdʒdʒ	-8.56753
ɐɐɐɐɐɐɐɐɐɐɐɐɐɐ	-8.56783
owowowowowowowowowowowowowowowowowowowow	-8.56808
æææææææænnnnnn	-8.56832
əəəɫɫɫɫɫɫ	-8.56849
əəəəəəənnnnn	-8.57082
bjbjbjbjbjbjbjbjbjbj	-8.57125
ddddddddddddd	-8.57234
wwwwwwwwwwwwwww	-8.57453
tjtjtjtjtjtjtjtjtjtjtjtjtjtj	-8.57482
ʒʒʒʒʒʒʒʒ	-8.57483
æææææææænnnnnnn	-8.57496
d̪d̪d̪d̪d̪d̪d̪d̪d̪d̪d̪d̪	-8.57587
vvvvvvvvvvvvv	-8.57801
pjpjpjpjpjpjpjpjpjpj	-8.57983
iiiiiiiiiiiiiiiiiiiiii	-8.57986
•••••••••••••••••••••••••••••••••••••••••	-8.58067
əəəəəɫɫɫ	-8.58535
əəəəvvvv	-8.5871
jjjjjjjjjjjjj	-8.58743
z̪z̪z̪z̪z̪z̪z̪	-8.58948
ɛɛɛɛɛɛɛnnnnn	-8.59131
əəəəəəəəəəəəəəəəəəə	-8.59246
ɚɚɚɚɚɚɚɚɚɚɚɚɚɚɚɚɚɚɚɚɚɚɚ	-8.59342
ssssssssssttttttt	-8.59359
çççççççççççç	-8.59476
ɫɫɫɫɫɫɫɫɫɫɫɫɫɫɫɫɫɫɫɫ	-8.59728
ɛɛɛɛɛɛɛɛnnnnnn	-8.59951
ʉːʉːʉːʉːʉːʉːʉːʉːʉːʉːʉːʉːʉːʉːʉːʉːʉː	-8.60123
ɑːɑːɑːɑːɑːɑːɑːɑːɑːɑːɑː	-8.60149
ɪɪɪɪɪɪnnnnnnnn	-8.60165
sssssssttttt	-8.60182
ɹɹɹɹɹɹɹɹɪɪɪɪ	-8.60236
vjvjvjvjvj	-8.60274
ɒɒɒɒɹɹɹɹɹɹɹɹ	-8.60305
ʊʊʊʊʊʊʊʊʊʊ	-8.60438
æææææææænnnnnnnn	-8.60544
djdjdjdjdjdjɪɪɪɪɪ	-8.60715
eee	-8.60831
ɪɪɪɪnnnnn	-8.61063
fjfjfjfjfjfjfjfjfjfjfjfjfjfj	-8.61091
tttttttəəəə	-8.61108
phphphphphphphphphphphphphphphph	-8.61112
kkkkkkkkkkkkkkkkk	-8.61234
khkhkhkhkhkhkhəəə	-8.61667
ɛɛɛɛɛɛɛɛnnnnn	-8.61884
ɪɪɪɪɪɪzzzzzzz	-8.62266
əəəəəvvvvvvvv	-8.62268
ɪɪɪɪɪɪɪŋŋŋŋŋŋŋŋ	-8.62316
iiiiiiiiiiiiiiiiiiiii	-8.62334
ooooooo	-8.62403
ɛɛɛɛɛɛɛɛnnnnnnnn	-8.6281
ææææææææææææææææææææ	-8.63163
ŋŋŋŋŋŋŋŋŋŋŋŋ	-8.63257
ççççççççççç	-8.63329
ŋŋŋŋŋ	-8.63333
ɝɝɝɝɝɝɝɝɝɝɝɝɝɝɝɝɝɝ	-8.636
t̪t̪t̪t̪t̪t̪t̪t̪t̪t̪	-8.63745
ɹɹɹɹɹɹɹɪɪɪɪ	-8.64037
iːiːiːiːiːiːiːiːiːiːiːiːiːiːiːiːiːiːiː	-8.64053
ɪɪɪɪɪŋŋŋŋŋŋŋŋ	-8.64257
tjtjtjtjtjtjtjtjɪɪɪ	-8.64382
ttttttəəəə	-8.64671
••••••••••••••••••••••••••••••••••••••••••	-8.64705
ɪɪɪɪɪzzzzzzz	-8.6481
djdjdjdjdjdjdjdjdj	-8.6481
ɟɟɟ	-8.64984
t̪t̪t̪t̪	-8.65049
ɹɹɹɹɹɹɹɹɪɪɪɪɪ	-8.65075
ɒɒɒɒɒɒɒɹɹɹɹɹɹɹɹ	-8.6529
ɪɪɪɪɪɪɪnnnn	-8.65577
ɑːɑːɑːɑːɑːɑːɑː	-8.65604
dʒdʒdʒdʒ	-8.65707
əəəvvvvv	-8.65712
ɪɪɪɪɪɪŋŋŋŋŋŋŋŋ	-8.65815
s̪s̪s̪s̪s̪s̪s̪s̪s̪s̪	-8.6582
ɑːɑːɑːɑːɑːɑːɑːɑːɑːɑːɑːɑː	-8.66153
ɑɑɑɑɑɑɑɑɑɑɑɑɑɑɑɑɑɑ	-8.66181
pppppppppɹɹɹɹ	-8.66255
ththththththththʊʊʊʊ	-8.66457
ɪɪɪɪnnnnnn	-8.66615
iiiiiiiiiiiiiiiiiiiiiii	-8.66662
ɛɛɛɛɛɛɛnnnnnn	-8.66761
ɒɒɒɒɒɒɒɒɹɹɹɹɹɹɹ	-8.67113
djdjdjdjdjdjdjdjdjdj	-8.67362
əəəəənnnnnnnnn	-8.67414
tttttəəəə	-8.67472
tjtjtjtjɪɪɪɪɪ	-8.67599
ɪɪɪɪɪnnnnnnnn	-8.67659
pppppppɹɹɹɹ	-8.67792
d̪d̪d̪d̪d̪iːiːiːiːiːiːiːiː	-8.6781
tjtjtjtjtjtjtjtjɪɪɪɪ	-8.67818
ʎʎʎʎʎʎʎʎʎʎʎʎʎ	-8.68127
əəəəəəəəəəəəəəəəəəəəəə	-8.68236
ɒːɒːɒːɒːɒːɒːɒː	-8.68237
ɪɪɪɪɪɪɪɪɪɪɪɪɪɪɪɪɪ	-8.69044
chchchchchchchchchchchchchchch	-8.69404
ɒɒɒɹɹɹɹɹɹ	-8.6942
əəəəəəəənnnnnn	-8.69502
ʎʎʎɪɪɪ	-8.69561
ttttttttəəəə	-8.69879
mmmmmmmmmmmmmmmmm	-8.69986
ppppppppppɹɹɹɹ	-8.70367
sssssssssssstttttt	-8.70518
awawawawawawaw	-8.7057
s̪s̪s̪s̪s̪s̪s̪	-8.70576
ɪɪɪɪɪnnnn	-8.7058
ttttttttttttttttttt	-8.70632
ɪɪɪɪɪŋŋŋŋŋŋŋ	-8.7064
ɒːɒːɒːɒːɒːɒːɒːɒːɒː	-8.70781
d̪d̪d̪d̪əəəəəəə	-8.70995
fjfjfjfjfjfjfjfjfjfjfj	-8.71049
ː	-8.71155
ɹɹɹɹɹɹɹɪɪɪɪɪ	-8.71169
vjvjvjvj	-8.71251
ɒɒɒɹɹɹ	-8.71377
tjtjtjtjtjɪɪɪɪ	-8.71507
çççççççç	-8.71678
djdjdjɪɪɪ	-8.71804
θθθθθθθθθθθθθθθ	-8.71873
owowowowowowowowowowowowowowowowowowowowow	-8.71881
ɛɛɛɛɛɛɛɛɛɛɛɛɛɛɛɛɛ	-8.7213
ɪɪɪɪnnnnnnn	-8.7225
fffffffffffffffffff	-8.72289
•••••••••••••••••••••••••••••••••••••••••••	-8.7258
ɲɲɲɲɲɲɲɲɪ	-8.72805
ɪɪɪɪɪɪŋŋŋŋŋŋŋ	-8.72856
ɛɛɛɛɛɛɛnnnnnnn	-8.72894
ɪɪɪɪɪɪnnnn	-8.72908
tjtjtjɪɪɪɪ	-8.72929
tjtjtjɪɪɪɪɪ	-8.72961
nnnnnnnnnnnndd	-8.73032
ɹɹɹɹɹɹɹɹɹɹɹɹɹɹɹɹɹɹɹ	-8.73096
əəəvvv	-8.73274
ʉʉʉʉʉʉʉʉʉʉʉʉ	-8.73318
awawawawawawawawawawawawawawawawawawawaw	-8.73403
ɑɑɑɹɹɹɹɹɹɹɹ	-8.73726
ɾɾɾɾɾɾɾɾɾ	-8.73771
ɒɒɒɒɒɒɒɒɒɒɒɒɒɒɒɒɒɒ	-8.74065
bbbbbbbbbbbbbb	-8.74483
d̪d̪d̪d̪d̪d̪d̪d̪d̪d̪d̪d̪d̪	-8.74723
əəəəəənnn	-8.74748
ɹɹɹɹɪɪɪ	-8.74924
tjtjtjtjtjtjɪɪɪɪ	-8.75015
ɨɨɨ	-8.75016
ɪɪɪɪɪɪɪɪɪɪɪdd	-8.75426
pjpjpjpjpjpj	-8.75459
ɲɲɲɲɲɲɲɲɲɲɲɲ	-8.75586
ææææææææææææææææææææææ	-8.75597
ppppppppppppppp	-8.75912
əəəəəəənnnn	-8.76026
zzzzzzzzzzzzzzzzzzzzzzzzz	-8.76078
n̪n̪n̪	-8.76207
ccccccccccccc	-8.76242
iːiːiːiːiːiːiːiːiːiːiːiːiːiːiːiːiːiːiːiːiːiː	-8.76293
ɪɪɪɪnnnn	-8.76461
tjtjtjtjɪɪɪɪ	-8.76566
əəəəəəəəəəəəəəəəəəəə	-8.76897
ththththththʊʊʊ	-8.77036
d̪d̪d̪d̪iːiːiːiːiːiːiːiː	-8.77045
owowowowowowowowowowowowowowowowowowowowowowow	-8.77367
sssssssssssttttt	-8.77381
əəəənnnnnnnnn	-8.77414
d̪d̪d̪d̪d̪əəəəəəə	-8.77438
ɛɛɛɛɛɛɛnnnnnnnn	-8.77574
khkhkhkhkhkhkhəəəə	-8.77618
djdjdjdjdjdjɪɪɪ	-8.77771
əəəvvvvvv	-8.77789
thththththththʊʊʊʊ	-8.77867
fjfjfjfjfjfjfjfjfjfj	-8.77979
awawawawawawawawawawawawawawawawawawawawawaw	-8.78009
ɫɫɫɫɫɫɫɫɫɫɫɫɫɫɫɫɫɫɫɫɫ	-8.78116
ɒɒɒɒɹɹɹɹɹɹɹ	-8.78125
ʔʔʔʔʔʔʔʔʔʔʔʔ	-8.78152
ɹɹɹɹɹɪɪɪɪ	-8.78421
dʒdʒdʒdʒdʒdʒdʒdʒdʒdʒdʒdʒdʒdʒdʒ	-8.78464
ʃʃʃʃʃʃʃʃʃʃʃʃəəənnn	-8.78569
tjtjtjtjtjɪɪɪ	-8.78698
əəəəəənnnnnnnnn	-8.78714
••••••••••••••••••••••••••••••••••••••••••••	-8.78746
ɒɒɒɒɒɒɒɒɹɹɹɹ	-8.78813
ɹɹɹəəəəə	-8.78827
ʎʎʎʎʎʎʎʎɪɪɪɪ	-8.78945
tjtjtjtjtjtjɪɪɪ	-8.78959
çççɪɪɪ	-8.79039
ʃʃʃʃʃʃʃʃʃʃʃʃʃʃʃʃʃʃʃ	-8.79294
ʉːʉːʉːʉːʉːʉːʉːʉːʉːʉːʉːʉːʉːʉːʉːʉːʉːʉː	-8.79674
tttttttttɹɹɹɹ	-8.79786
ɒːɒːɒːɒːɒːɒːɒːɒːɒːɒː	-8.7979
tjtjtjɪɪɪɪɪɪ	-8.80056
ɪɪɪnnnnn	-8.80194
jjjjjjjjjjjjjj	-8.80368
tjtjtjtjtjtjtjɪɪɪɪ	-8.80403
tʃtʃtʃtʃtʃtʃtʃtʃtʃtʃtʃtʃtʃtʃtʃtʃtʃtʃ	-8.80546
sssssssstttt	-8.80705
djdjdjdjdjdjɪɪɪɪɪɪ	-8.80794
sssssssssssttttttt	-8.80811
s̪s̪s̪s̪s̪s̪s̪s̪s̪s̪s̪	-8.80823
ɛɛɛɛɛɛɛnnnn	-8.80845
ɹɹɹɹɹɹɪɪɪɪ	-8.80901
əəəəəvvvv	-8.80924
ɒɒɒɒɒɹɹɹɹɹɹɹɹ	-8.81372
cccccccccccccc	-8.81458
əəəvvvvvvv	-8.81465
nnnnnnnnnnnnnnnnnnnn	-8.81482
kkkkkkkkkkkkkkkkkk	-8.81781
tjtjtjtjtjtjtjɪɪɪ	-8.82061
ɝɝɝɝɝɝɝɝɝɝɝɝɝɝɝɝɝɝɝ	-8.82093
ɑːɑːɑːɑːɑːɑːɑːɑːɑːɑːɑːɑːɑː	-8.82114
əəəəəəəənnnnn	-8.8241
ttttttttttɹɹɹɹ	-8.82498
ɒɒɒɒɒɒɹɹɹɹɹɹɹɹ	-8.82583
ɛɛɛɛɛɛnnnnn	-8.82666
ɪɪɪɪɪɪɪɪŋŋŋŋŋŋŋŋ	-8.82703
ʒʒʒʒʒʒʒʒʒ	-8.82855
əəəəəəvvvvvvv	-8.82944
ɫɫɫɫɫɫɫɫɫɫɫɫɫɫɫɫɫɫɫɫɫɫɫ	-8.82964
ʊʊʊʊʊʊʊʊʊʊʊ	-8.82973
d̪d̪d̪d̪d̪d̪d̪d̪əəəəə	-8.82998
ssssssstttttttt	-8.83142
kkkkkkssssssss	-8.83352
phphph	-8.83495
iːiːiːiːiːiːiːiːiːiːiːiːiːiːiːiːiːiːiːiː	-8.83545
əəəəəəvvvvvvvv	-8.83631
ajajajaj	-8.83733
əəəəəəvvvvvv	-8.83734
mjmjmjmjmjmjmjmjmjmjmj	-8.83743
ɪɪɪnnnn	-8.83809
d̪d̪d̪d̪d̪d̪d̪d̪əəə	-8.8383
ɒɒɒɹɹɹɹ	-8.83901
ɪɪɪɪzzzzzzzz	-8.83945
cccc	-8.84098
khkhkh	-8.84113
ɒɒɒɒɒɒɒɹɹɹɹɹɹɹ	-8.84411
əəəəənnnnnnnnnn	-8.84411
vvvvvvvvdd	-8.84467
n̩n̩n̩	-8.84564
ɪɪɪɪɪɪɪŋŋŋŋŋŋŋ	-8.8462
•••••••••••••••••••••••••••••••••••••••••••••	-8.84623
əəəəəəvvvvv	-8.84645
ɹɹɹɹɪɪɪɪɪ	-8.84806
ajajajajajajajajajajajajajajajajajajajajajajajaj	-8.84841
d̪d̪d̪əəəəəə	-8.84854
ɛɛɛɛɛɛɛɛnnnn	-8.84881
oooooo	-8.84922
ʃʃʃʃʃʃʃʃʃʃʃəəənnn	-8.84957
d̪d̪d̪d̪d̪d̪d̪əəəəəə	-8.85015
əəəəəəənnnnnnnnn	-8.85025
rrrrrrr	-8.85032
aaaaaa	-8.85085
əəəəəəəəvvvvvvvv	-8.85173
mjmjmj	-8.8519
ɪɪɪɪɪŋŋŋŋŋŋ	-8.85304
dddddddddddddd	-8.85767
•••əəəəəəəə	-8.85947
vvvvvvvvvvvvvv	-8.86136
əəəəəəəvvvvvvvv	-8.86277
djdjdjdjdjdjdjɪɪɪɪ	-8.86424
ɪɪɪɪnnnnnnnn	-8.86443
ttttəəəə	-8.86498
dʒdʒdʒ	-8.86682
əəəvvvv	-8.86708
sjsjsjsjsjsjsjsj	-8.87048
kkkkkkkssssssss	-8.87492
pjpjpjpjpjpjpjpjpjpjpj	-8.87567
pppppppppppɹɹɹɹ	-8.87592
ttttttttəəə	-8.87726
ɒːɒːɒːɒːɒːɒːɒːɒːɒːɒːɒː	-8.87793
•••••••••••••••••••••••••••••••••••••••••••••••••••••	-8.87799
ʎʎʎʎʎʎʎiiiiiiii	-8.87836
ɨɨɨɨɨɨ	-8.88129
ɡɡɡɡɡɡɡɡɡɡɡɡ	-8.88215
nnnnnnnnnnnnnnnnnnnnnn	-8.88224
ththththththththththththththththth	-8.8823
wwwwwɪɪɪɪ	-8.88642
ɪɪɪɪŋŋŋŋŋŋŋŋ	-8.88766
ɔɔɔ	-8.88842
tttttttəəə	-8.88965
djdjdjdjɪɪɪɪɪɪɪ	-8.88997
aaaaaaaaa	-8.89032
tttttttttttttttttttttt	-8.89067
tttttəəə	-8.89075
tjtjtjtjɪɪɪ	-8.89579
zzzzzzzəəəəə	-8.89648
djdjdjdjdjɪɪɪɪɪɪɪ	-8.89696
hhhhhhhhhhhhhhhh	-8.89925
ɛɛɛɛɛɛnnnnnn	-8.90122
əəəəəəəəəəəəəəəəəəəəəəə	-8.90198
əəəəəənnnnnnnnnn	-8.90206
ʉʉʉʉʉʉʉʉʉʉʉʉʉ	-8.90345
tttttttttttttttttttt	-8.90445
ʒʒʒʒʒʒʒʒʒʒ	-8.9052
zzzzzzzzzzzzzzzzzzzzzzzzzz	-8.90591
ɹɹɹɹɹɹɪɪɪɪɪ	-8.91116
ɪɪɪɪɪɪŋŋŋŋŋŋ	-8.91136
ðððəəə	-8.91273
d̪d̪d̪d̪d̪d̪d̪d̪d̪d̪d̪d̪d̪d̪	-8.91332
awawawawawawawawawawawawawawawawawawawawaw	-8.91346
fjfjfjfjfjfjfjfjfjfjfjfjfjfjfj	-8.91396
ɾɾɾɾɾɾɾɾɾɾ	-8.91414
θθθθθθθθθθθθθθθθ	-8.91504
uuuuuuuu	-8.91534
ææææææænnnnn	-8.91649
əəəəəəəəəəəəəəəəəəəəə	-8.91668
vjvjvjvjvjvjvjvjvj	-8.91793
ŋŋŋŋŋŋŋŋŋŋŋŋŋ	-8.91881
ɒɒɒɹɹɹɹɹ	-8.91916
ʎʎʎʎʎʎiiiiiii	-8.92098
ttttttəəə	-8.92134
ɹɹɹɹɹɪɪɪɪɪ	-8.92402
ppppppppɹɹɹɹɹ	-8.9272
uuuuuuu	-8.92826
ɹɹɹɹɹɹɹɹɹɹɹɹɹɹɹɹɹɹɹɹɹɹ	-8.92896
əəəəmmmmmmmm	-8.92909
kkkkkssssssss	-8.92937
əəəəmmmmmmm	-8.92942
rrr	-8.92958
ssssssssstttttttt	-8.93143
çççççççççççççç	-8.93163
wwwwwɪɪɪɪɪ	-8.93174
llllllllllllll	-8.93234
ʎʎʎʎʎiiiiiii	-8.93302
ɒɒɒɒɒɒɒɒɹɹɹɹɹɹ	-8.93373
ɪɪɪnnnnnn	-8.93503
æææææææææææææææææææææ	-8.93682
djdjdjdjdjdjdjɪɪɪɪɪ	-8.93863
ə	-8.93867
ɪɪɪɪŋŋŋŋŋŋŋ	-8.93868
ɐɐɐɐɐɐɐɐɐɐɐɐɐɐɐ	-8.93898
əəəəəɫɫɫɫ	-8.93921
ttttəəə	-8.93953
ɒɒɒɒɒɒɒɒɹɹɹɹɹ	-8.94017
ʎʎʎʎʎʎʎʎɪɪɪɪɪ	-8.9405
ɹɹɹɹɹɹɹɹiiiiiiii	-8.94265
ɪɪɪɪɪɪɪɪzzzzzzzzz	-8.94319
tjtjtjtjtjtjtjtjɪɪɪɪɪ	-8.94419
••••••••••••••••••••••••••••••••••••••••••••••	-8.94421
ɪɪɪnnnnnnn	-8.94465
əəəəəɫɫɫɫɫɫɫɫ	-8.9447
əəəəəəəvvvvvvv	-8.94622
əəəəvvv	-8.94629
ʎʎʎʎʎʎiiiiiiii	-8.94635
wwwwwwɪɪɪɪɪ	-8.94971
ɑɑɑɑɹɹɹɹɹɹɹɹ	-8.9503
ɪɪɪɪɪɪɪɪnnn	-8.9524
əəəvvvvvvvv	-8.95297
ɪɪɪɪɪɪɪzzzzzzzzz	-8.95497
ʎʎʎʎʎʎʎiiiiiii	-8.95624
ʎʎʎʎʎʎʎʎiiiiiiii	-8.95738
wwwwwwwwwwwwwwww	-8.95954
ɪɪɪɪɪɪɪzzzzzz	-8.96165
əəəəəəəəvvvvvvv	-8.96318
ʉːʉːʉːʉːʉːʉːʉːʉːʉːʉːʉːʉːʉːʉːʉːʉːʉːʉːʉː	-8.96344
djdjdjɪɪɪɪ	-8.96534
ʎʎʎiii	-8.96586
t̪t̪t̪	-8.96633
ɲɲɲɲɲiiiiiiii	-8.9684
əəəəəəəvvvvvv	-8.96937
kkkkkkkkkkkkkkkkkkk	-8.97062
ssssssssssssssssssssssss	-8.97419
əəəəəəənnn	-8.97426
ɾj	-8.97898
ɪɪɪɪɪnnn	-8.97919
ffffffffɹɹɹɹ	-8.98044
ʎʎʎʎʎiiiiiiii	-8.98089
əəəəɫɫɫɫɫɫɫɫɫ	-8.98113
mmmmmmmmmmmmmmmmmm	-8.98229
jjjjjjjjjjjjjjj	-8.98239
wwwwwwwwɪɪɪɪɪ	-8.98396
djdjdjdjdjdjɪɪɪɪɪɪɪ	-8.98504
ɛɛɛɛɛɛnnnnnnn	-8.98546
ɛɛɛɛɛnnnnn	-8.98647
ɒːɒːɒːɒːɒːɒːɒːɒːɒːɒːɒːɒː	-8.98785
iːiːiːiːiːiːiːiːiːiːiːiːiːiːiːiːiːiːiːiːiː	-8.98791
ææææææænnnn	-8.98869
khkhkhkhkhkhkhkhkhkhkhkhkhkhkhkhkh	-8.98894
ɟɟɟɟɟɟɟɟɟɟɟ	-8.98936
ssssssssttt	-8.99058
ɒɒɒɒɒɹɹɹɹɹɹɹ	-8.99061
tjtjtjtjtjɪɪɪɪɪ	-8.99072
ooooo	-8.99099
əəəəəəɫɫɫ	-8.99105
wwwwwwɪɪɪɪ	-8.99134
••••••••••••••••••••••••••••••••••••••••••••••••••••	-8.99171
ɪɪɪɪnnn	-8.9922
æææææææænnn	-8.99241
tttəəəə	-8.99296
ɛɛɛɛɛɛɛɛɛɛɛɛɛɛɛɛɛɛ	-8.99316
ææææææææænnnnn	-8.99431
ʉːʉːʉːʉːʉːʉːʉːʉːʉːʉːʉːʉːʉːʉːʉːʉːʉːʉːʉːʉːʉːʉː	-8.99525
nnnnttt	-8.99536
t̪t̪t̪t̪t̪t̪t̪t̪t̪t̪t̪	-8.99667
əəəəəəənnnnnnnnnn	-8.99742
ææææææænnnnnn	-8.99793
ɑɑɑɑɑɑɑɑɑɑɑɑɑɑɑɑɑɑɑ	-8.99884
ʔʔʔʔʔʔʔʔʔʔʔʔʔ	-9.00227
ɫ̩ɫ̩ɫ̩	-9.00299
ɑːɑːɑːɑːɑːɑːɑːɑːɑːɑːɑːɑːɑːɑː	-9.00299
tttttttttttɹɹɹɹ	-9.00301
ɪɪɪɪɪŋŋŋŋŋ	-9.00309
ɒɒɒɒɒɒɒɒɒɒɒɒɒɒɒɒɒɒɒ	-9.00329
ɹɹɹɹɹɹɹɹɪɪɪɪɪɪ	-9.00401
ɪɪɪɪɪɪɪɪɪnnnnnnnn	-9.00518
ɹɹɹɹɹɹɹɹɹɹɹɹɹɹɹɹɹɹɹɹ	-9.00552
ɒɒɒɒɒɒɹɹɹɹɹɹɹ	-9.00627
əəəəəəəəvvvvvv	-9.00726
wwwwwwwɪɪɪɪɪ	-9.00821
ɛɛɛɛɛɛnnnn	-9.00877
tjtjtjtjtjtjtjɪɪɪɪɪ	-9.00927
•••••••••••••••••••••••••••••••••••••••••••••••	-9.0106
ɒːɒːɒː	-9.01174
ɪɪɪɪɪɪɪnnn	-9.01217
ttttssssssss	-9.01855
ŋŋŋŋŋŋŋŋŋŋŋŋŋŋ	-9.01857
ʎʎʎʎʎiiiiii	-9.01969
əəəəəəəənnnn	-9.01981
əəəmmmmmmm	-9.01991
kkkkkkkkəəəə	-9.02002
dʒdʒdʒdʒdʒdʒdʒdʒdʒdʒdʒdʒdʒdʒdʒdʒ	-9.02045
ɪɪɪɪɪɪɪɪɪnnnnnnn	-9.02088
tjtjtjtjɪɪɪɪɪɪ	-9.02332
ɪɪɪɪɪɪɪɪɪɪɪɪɪdd	-9.02782
ɲɲɲɲɪɪɪɪɪ	-9.02822
ɫɫɫɫɫɫɫɫdd	-9.02829
s̪s̪s̪s̪s̪s̪s̪s̪s̪s̪s̪s̪	-9.02829
ɪɪɪɪɪɪɪɪɪɪɪɪɪɪɪɪɪɪ	-9.03004
sssssstttttt	-9.03193
djdjdjɪɪɪɪɪ	-9.03209
tjtjtjtjtjtjtjtjtjtjtjtjtjtjtj	-9.03218
ɛɛɛɛɹɹɹɹɹɹɹɹ	-9.03308
ɲɲɲɲɪɪɪɪɪɪ	-9.034
ɹɹɹɪɪɪɪɪ	-9.03423
phphphphphphphphphphphphphphphphph	-9.03725
fjfjfjfjfjfjfjfjfj	-9.03747
əəəəbbbbbbbb	-9.03814
khkhkhkhkhkhəəə	-9.03831
əəəənnnnnnnnnn	-9.03847
ɲɲɲɲɲɲɲɪ	-9.04005
iːiːiːiːiːiːiːiːiːiːiːiːiːiːiːiːiːiːiːiːiːiːiː	-9.04041
əəəəəəəənnnnnnnnn	-9.04063
əəəəəmmmmmmmm	-9.04088
fjfjfjfjfjfjfjfj	-9.04247
əəəəəəəvvvvv	-9.04438
ppppppppppppɹɹɹɹ	-9.04506
ɝɝɝɝɝɝɝɝɝɝɝɝɝɝɝɝɝɝɝɝ	-9.04522
ssssssssssɪɪɪɪ	-9.04554
ʎʎʎʎʎʎʎɪɪɪɪ	-9.04569
ʃʃʃʃʃʃʃʃʃʃəəənnn	-9.04577
ææææææææænnnn	-9.04672
ʋʋʋʋʋʋʋ	-9.04879
ɛɛɛɛɛɛɛkkkkkkkk	-9.05075
ʊʊʊʊʊʊʊʊʊʊʊʊ	-9.05116
uuuuuu	-9.05182
ʋʋʋʋʋʋʋʋ	-9.05215
ççççççç	-9.05309
ssssssssɪɪɪɪ	-9.05345
ɹɹɹɹɹɹɹiiiiiiii	-9.05673
ppppppppəəə	-9.0568
ɛɛɛɛɛɛɛɛɹɹɹɹɹɹɹɹ	-9.05783
ɒɒɒɒɒɒɒɒɹɹɹ	-9.05866
ʊʊʊʊʊʊdd	-9.05876
sssssssssstttttttt	-9.05893
ɛɛɛɛɛnnnn	-9.05975
nnnnnnnnnnnnnnnnnnnnn	-9.06061
ɪɪɪɪzzzzzzz	-9.06194
ððððððððð	-9.06299
ɲɲɲɲɲɲɲɲɲɲɲɲɲ	-9.06538
thththththththththʊʊʊ	-9.0665
••••••••••••••••••••••••••••••••••••••••••••••••	-9.0675
ɪɪɪɪɪɪŋŋŋŋŋ	-9.06996
ɪɪɪnnnnnnnn	-9.07056
dddəəəəə	-9.0709
ɪɪɪɪɪɪɪŋŋŋŋŋŋ	-9.07272
ɪɪɪɪɪɪɪɪzzzzzz	-9.07381
ssssssssssssstttttt	-9.07414
ɪɪɪɪɪɪɪɪnnnnnnnnn	-9.07544
ɪɪɪɪɪɪɪɪɪnnnnnn	-9.07737
ɾɾɾɾɾɾɾɾɾɾɾ	-9.0777
ɹɹɹɹɹɹɹɪɪɪɪɪɪ	-9.07868
bjbjbjbjbjbjbjbjbjbjbj	-9.07894
zzzzzzzzzzzzzzzzzzzzzzzzzzz	-9.07959
ɪɪɪɪɪɪnnn	-9.08089
ɛɛɛɛɛɛnnnnnnnn	-9.08209
vjvjvj	-9.08243
əəəəəəəɫɫɫ	-9.08363
chchchchchchchchchchchchchchchch	-9.08383
ɒːɒːɒːɒː	-9.08407
khkhkhkhkh	-9.08462
ɛɛɛɛɛnnnnnn	-9.08505
ajajajajajajajajajajajajajajajajajajajajajajajajaj	-9.08561
ssssssssssssttttt	-9.08595
ssssssssssssttttttt	-9.0867
ɪɪɪɪɪɪɪɪɪɪnnnnnnnn	-9.0873
əəəəəɫɫɫɫɫɫɫ	-9.08804
mjmjmjmjmjmjmjɪɪɪɪɪ	-9.08915
ʎʎʎʎʎʎʎʎiiiiiii	-9.08987
ʎʎʎʎʎiiiii	-9.09076
ŋŋŋŋ	-9.09104
ææææææænnnnnnn	-9.09105
tʃtʃtʃtʃtʃtʃtʃtʃtʃtʃtʃtʃtʃtʃtʃtʃtʃtʃtʃ	-9.0921
tttttssssssss	-9.09378
pjpjpjpjpj	-9.09406
ɛɛɛɹɹɹɹɹɹɹɹ	-9.09448
ɪɪɪɪŋŋŋŋŋŋ	-9.09454
ppppppppllll	-9.09552
ɛɛɛɛɛɛɛɹɹɹɹɹɹɹɹ	-9.09595
əəənnnnnnnnn	-9.09674
ɝɝɝɝɝɝɝɝɝɝɝɝɝɝɝɝɝɝɝɝɝɝ	-9.09691
wwwwɪɪɪɪ	-9.09826
ɒɒɒɒɒɒɒɹɹɹɹɹɹ	-9.09974
d̪d̪d̪d̪d̪d̪əəəəəəə	-9.10049
ʉːʉːʉːʉːʉːʉːʉːʉːʉːʉːʉːʉːʉːʉːʉːʉːʉːʉːʉːʉː	-9.10088
ttttttttttttttttttttt	-9.10174
mjmjmjmjmjmjmjɪɪɪɪ	-9.10238
ççççççççç	-9.10272
ɲɲɲɲiiiiiiii	-9.10328
ʎʎʎʎʎʎiiiiii	-9.10333
ɪɪɪɪɪɪɪɪzzzzzzzzzz	-9.10426
d̪d̪d̪d̪iːiːiːiːiːiːiː	-9.105
ɒɒɒɒɹɹɹɹɹɹ	-9.10718
ɱ	-9.10726
ɹɹɹɹɹɹɹɹiiiiiii	-9.1079
ddddddddddddddd	-9.10803
ççççççççiːiːiːiːiːiːiː	-9.11051
əəəəəəəəɫɫɫ	-9.11078
uuuuu	-9.1115
zzzzzzzzəəəəə	-9.11152
ɪɪɪɪɪɪɪɪɪzzzzzzzz	-9.11311
d̪d̪d̪d̪d̪d̪d̪d̪d̪d̪d̪d̪d̪d̪d̪	-9.11437
əəəəəənnnnnnnnnnn	-9.11698
ɒːɒːɒːɒːɒːɒː	-9.11938
chchchchchch	-9.12038
ffffffffffffffffffff	-9.12041
ccc	-9.12095
əəəəbbbbbbb	-9.12205
sssssssssssɪɪɪɪ	-9.12301
d̪d̪d̪d̪d̪iːiːiːiːiːiːiː	-9.12521
sssssssssɪɪɪɪ	-9.1258
wwwwwwwwɐɐɐɐɐɐɐ	-9.1269
əəəəəɫɫɫɫɫ	-9.12774
ssssssssssɪɪɪɪɪ	-9.128
ɲɲɲɲɪɪɪɪɪɪɪ	-9.12803
ssssssttttttt	-9.12853
ʎʎʎʎʎʎʎiiiiii	-9.12856
ççççççççiːiːiːiːiːiː	-9.12937
ɛɛɛɛɛɹɹɹɹɹɹɹɹ	-9.12999
djdjdjdjdjdjdjɪɪɪ	-9.13087
ɪɪɪɪɪɪzzzzzz	-9.13111
ʎʎʎʎiiiiiii	-9.13333
ææææææææænnnnnn	-9.13364
bbbbbbbbbbbbbbb	-9.13443
ɪɪɪɪɪɪɪɪɪnnnnn	-9.1356
əəəəəəəənnnnnnnnnn	-9.13602
vvvvvvvdd	-9.13783
æææææææææænnnnn	-9.13813
kkkkkkkkkkkkkkkkkkkk	-9.13848
ɲɲɲɲɲɪɪɪɪɪɪ	-9.1386
ɹɹɹiii	-9.13991
əəəəəəəəvvvvv	-9.14037
ççççç	-9.14071
djdjdjdjdjdjdjɪɪɪɪɪɪ	-9.14109
ææææææænnnnnnnn	-9.1413
ʃʃʃʃʃʃʃʃʃʃʃʃʃʃʃʃʃʃʃʃ	-9.14252
ɒːɒːɒːɒːɒːɒːɒːɒːɒːɒːɒːɒːɒː	-9.14278
ʎʎʎʎʎʎʎʎʎʎʎʎʎʎ	-9.14305
ʒʒʒʒʒʒʒʒʒʒʒ	-9.14312
ppppppppəəəə	-9.14337
d̪d̪d̪d̪d̪d̪iːiːiːiːiːiːiːiː	-9.14341
kkkkkkkkkkkkkkkkkkkkkk	-9.14382
ɪɪɪŋŋŋŋŋŋŋŋ	-9.14392
θθθθθθθθθθθθθθθθθ	-9.14399
sssssssssssɪɪɪɪɪ	-9.14454
ʉʉʉʉʉʉʉʉʉʉʉʉʉʉ	-9.14506
ɑɑɑɑɑɑɑɹɹɹɹɹɹɹɹ	-9.1457
ɛɛɛɛɛɛɹɹɹɹɹɹɹɹ	-9.14582
•••••••••••••••••••••••••••••••••••••••••••••••••	-9.14618
əəəəənnnnnnnnnnn	-9.14629
ʎʎʎʎʎʎʎɪɪɪɪɪ	-9.14808
əəəəəəənnnnnnnnnnn	-9.14861
tjtjtjtjtjtjɪɪɪɪɪ	-9.14872
oooo	-9.14925
ŋŋŋŋŋŋŋŋŋŋŋŋŋŋŋ	-9.15014
ɛɛɛɛɛɛkkkkkkkk	-9.15061
z̪z̪z̪z̪z̪z̪	-9.15328
əəəəəɫɫɫɫɫɫ	-9.15459
ɪɪɪɪɪɪɪɪŋŋŋŋŋŋŋ	-9.15467
awawawawawawawawawawawawawawawawawawawawawawaw	-9.15573
çççɪɪɪɪ	-9.15588
djdjdjdjdjdjdjdjdjdjdj	-9.15619
nnnnnnnnnnnnnnnnnnnnnnn	-9.15716
tjtjtjtjtjtjtjtjɪɪɪɪɪɪ	-9.1578
mjmjmjmjmjmjmjmjɪɪɪɪɪ	-9.15979
mmmmmmmbbbb	-9.16025
••••••••••••••••••••••••••••••••••••••••••••••••••	-9.16106
ɑɑɑɑɑɑɑɑɹɹɹɹɹɹɹɹ	-9.16225
tttttttssssssss	-9.16401
tjtjtjtjɪɪɪɪɪɪɪ	-9.16407
wwwwwwwwɪɪɪɪ	-9.16561
pppppppppppppppp	-9.16597
nnnnnttt	-9.16765
ɪɪɪɪɪɪɪɪʔʔʔʔ	-9.16771
əəəəɫɫɫɫɫɫɫɫɫɫ	-9.16865
ɨɨɨɨɨɨɨ	-9.16955
ɑɑɑɑɑɹɹɹɹɹɹɹɹ	-9.16992
ççççççççiːiːiːiːiː	-9.17022
ɑːɑːɑːɑːɑːɑː	-9.17066
ttttsssssss	-9.17125
ɲɲɲɲɲɪɪɪɪɪ	-9.17138
ɑːɑːɑːɑːɑːɑːɑːɑːɑːɑːɑːɑːɑːɑːɑː	-9.17251
ɒɒɒɒɒɒɒɹɹɹɹɹ	-9.17265
eeeeeeeee	-9.17348
ɹɹɹɹɹɹɹɹɪɪɪɪɪɪɪ	-9.17402
nnnnnnnnnnnnndd	-9.17847
ɹɹɹɹɹɹɹɹɹɹɹɹɹɹɹɹɹɹɹɹɹ	-9.17861
ʎʎʎʎʎʎiiiii	-9.18153
ɒɒɒɒɒɒɒɹɹɹɹ	-9.18398
ɛɛɛɛɛnnnnnnn	-9.18427
khkhkhkhkhkhkhkhkhəəə	-9.18494
æææææææææænnnn	-9.18682
ɑɑɑɑɑɑɹɹɹɹɹɹɹɹ	-9.1869
əəəmmmmmm	-9.18823
ʎʎʎʎʎʎɪɪɪɪ	-9.18834
zzzzzzəəəəə	-9.19118
khkhkhkh	-9.19361
pjpjpjpjpjpjpjpjpjpjpjpj	-9.19379
əəəəmmmmmm	-9.1946
mjmjmjmjmjmjmjmjɪɪɪɪ	-9.19504
ɛɛɛɛɛɛɛɛkkkkkkkk	-9.19598
ɪɪɪɪɪɪɪɪɪɪɪɪdd	-9.19632
bjbjbjbjɪɪɪɪ	-9.19775
ttttttttttttttttttttttt	-9.19794
əəəəəəəənnn	-9.19852
ttttttttttttɹɹɹɹ	-9.19971
wwwwwwwɪɪɪɪ	-9.19983
ʎʎʎʎʎʎʎʎɪɪɪ	-9.20001
aaaaa	-9.20028
aaaaaaaaaa	-9.20188
vvvvvvvvvvvvvvv	-9.20209
djdjdjdjɪɪɪɪɪɪɪɪ	-9.20216
ʃʃʃʃʃʃʃʃʃʃʃʃəəəə	-9.20248
ææææææææænnnnnnnn	-9.21021
ɪɪɪɪɪzzzzzz	-9.21049
əəəəɹɹɹ	-9.21152
ɛɛɛɛɹɹɹ	-9.21279
əəəəəəəəənnnnnnnn	-9.21335
ææææææææænnnnnnn	-9.2139
ɲɲɲɲɲɪɪɪɪɪɪɪ	-9.21478
ɪɪɪɪɪɪɪɪɪɪnnnnnnn	-9.21517
ɹɹɹɹɪɪɪɪɪɪ	-9.21582
tjtjtjtjtjɪɪɪɪɪɪ	-9.21641
djdjdjɪɪɪɪɪɪ	-9.21673
hhhhhhhhæææææææ	-9.21687
ʎʎʎʎʎʎʎʎɪɪɪɪɪɪ	-9.21778
əəəmmmmmmmm	-9.2185
dd••••••••	-9.21879
ɑɑɑɑɑɑɑɑɹɹɹɹ	-9.22042
•••••••••••••••••••••••••••••••••••••••••••••••••••	-9.22101
wwwɪɪɪ	-9.22137
ssssssssɪɪɪɪɪ	-9.22219
ʎʎʎʎʎʎʎiiiii	-9.22345
ʎʎʎʎiiiiii	-9.22374
s̪s̪s̪s̪s̪s̪	-9.22431
ththththththʊʊʊʊ	-9.22702
dʒdʒdʒdʒdʒdʒdʒdʒdʒdʒdʒdʒdʒdʒdʒdʒdʒ	-9.22844
mmmmmmmmbbbb	-9.22931
mmmmmmmmmmmmmmmmmmm	-9.23075
ɑːɑːɑː	-9.23101
ɑɑɑɹɹɹɹɹɹɹ	-9.23188
ɫɫɫɫɫɫɫɫɫɫɫdd	-9.23274
ejejejejejejejejejejejejejejejejejejejejejejejej	-9.23296
ppppppppɹɹɹ	-9.23405
əəəɫɫɫɫɫɫɫɫɫ	-9.23458
xxxxxxxx	-9.235
ɪɪɪɪɪɪɪɪɪɪnnnnnn	-9.23547
mmmmmmmmdd	-9.23558
ɛɛɛnnn	-9.23582
kkkkkkkkssssssss	-9.23586
æææææææææææææææææææææææ	-9.23876
ɪɪɪŋŋŋŋŋŋŋ	-9.23887
ɹɹɹɹɹɪɪɪɪɪɪ	-9.23933
zzzzzzzəəəəəə	-9.23949
ɡɡɡɡɡɡɡɡɡɡɡɡɡ	-9.23954
ɹɹɹɹɹɹɪɪɪɪɪɪ	-9.23975
æææææææææænnnnnn	-9.24002
ɐɐɐɐɐɐɐɐɐɐɐɐɐɐɐɐ	-9.24182
ɪɪɪɪɪɪɪzzzzzzzzzz	-9.24186
ɫɫɫɫɫɫɫɫɫɫdd	-9.24374
hhhhhhhhhhhhhhhhh	-9.24443
ʃʃʃʃʃʃʃʃʃʃʃʃʃəəənnn	-9.24532
djdjdjdjdjdjdjdjɪɪɪɪ	-9.24562
ʎʎʎʎʎɪɪɪɪ	-9.24575
tjtjtjtjtjtjtjɪɪɪɪɪɪ	-9.24636
ɹɹɹɹɹɹɹiiiiiii	-9.24648
əəəəəəəənnnnnnnnnnn	-9.24735
ɫɫɫɫɫɫɫɫɫdd	-9.24784
ʊʊʊʊʊʊʊdd	-9.24815
əəəəəmmmmmmm	-9.25171
ʔʔʔʔʔʔʔʔʔʔʔʔʔʔ	-9.25324
çççççç	-9.25461
khkhkhkhkhkhəəəə	-9.2551
ɒɒɒɒɒɒɒɒɒɒɒɒɒɒɒɒɒɒɒɒ	-9.25516
çççɪɪɪɪɪ	-9.25531
mmmmmmmmɛɛɛɛɛɛɛ	-9.25545
ɑɑɑɑɑɑɑɑɑɑɑɑɑɑɑɑɑɑɑɑ	-9.25657
llləəə	-9.25798
wwwwwwwwɐɐɐɐɐɐ	-9.25871
ppppppɹɹɹɹ	-9.25872
sssssssspppppppp	-9.25911
ssssssssəəəə	-9.25924
ɔɔɔɔɔɔɔɔɔ	-9.25935
sssssssssssssssssssssssss	-9.26134
nnntttt	-9.26183
ʉːʉːʉːʉːʉːʉːʉːʉːʉːʉːʉːʉːʉːʉːʉːʉːʉːʉːʉːʉːʉːʉːʉː	-9.26193
ʉːʉːʉːʉːʉːʉːʉːʉːʉːʉːʉːʉːʉːʉːʉːʉːʉːʉːʉːʉːʉː	-9.26308
əəəmmm	-9.26331
djdjdjdjdjdjdjdjɪɪɪɪɪ	-9.26433
hhhhhhhhææææææææ	-9.26446
ɑɑɑɑɑɑɑɑɑɑɑɑɑɑɑɑɑɑɑɑɑɑ	-9.26491
ɒːɒːɒːɒːɒː	-9.26553
dddəəəə	-9.26927
əəəəəəmmmmmmmm	-9.27035
bjbjbjbjbjɪɪɪɪ	-9.27044
ɪɪɪɪɪɪɪɪɪɪɪɪɪɪɪɪɪɪɪ	-9.27169
ɪɪɪɪɪɪzzzzzzzzz	-9.27172
bbbbbajajajajajajajaj	-9.2721
ʃʃʃʃʃʃʃʃʃəəənnn	-9.27328
ɛɛɛɛɹɹɹɹɹɹɹ	-9.27401
djdjdjdjiiiiiiii	-9.27475
ççççççççiːiːiːiːiːiːiːiː	-9.27495
ɒɒɒɒɒɒɒɒɒɹɹɹɹɹɹɹɹ	-9.27647
wwwwɪɪɪɪɪ	-9.27718
ɝɝɝɝɝɝɝɝɝɝɝɝɝɝɝɝɝɝɝɝɝ	-9.27723
əəəəəəvvvv	-9.27774
ɪɪɪɪɪɪɪɪnnnnnnnnnn	-9.27804
ɪɪɪɪɪɪɪŋŋŋŋŋ	-9.27813
jjjjjjjjjjjjjjjj	-9.27896
dddəəəəəə	-9.27972
kkkkksssssss	-9.28
thththththʊʊʊ	-9.28067
ʊʊʊʊʊʊʊʊʊʊʊʊʊ	-9.28149
ɪɪɪɪɪɪɪɪʔʔʔ	-9.28165
sssssssssɪɪɪɪɪ	-9.28195
ɚɚɚɚɚɚɚɚɚɚɚɚɚɚɚɚɚɚɚɚɚɚɚɚ	-9.28218
ccccccccccccccc	-9.2832
ɾɾɾɾɾɾɾɾɾɾɾɾ	-9.28564
ɹɹɹɛɛɛ	-9.28577
ʎʎʎʎiiiiiiii	-9.2867
ssssssssssstttttttt	-9.2871
tʃtʃtʃ	-9.28792
ʃʃʃʃʃʃ	-9.28812
tjtjtjtjtjɪɪɪɪɪɪɪ	-9.28823
ɒɒɒɒɒɒɹɹɹɹɹɹ	-9.29032
ɛɛɛɛɛɹɹɹɹɹɹɹ	-9.29042
djdjdjdjdjɪɪɪɪɪɪɪɪ	-9.29103
ɛɛɛɹɹɹɹ	-9.29107
ɹɹɹɹɹɹɹɪɪɪɪɪɪɪ	-9.29188
ɹɹɹɹɹɹɹɹɹɹɹɹɹɹɹɹɹɹɹɹɹɹɹ	-9.29191
ɛɛɛɛɛɛɛɛɛɛɛɛɛɛɛɛɛɛɛ	-9.29297
sjsjsjsjsjsjsjsjsjsj	-9.29379
ʎʎʎʎʎʎʎʎiiiiii	-9.2938
fjfjfjfjfjfjfjfjɪɪɪɪ	-9.29396
ɛɛɛɛɛnnnnnnnn	-9.29432
ssssssssstttt	-9.29439
ʎʎʎɪɪɪɪ	-9.29447
ççççççççççççççç	-9.29473
ʎʎʎʎiiiii	-9.29511
ttttəəəəə	-9.29545
tjtjtjɪɪɪɪɪɪɪ	-9.29563
tttttəəəəə	-9.29608
ææææææææææænnnnn	-9.29651
ttttttssssssss	-9.29716
zzzzzzzzzzzzzzzzzzzzzzzzzzzz	-9.29756
tjtjtjtjɪɪɪɪɪɪɪɪ	-9.29796
ɛɛɛɹɹɹɹɹɹɹ	-9.29874
jjjee	-9.29881
ɒːɒːɒːɒːɒːɒːɒːɒːɒːɒːɒːɒːɒːɒː	-9.29907
əəəəɫɫɫɫɫɫɫɫɫɫɫ	-9.29935
ththththththththʉːʉːʉːʉː	-9.29999
ʒʒʒʒʒʒʒ	-9.30038
fjfjfjfjfjfjfjfjfjfjfjfjfjfjfjfj	-9.30087
pppppppppppppɹɹɹɹ	-9.30126
ɒɒɒɒɒɹɹɹɹɹɹ	-9.30232
mjmjmjmjmjmjmjmjɪɪɪɪɪɪ	-9.30252
ttttttəəəəə	-9.30273
ffffffffffɹɹɹɹ	-9.30282
ɲɲɲɲɪɪɪɪɪɪɪɪ	-9.30322
ɫɫɫɫɫɫɫɫɫɫɫɫdd	-9.30392
mjmjmjmjmjmjmjɪɪɪɪɪɪ	-9.30443
əəəəənnnnnnnnnnnn	-9.30495
kkkkkkkkəəə	-9.3084
əəəəəəənnnnnnnnnnnn	-9.30958
tjtjtjtjɪɪɪɪɪɪɪɪdd	-9.31108
wwwwwwwɐɐɐɐɐɐ	-9.31109
ɪɪɪɪŋŋŋŋŋ	-9.31113
ɛɛɛɛɛɛɛɛɹɹɹɹɹɹɹ	-9.31244
djdjdjdjdjdjɪɪɪɪɪɪɪɪ	-9.31246
ʐʐʐʐʐʐʐ	-9.31319
wwwwwwwwɐɐɐɐɐɐɐɐ	-9.31367
fffffffffɹɹɹɹ	-9.31442
ɪɪɪɪɪɪɪɪɪɪɪnnnnnnnn	-9.31482
ɪɪɪɪɪɪɪnnnnnnnnn	-9.31492
ɹɹɹɹɹɪɪɪ	-9.3152
thththththththththththththththththth	-9.31614
ɹɹɹɹɹɹiiiiiiii	-9.31619
ʉʉʉʉʉʉʉʉʉʉʉʉʉʉʉ	-9.3172
ɒɒɒɒɒɒɒɒɒɒɒɒɒɒɒɒɒɒɒɒɒɒ	-9.31738
wwwwwwwwwwwwwwwww	-9.31757
wwwwwwwɐɐɐɐɐ	-9.3176
pppppppplll	-9.31814
ʎʎʎʎɪɪɪɪ	-9.3185
ʎʎʎʎʎʎɪɪɪɪɪ	-9.31974
ajajajajajajajajajajajajajajajajajajajajajajajajajaj	-9.31983
ɛɛɛɛɛɛɛɹɹɹɹɹɹɹ	-9.31989
əəənnnttt	-9.31997
d̪d̪d̪d̪d̪d̪d̪d̪d̪d̪d̪d̪d̪d̪d̪d̪	-9.32019
ʊʊʊʊʊʊʊʊdd	-9.3207
rjrjrjrjrjrjrjɪ	-9.32085
əəəlll	-9.32211
kwkwkwkwkwkwkwkwkwkwkw	-9.32428
æææææææææænnnnnnn	-9.32485
kkkkkksssssss	-9.32523
mjmjmjmjmjmjmjɪɪɪ	-9.32538
tttttttəəəəə	-9.32715
djdjdjdjdjdjdjɪɪɪɪɪɪɪ	-9.32844
sssssssssssɪɪɪɪɪɪ	-9.32962
çççççççiːiːiːiːiːiː	-9.33098
ɪɪɪɪɪɪɪɪɪnnnn	-9.33242
ʎʎʎʎʎʎʎʎɪɪɪɪɪɪɪ	-9.33386
ɛɛɛɛnnnnn	-9.33401
ʐʐʐʐʐʐʐʐ	-9.3342
əəəmmmmm	-9.33457
əəənnnnnnnnnn	-9.33476
əəəəəənnnnnnnnnnnn	-9.33566
wwwwwwwɐɐɐɐɐɐɐ	-9.33629
tttttsssssss	-9.33881
ɛɛɛɛnnnn	-9.33916
wwwwwwwwɪɪɪɪɪɪ	-9.33976
wwwwwwwwɐɐɐɐɐ	-9.33979
owowowowowowowowowowowowowowowowowowowowowowowow	-9.34014
lllllllllllllll	-9.34107
ɒɒɒɒɒɒɒɒɒɒɹɹɹɹ	-9.34117
kkkkkkkəəəə	-9.34183
ɪɪɪɪɪɪɪɪɪɪnnnnn	-9.342
ʝ	-9.34332
ɪɪɪɪɪɪɪɪzzzzzzzzzzz	-9.34437
ɪɪɪɪɪɪɪɪɪɪzzzzzzzz	-9.34581
ɑɑɑɑɑɑɑɑɹɹɹ	-9.34591
sssssssttt	-9.34693
ɪɪɪɪɪɪɪɪɪzzzzzzz	-9.34708
pppppppppɹɹɹɹɹ	-9.34757
vvvvvvvvvvvvvvvv	-9.34776
ææææææææææænnnn	-9.34791
vjvjvjvjvjvjvjvjvjvj	-9.34833
ɒɒɒɒɒɒɒɒɒɹɹɹɹ	-9.34868
sjsjsjsjsjsjsjsjsjsjsj	-9.34921
ççççççççiːiːiːiː	-9.35195
ɛ	-9.35217
dddddddddddddddd	-9.35241
əəəəəəəənnnnnnnnnnnn	-9.35341
ssssssssssssɪɪɪɪɪ	-9.35356
ðððððððððð	-9.35404
ssssssssssɪɪɪɪɪɪ	-9.35553
jjjɪ	-9.35565
fffffffffffɹɹɹɹ	-9.35614
æææææææææænnnnnnnn	-9.3563
sjsjsjsjsjsjsjsjsj	-9.35701
sjsjsjsjsjsjsj	-9.35772
mjmjmjmjmjmjmjmjmjmjmjmj	-9.35837
çççççççiːiːiːiːiːiːiː	-9.359
ɲɲɲɲɲiiiiiii	-9.35911
ɹɹɹɹɹiiiiiiii	-9.36102
ʋʋʋʋʋʋ	-9.36138
n̪n̪n̪n̪n̪n̪n̪n̪n̪	-9.36201
thththʊʊʊ	-9.36344
kkkkkkkkkkkkkkkkkkkkk	-9.36412
çççç	-9.36445
d̪d̪d̪d̪d̪d̪d̪d̪d̪d̪d̪d̪d̪d̪d̪d̪d̪d̪d̪d̪d̪d̪	-9.36533
ɛɛɛɛɛɛɛnnn	-9.36595
ɛɛɛɛɛɛɛkkkkkkk	-9.36599
s̪s̪s̪s̪s̪s̪s̪s̪s̪s̪s̪s̪s̪	-9.36624
ttttttttssssssss	-9.36631
mmmmmmməəəə	-9.36724
θθθθθθθθθθθθθθθθθθ	-9.36744
əəəəɹɹɹɹɹɹɹɹ	-9.36754
ɛɛɛɹɹɹɹɹ	-9.36791
nnnnəəəəə	-9.36812
əəəəəvvv	-9.36843
ssssssstttt	-9.36851
ɪɪɪɪɪɪɪɪɪɪɪɪɪɪdd	-9.36889
fjfjfjfjfjfj	-9.36931
ssssssssssssɪɪɪɪ	-9.36935
ɔjɔjɔjɔjɔjɔjɔjɔjɔjɔjɔjɔjɔjɔj	-9.3696
əəəəəəɫɫɫɫ	-9.36997
khkhkhkhkhkhkhkhkhəəəə	-9.37056
tʃtʃtʃtʃtʃtʃtʃtʃtʃtʃtʃtʃtʃtʃtʃtʃtʃtʃtʃtʃ	-9.37082
iiiəəə	-9.37098
ɔjɔjɔjɔjɔjɔjɔjɔjɔjɔjɔjɔj	-9.37157
ɒɒɒɒɹɹɹɹɹ	-9.37296
mjmjmjmjmjmjɪɪɪɪ	-9.37411
ɔjɔjɔjɔjɔjɔjɔjɔjɔjɔjɔjɔjɔj	-9.37531
əəəənnnnnnnnnnn	-9.37597
ɪɪɪɪɪɪɪŋŋŋŋŋŋŋŋŋ	-9.37721
bjbjbjbjɪɪɪ	-9.37726
ɲɲɲɪɪɪ	-9.37732
ŋŋŋŋŋŋŋŋŋŋŋŋŋŋŋŋ	-9.37826
ɪɪɪɪɪzzzzzzzzz	-9.37928
d̪d̪d̪d̪d̪d̪d̪d̪əəəəəə	-9.37964
ffffffffɹɹɹəəə	-9.38046
ssssssttttt	-9.3805
çççççççiːiːiːiːiː	-9.38219
mjmjmjmjmjmjɪɪɪɪɪ	-9.38238
ŋŋŋŋŋŋŋŋŋŋŋŋŋŋŋŋŋ	-9.38535
djdjdjdjdjdjdjdjɪɪɪɪɪɪ	-9.38566
t̪t̪t̪t̪t̪t̪t̪t̪t̪t̪t̪t̪	-9.38612
hhhhhhhhæææææ	-9.38662
æææææænnnnn	-9.38672
sssssstttttttt	-9.38754
kwkwkwkwkwkwkwkwkwkwkwkw	-9.38821
ooo	-9.39004
əəəɫɫɫɫɫɫɫɫɫɫ	-9.39009
d̪d̪d̪d̪d̪iːiːiːiːiːiːiːiːiː	-9.39145
sssssssssssssttttttt	-9.39388
ɛɛɛɛɛɛɹɹɹɹɹɹɹ	-9.39425
zzzzzzzzzzdd	-9.39468
ɪɪɪŋŋŋŋŋŋ	-9.39487
ɨɨ	-9.39673
kkkkkkkkkkkkkkkkkkkkkkk	-9.39734
ɪɪɪɪɪɪɪɪɪɪɪɪɪɪɪɪɪɪɪɪɪɪ	-9.39745
ɑɑɑɹɹɹɹɹɹɹɹɹ	-9.39746
ffffffffffffffffffffff	-9.39784
ɪɪɪɪɪɪɪɪŋŋŋŋŋŋŋŋŋ	-9.39915
ɑːɑːɑːɑːɑː	-9.39961
ɒɒɒɒɒɒɒɒɹɹɹɹɹɹɹɹɹ	-9.40029
ɛɛɛɛɛɛɛɛnnn	-9.40071
ɪɪɪŋŋŋ	-9.40097
ʎʎʎʎʎʎʎɪɪɪɪɪɪ	-9.40178
ssssssssppppppp	-9.40219
hhhhhhhhææææææ	-9.4054
nnnnəəəəəə	-9.40597
çççççççiːiːiːiːiːiːiːiː	-9.40607
ɲɲɲɲɲɲɲɲɲɲɲɲɲɲ	-9.40686
ɲɲɲɲiiiiiii	-9.40687
ɲɲɲɲɲɪɪɪɪɪɪɪɪ	-9.40704
ɪɪɪɪɪɪɪɪʔʔʔʔʔʔʔ	-9.40785
wwwwɪɪɪ	-9.40802
ɟɟɟɟɟɟɟɟɟɟɟɟ	-9.40805
ooooooooo	-9.40872
ɑːɑːɑːɑːɑːɑːɑːɑːɑːɑːɑːɑːɑːɑːɑːɑː	-9.40923
rrrrrrrr	-9.41088
ççççççççɪɪɪɪɪ	-9.41161
bjbjbjbjɪɪɪɪɪ	-9.41173
ʎʎʎʎʎiiii	-9.41185
ssssssssssəəəə	-9.41203
ɪɪɪɪɪkkkkkkkk	-9.41226
ɪɪɪɪɪɪɪzzzzz	-9.41299
ɲɲɲɲɪɪɪɪ	-9.41329
ɪɪɪɪɪŋŋŋŋ	-9.41484
hhhhhhhhææææ	-9.41628
çççççççɪɪɪɪɪ	-9.4166
ttttttttəəəəə	-9.4173
wwwwwwwɪɪɪɪɪɪ	-9.41734
ɑɑɑɑɹɹɹɹɹɹɹ	-9.41893
əəəɹɹɹɹ	-9.41918
tjtjtjtjtjiiiiiiii	-9.4204
ejejejejejejejejejejejejejejejejejejejejejejejejej	-9.42081
ppppppppppɹɹɹɹɹ	-9.42171
dʒdʒdʒdʒdʒdʒdʒdʒdʒdʒdʒdʒdʒdʒdʒdʒdʒdʒ	-9.4218
ɪɪɪɪɪɪŋŋŋŋŋŋŋŋŋ	-9.42202
ɪɪɪɪɪɪɪɪɪɪɪnnnnnnn	-9.42211
ææææææææææænnnnnn	-9.42237
ɹɹɹɹɹɹɪɪɪɪɪɪɪ	-9.42301
ɛɛɛɛɹɹɹɹɹɹ	-9.42352
bjbjbjbjbjɪɪɪɪɪ	-9.42388
mmmmmmmmɛɛɛɛɛɛɛɛ	-9.42405
ɛɛɛɛɛkkkkkkkk	-9.4245
sssssssssssssstttttt	-9.42573
ɔjɔjɔjɔjɔjɔjɔjɔjɔjɔjɔj	-9.42678
kwkwkwkwkwkwkwkwkwkw	-9.42729
iiiiiiiiiiiiiiiiiiiiiiii	-9.42819
pppppppɹɹɹɹɹ	-9.4287
tjtjtjtjtjɪɪɪɪɪɪɪɪdd	-9.43116
zzzzzzzzzzzdd	-9.43174
ʎʎʎʎʎɪɪɪɪɪ	-9.43219
bjbjbjbjbjbjbjɪɪɪɪ	-9.43251
ʃʃʃʃʃʃʃʃəəənnn	-9.43315
tjtjtjtjtjtjɪɪɪɪɪɪ	-9.43421
ɛɛɛɛɛɹɹɹ	-9.43638
ppppppppɹɹɹəəə	-9.43646
djdjdjdjdjdjdjdjɪɪɪɪɪɪɪ	-9.43765
ɹɹɹɹɹɹiiiiiii	-9.43766
lllllllləəəə	-9.43799
ttttttttɚɚɚ	-9.43818
ɛɛɛɹɹɹɹɹɹ	-9.43879
ɹɹɹɹɹɪɪɪɪɪɪɪ	-9.43883
ɑɑɑɑɑɑɑɑɹɹɹɹɹɹɹ	-9.4397
d̪d̪d̪d̪d̪iːiːiːiːiːiː	-9.44033
nnnntttt	-9.4412
ɪɪɪɪɪɪŋŋŋŋ	-9.44147
əəəəəvvvvvvvvv	-9.44208
ɛɛɛɛɛɛɛɛɛnnnnnnnn	-9.44335
ææææææænnn	-9.44343
ççççççççɪɪɪɪɪɪ	-9.44451
z̪z̪z̪z̪z̪z̪z̪z̪z̪	-9.44528
ɛɛɛɛnnnnnn	-9.44543
wwwwwwɪɪɪɪɪɪ	-9.44563
tttttttttttttɹɹɹɹ	-9.44623
ɛɛɛɛɹɹɹɹɹ	-9.44646
d̪d̪d̪d̪d̪əəəəəəəə	-9.44957
zzzzzzzzɪɪɪɪɪ	-9.44959
əəəəɫɫɫɫɫɫɫɫɫɫɫɫ	-9.45212
tʃtʃtʃtʃtʃtʃtʃtʃtʃtʃtʃtʃtʃtʃtʃtʃtʃtʃtʃtʃtʃtʃ	-9.45236
sssssssssəəəə	-9.45307
tjtjtjtjtjtjtjtjtjɪɪɪ	-9.45374
tjtjtjtjtjtjtjtjtjtjtjtjtjtjtjtj	-9.45396
bbbbbbbbbbbbbbbb	-9.45415
ɪɪɪɪɪɪɪɪzzzzzzzzzzzz	-9.45421
ʎʎʎiiiii	-9.45509
mjmjmjmjmjmjmjmjɪɪɪ	-9.45689
ɒɒɒɒɒɒɹɹɹɹɹ	-9.45767
vvvvvvvvvvvvvvvvv	-9.45807
mmmmmmmmmmmmmmmmmmmm	-9.45845
kkkkkkksssssss	-9.45917
ɪɪɪɪɪɪɪɪʔʔʔʔʔ	-9.45919
bjbjbjbjbjɪɪɪ	-9.45955
ɹɹɹɹɪɪɪɪɪɪɪ	-9.45978
ɔjɔjɔjɔjɔjɔjɔjɔjɔjɔjɔjɔjɔjɔjɔj	-9.45985
wwwwwɪɪɪɪɪɪ	-9.46012
d̪d̪d̪d̪əəəəəəəə	-9.46055
ɛɛɛɛɛɹɹɹɹɹɹ	-9.46083
ʎʎʎʎʎʎʎɪɪɪ	-9.46098
ɹɹɹɹɹɹɹɹɪɪɪɪɪɪɪɪ	-9.46161
sssssssssɪɪɪɪɪɪ	-9.46294
ʎʎʎʎʎʎʎʎiiiii	-9.46361
æææææænnnnnn	-9.46394
nnnnnnnnmmmm	-9.46457
ɒɒɒɒɒɒɒɒɒɒɹɹɹɹɹɹɹɹ	-9.46465
ththththththththʊʊʊʊʊ	-9.46489
sssssssssssssttttt	-9.46754
wwwɪɪɪɪ	-9.46819
ɪɪɪɪɪŋŋŋŋŋŋŋŋŋ	-9.46823
hhhhæææ	-9.46895
ɒːɒːɒːɒːɒːɒːɒːɒːɒːɒːɒːɒːɒːɒːɒː	-9.46897
mjmjmjmjmjmjmjmjɪɪɪɪɪɪɪ	-9.46926
ɛɛɛɛɛɛkkkkkkk	-9.46967
tttttttsssssss	-9.47008
tttsss	-9.47049
ɔjɔjɔjɔjɔjɔjɔjɔj	-9.47054
ɪɪɪɪkkkkkkkk	-9.47054
ɒɒɒɹɹɹɹɹɹɹɹɹ	-9.47109
d̪d̪d̪d̪iːiːiːiːiːiːiːiːiː	-9.47131
ɹɹɹɹɹɹɹɹɹɪɪɪɪ	-9.47164
ɪɪɪɪɪɪɪɪŋŋŋŋŋŋŋŋŋŋ	-9.47169
ɪɪɪɪɪɪzzzzzzzzzz	-9.47188
ʊʊʊʊʊʊʊʊʊʊʊʊʊʊ	-9.47255
ttttssssss	-9.47266
ajajajajajajajajajajajajajajajajajajajajajajajajajajaj	-9.4728
ɒɒɒɒɒɒɒɒɒɹɹɹɹɹɹɹ	-9.47403
ʎʎʎʎʎʎiiii	-9.47407
uuuu	-9.4743
ttttttsssssss	-9.4744
fffffffffffffffffffff	-9.47448
tttttttɚɚɚ	-9.47586
ʉʉʉʉʉʉʉʉʉʉʉʉʉʉʉʉ	-9.47639
kwkwkwkwkwkwkwkw	-9.47658
ʎʎʎiiiiiii	-9.47668
ɨɨɨɨɨɨɨɨ	-9.47678
phphphphphphphphphphphphphphphphphph	-9.47697
ʔʔʔʔʔʔʔʔʔʔʔʔʔʔʔ	-9.47703
ʎʎʎiiiiii	-9.4781
djdjdjdjdjiiiiiiii	-9.47824
əəəəmmmmm	-9.47827
ææææææææææænnnnnnn	-9.47916
tttttttttɹɹɹ	-9.47957
ɑɑɑɑɹɹɹɹɹɹɹɹɹ	-9.48088
ɛɛɛɛɛnnn	-9.48169
sssssssssstttt	-9.48198
ɫɫɫɫɫɫɫɫɫɫɫɫɫdd	-9.48208
ɹɹɹɹɹiiiiiii	-9.4822
ææææææææææænnnnnnnn	-9.48224
ɒɒɒɒɒɒɒɹɹɹ	-9.48327
çççççççɪɪɪɪɪɪ	-9.48346
hhhhhhhæææææææ	-9.4837
ssssssssɪɪɪ	-9.4844
vvvəəə	-9.48523
ɛɛɛɛɛɛɛɛkkkkkkk	-9.48605
khkhkhkhkhkhkhkhkhkhkhkhkhkhkhkhkhkh	-9.48824
zzzzzzəəəəəə	-9.48912
ɫɫɫɫɫɫɫdd	-9.48929
wwwwwwwɐɐɐɐɐɐɐɐ	-9.48942
ɪɪɪɪɪɪɪɪnnnnnnnnnnn	-9.49
ɐɐɐɐɐɐɐɐɐɐɐɐɐɐɐɐɐ	-9.49017
mmmmmmməəə	-9.49053
ffffffffɚɚɚɚ	-9.49121
jjjjjjjjjjjjjjjjj	-9.4915
awawaw	-9.49223
ɪɪɪɪɪɪɪɪɪɪnnnn	-9.49425
ɹɹɹɹɹɹɹɹiiiiii	-9.49436
ɛɛɛɛɹɹɹɹ	-9.49615
mjmjmjmjmjmjmjɪɪɪɪɪɪɪ	-9.4964
ɾɾɾɾɾɾɾɾɾɾɾɾɾ	-9.49647
əəəəəbbbbbbbb	-9.49715
ɒɒɒɒɹɹɹɹɹɹɹɹɹ	-9.49722
pjpjpjpj	-9.49815
əəəəəəəmmmmmmmm	-9.49857
d̪d̪d̪d̪iːiːiːiːiːiː	-9.49862
æææææææææææænnnnn	-9.49917
ssssssssssssssssssssssssss	-9.4999
••••••••••••••••••••••••••••••••••••••••••••••••••••••	-9.50018
ɑɑɑɑɑɑɑɑɑɑɑɑɑɑɑɑɑɑɑɑɑ	-9.50069
ʃʃʃʃʃʃʃʃʃʃʃʃʃʃʃʃʃʃʃʃʃʃ	-9.50149
ɝɝɝɝɝɝɝɝɝɝɝɝɝɝɝɝɝɝɝɝɝɝɝ	-9.50173
bjbjbjbjbjbjbjbjɪɪɪɪ	-9.50189
ɪɪɪɪɪɪɪɪɪɪɪnnnnnn	-9.50251
hhhhhhhæææææ	-9.50311
awawawawawaw	-9.50318
ɪɪɪɪɪɪɪŋŋŋŋŋŋŋŋŋŋ	-9.50345
tjtjtjtjtjɪɪɪɪɪɪɪɪ	-9.50429
sssssssstjtjtjtjtjtj	-9.50521
əəəəəəəəvvvvvvvvv	-9.50555
ɪɪɪɪɪɪɪɪŋŋŋŋŋŋ	-9.50557
ʋʋʋʋʋ	-9.50568
ɲɲɲɲɲɲiiiiiiii	-9.50646
ffffffffɚɚɚ	-9.50649
zzzzzzzzzzzzdd	-9.5078
ssssssssssssɪɪɪɪɪɪ	-9.50944
d̪d̪d̪d̪d̪d̪iːiːiːiːiːiːiː	-9.5099
dddəəəəəəə	-9.51018
wwwwwɪɪɪ	-9.51117
ɐɐɐɐɐɐɐɐnnnnnnnn	-9.51118
ççççɪɪɪɪɪ	-9.51148
ɛɛɛɛɛɛɛɛɹɹɹ	-9.51227
ʎʎʎʎʎʎʎʎɪ	-9.51295
tjtjtjtjtjtjtjtjtjɪɪɪɪ	-9.51336
əəəəəəəəəvvvvvvvv	-9.51423
ɛɛɛɛɛɛɹɹɹɹɹɹ	-9.51539
pppppppppllll	-9.51559
kkkkkkksssssssss	-9.51676
ccccccccʎʎʎʎ	-9.51777
sssssssssssstttttttt	-9.51798
mmmmmmməəəəə	-9.51843
əəəəəəəənnnnnnnnnnnnn	-9.51843
ɛɛɛɛɛɛnnn	-9.51865
rjrjrjrjrjrjrjrjɪ	-9.51867
ɛɛɛɛɛɛɛɛɛnnnnnnn	-9.51928
ʎʎʎʎʎʎʎʎʎiiiiiiii	-9.51963
hhhhhhhææææææææ	-9.51994
zzzzzzzzzzzzzzzzzzzzzzzzzzzzz	-9.52003
d̪d̪d̪d̪d̪d̪d̪əəəəəəə	-9.52064
ʎʎʎʎʎʎʎiiii	-9.52116
ɒɒɒɒɒɒɒɒɒɒɒɒɒɒɒɒɒɒɒɒɒ	-9.5214
wwwwwwɐɐɐɐɐ	-9.52154
ɫɫɫɫɫɫɫɫɫɫɫɫɫɫɫɫɫɫɫɫɫɫɫɫ	-9.52178
ppppppppppppppppp	-9.52196
khkhkhkhkhkhkhkhkhkhəəə	-9.52273
əəəəəəənnnnnnnnnnnnn	-9.52362
owowowowowowowowowowowowowowowowowowowowowowowowow	-9.52378
s̪s̪s̪s̪s̪	-9.52396
ɛɛɛɛɛɹɹɹɹɹ	-9.52431
vvvvvvvvvdd	-9.52537
fjfjfjfjfjfjfjfjɪɪɪɪɪ	-9.52596
ɛɛɛɛnnn	-9.52637
ssssssssɪɪɪɪɪɪ	-9.52674
ɹɹɹɹɹɹɹɹɹɪɪɪɪɪ	-9.52743
sssssssssssɪɪɪɪɪɪɪ	-9.52767
bjbjbjbjbjbjbjbjbjbjbjbj	-9.52773
mmmmmmbbbb	-9.52779
pjpjpjpjpjpjpjpjɪɪɪ	-9.52796
ɑɑɑɹɹɹɹɹɹɹɹɹɹ	-9.52872
ɹɹɹɪɪɪɪɪɪ	-9.53021
ʒʒʒʒʒʒʒʒʒʒʒʒ	-9.53022
çççɪɪɪɪɪɪ	-9.53073
ŋŋŋ	-9.53102
ʎʎʎʎʎʎʎʎʎʎʎʎʎʎʎ	-9.53147
chchchchchchchchchchchchchchchchch	-9.53178
ɒɒɒɒɒɒɒɹɹɹɹɹɹɹɹɹ	-9.53303
ɪɪɪɪɪɪɪɪɪɪɪzzzzzzzz	-9.53304
sjsjsjsjsjsjsjsjsjsjsjsj	-9.53353
ææææææææænnn	-9.53374
ɪɪɪɪɪɪɪzzzzzzzzzzz	-9.53394
ɒɒɒɒɒɒɒɒɒɒɒɹɹɹɹ	-9.53432
tjtjtjɪɪɪɪɪɪɪɪ	-9.53435
hhhhhhhææææ	-9.53457
ɚɚɚɚɚɚɚɚɚɚɚɚɚɚɚɚɚɚɚɚɚɚɚɚɚ	-9.5376
mmmmmmmmmmmmmmmmmmmmmm	-9.53808
ththththththththththʊʊʊ	-9.53827
ɔɔɔɔɔɔɔɔɔɔ	-9.53863
ɔjɔjɔjɔjɔjɔjɔjɔjɔjɔj	-9.54051
ɲɲɲɲɲɪɪɪɪ	-9.54094
ɑɑɑɑɑɑɑɑɹɹɹɹɹ	-9.54113
nnnəəə	-9.54149
pjpjpjpjpjpjpjpjpjpjpjpjpj	-9.54193
ççççɪɪɪɪ	-9.54222
əəəɫɫɫɫɫɫɫɫɫɫɫ	-9.54291
ɪɪɪɪɪɪŋŋŋŋŋŋŋŋŋŋ	-9.54325
ɹɹɹɹɹɹɹɪɪɪɪɪɪɪɪ	-9.54373
kkkkssssssss	-9.54425
djdjdjdjdjdjdjdjdjdjdjdj	-9.54494
ʎʎʎʎʎʎʎʎʎɪɪɪɪ	-9.54566
ththththththththʉːʉːʉːʉːʉː	-9.54634
ʎʎʎʎʎʎʎʎɪɪɪɪɪɪɪɪ	-9.5466
əəəəvvvvvvvvv	-9.54669
ppppppppppllll	-9.54712
əəəəbbbbbb	-9.5474
eeeeeeeeee	-9.54767
ɪɪɪŋŋŋŋŋ	-9.54785
ððððəəə	-9.54801
mmmmmmmɛɛɛɛɛɛɛ	-9.54816
d̪d̪d̪d̪d̪iːiːiːiːiː	-9.54828
ççççɪɪɪ	-9.54837
ɹɹɹɹɹɹɪɪɪ	-9.54933
pppppppɹɹɹ	-9.54989
zzzzzzzzdd	-9.55048
kwkwkwkwkwkwkwkwkwkwkwkwkw	-9.55061
ttttttɚɚɚ	-9.55063
vjvjvjɪ	-9.55084
ɪɪɪɪɪɪnnnnnnnnn	-9.55104
ejejejejejejejejejejejejejejejejejejejejejejejejejej	-9.55181
bjbjbjbjbjbjbjɪɪɪ	-9.55199
••••••••••••••••••••••••••••••••••••••••••••••••••••••••	-9.55285
zzzzzzzzzdd	-9.55308
ʎʎʎiiii	-9.55341
ɪɪɪɪɪɪɪɪŋŋŋŋŋŋŋŋŋŋŋ	-9.55595
zzzzzzzzɪɪɪɪɪɪ	-9.55599
pppppppəəəə	-9.5569
əəəəəəəvvvvvvvvv	-9.55735
d̪d̪d̪d̪d̪d̪d̪d̪d̪d̪d̪d̪d̪d̪d̪d̪d̪	-9.55738
ççççççççɪɪɪɪɪɪɪ	-9.55741
əəəəəəəɫɫɫɫ	-9.5575
æææææænnnn	-9.55795
tjtjtjtjiiiiiiii	-9.55844
ɛɛɛɛnnnnnnn	-9.55955
ççççççççɪɪɪɪ	-9.55997
æææææænnnnnnnn	-9.56005
çççççççççiːiːiːiːiːiːiː	-9.56047
d̪d̪d̪d̪d̪iːiːiːiːiːiːiːiːiːiː	-9.56149
ɛɛɛɛɫɫɫɫɫɫɫɫ	-9.5616
ɪɪɪɪɪɪɪɪɪɪɪɪɪɪɪɪɪɪɪɪ	-9.56168
pppppppppəəə	-9.56296
bjbjbjbjbjbjɪɪɪɪ	-9.56315
ɫɫɫɫɫɫɫɫɫɫɫɫɫɫdd	-9.56366
ɔjɔjɔjɔjɔjɔjɔjɔjɔjɔjɔjɔjɔjɔjɔjɔj	-9.56399
ʎʎʎʎʎʎʎɪɪɪɪɪɪɪ	-9.56436
vvvvvəəəə	-9.5649
ɪɪɪɪɪɪɪɪɪɪɪɪnnnnnnnn	-9.56614
hhhhhhhææææææ	-9.5662
ɑɑɑɑɑɑɑɹɹɹɹɹɹɹ	-9.56629
əəəəəəvvvvvvvvv	-9.56708
ʃʃʃʃʃʃʃʃʃʃʃʃʃʃʃʃʃʃʃʃʃ	-9.56718
æææææænnnnnnn	-9.56723
ɒɒɒɒɒɹɹɹɹɹ	-9.56744
ɪɪɪɪɪkkkkkkk	-9.56755
əəəəəəəvvvv	-9.56761
zzzzzzzɪɪɪɪɪ	-9.56908
tʃtʃtʃtʃtʃtʃ	-9.56912
d̪d̪d̪d̪d̪iːiːiːiː	-9.56916
ɪɪɪɪɪɪɪŋŋŋŋ	-9.56937
rjrjrjrjrjrjɪ	-9.57006
əəəəəənnnnnnnnnnnnn	-9.57063
ɫɫɫɫɫɫɫɫddd	-9.57158
ʎʎʎʎʎʎɪɪɪɪɪɪ	-9.57181
ɛɛɛɛɛɛɹɹɹ	-9.572
ççççççççiːiːiː	-9.57208
ʎʎʎʎiiii	-9.57236
ɦɦɦɦɦɦɦɦ	-9.57246
ɐɐɐɐɐɐɐmmmmmmmm	-9.5726
ɪɪɪɪɪɪɪnnnnnnnnnn	-9.57404
d̪d̪d̪d̪iːiːiːiːiː	-9.57506
ɑɑɑɑɑɑɑɑɑɹɹɹɹ	-9.57553
əəəɲɲɲ	-9.57583
•••••••••••••••••••••••••••••••••••••••••••••••••••••••	-9.57668
ttttttttttɹɹɹ	-9.57784
bjbjbjbjbjbjbjbjɪɪɪ	-9.57831
ɪɪɪɪɪŋŋŋŋŋŋŋŋŋŋ	-9.57879
ɪɪɪɪɪɪɪɪɪɪzzzzzzz	-9.57932
ɲɲɲɲɲɲɲɲɲɪ	-9.5806
ɪɪɪzzzzzzzz	-9.58094
çççççççɪɪɪɪ	-9.58107
ɹɹɹɹejejejejejejejej	-9.58192
ɪɪɪɪɪɪɪɪɪɪɪnnnnn	-9.58266
pppppppppppɹɹɹɹɹ	-9.58272
ssssssssssɪɪɪɪɪɪɪ	-9.58307
çççççççiːiːiːiː	-9.58307
çççççççççiːiːiːiːiːiː	-9.58335
aaaa	-9.58357
ɲɲɲɪɪɪɪɪ	-9.58405
ssssssssssɪɪɪ	-9.58668
kwkwkwkwkwkwkwkwkw	-9.58737
ɛɛɛɛɛɛɛɛɛɛɛɛɛɛɛɛɛɛɛɛ	-9.58754
ɹɹɹɹɹɹɹɹɪɪɪ	-9.58817
ɪɪɪɪɪɪzzzzz	-9.58835
ɪɪɪɪɪɪɪɪzzzzz	-9.58877
əəəəɫɫɫɫɫɫɫɫɫɫɫɫɫ	-9.58962
ɹɹɹɹiːiːiːiːiːiːiːiː	-9.59006
djdjdjdjdjdjdjdjɪɪɪ	-9.59036
xxxxxxxxx	-9.59081
mjmjmjmjmjmjɪɪɪ	-9.59253
ɲɲɲɲɲɲɪɪɪɪɪɪɪ	-9.59269
ttttttttɹɹɹɹɹ	-9.59426
əəəəəəəəənnnnnnn	-9.59429
ððððəəəə	-9.59457
ɑɑɑɑɑɑɹɹɹɹɹɹɹ	-9.59472
çççççççççiːiːiːiːiː	-9.59605
t	-9.59713
•••••••••••••••••••••••••••••••••••••••••••••••••••••••••	-9.59727
tjtjtjtjtjtjtjtjɪɪɪɪɪɪɪ	-9.59734
iːiːiːiːiːiːiːiːiːiːiːiːiːiːiːiːiːiːiːiːiːiːiːiː	-9.59783
wwwwwwɐɐɐɐɐɐ	-9.59829
ɒɒɒɒɒɒɹɹɹɹ	-9.59886
nnnnnnnnnnnnn•••	-9.60199
ɛɛɛɛɛɛɛɛɛnnnnnn	-9.60235
ɛɛɛɛɛɛɹɹɹɹɹ	-9.60262
ʐʐʐʐʐʐ	-9.60264
iiiiiiiiiiiiiiiiiiiiiiiii	-9.60361
tʃtʃtʃtʃtʃtʃtʃtʃtʃtʃtʃtʃtʃtʃtʃtʃtʃtʃtʃtʃtʃ	-9.60367
zzzzzzzzzzzzz•••	-9.60435
æææææææææææænnnn	-9.60468
aaaaaaaaaaa	-9.60538
ɛɛɛɛɛɛɛɛɹɹɹɹɹɹɹɹɹ	-9.60646
ʎʎʎʎɪɪɪɪɪ	-9.60683
ɡɡɡɡɡɡɡɡɡɡɡɡɡɡ	-9.6075
mmmmmmmmɛɛɛɛɛɛ	-9.60799
jjjʉːʉːʉː	-9.60895
ɪɪɪɪzzzzzz	-9.60937
ɑɑɑɹɹɹ	-9.60982
ɪɪɪɪɪzzzzz	-9.61102
kkkkkksssssssss	-9.61103
ɪɪɪɪɪɪɪɪʔʔʔʔʔʔʔʔ	-9.61152
tjtjtjtjɪɪɪɪɪɪɪdd	-9.61175
æææʔʔʔʔ	-9.61214
tjtjtjɪɪɪɪɪɪɪɪdd	-9.61222
ʎʎʎiiiiiiii	-9.61228
dʒdʒdʒdʒdʒdʒdʒdʒdʒdʒdʒdʒdʒdʒdʒdʒdʒdʒdʒ	-9.61251
ɑɑɑɑɑɑɑɑɑɑɹɹɹɹ	-9.61358
ɒɒɒɒɒɒɒɒɒɹɹɹ	-9.61427
wwwwwwwɐɐɐɐ	-9.61504
ththththththththʉːʉːʉː	-9.61506
ɛɛɛnnnn	-9.61526
ththththʊʊʊ	-9.61689
ɒɒɒɒɒɒɒɒɒɹɹɹɹɹ	-9.61703
nnnnnd̪d̪d̪əəə	-9.61721
mmmmmmmɛɛɛɛɛɛɛɛ	-9.618
æææææææææææænnnnnn	-9.61843
ʎʎʎʎʎɪɪɪ	-9.61875
tttttttɚɚɚɚ	-9.61932
ʂʂʂʂʂʂʂʂ	-9.62043
tjtjtjtjtjtjɪɪɪɪɪɪɪ	-9.6205
ɛɛɛɛɛɛɛɛnnnnnnnnn	-9.62106
ɒɒɒɒɹɹɹɹ	-9.62127
ɑɑɑɑɑɹɹɹɹɹɹɹ	-9.62179
ɪɪɪɪɪɪɪŋŋŋŋŋŋŋŋŋŋŋ	-9.62204
ɹɹɹɹɹɹɹɪɪɪ	-9.62298
ɒɒɒɒɒɒɒɒɒɒɹɹɹ	-9.6231
çççççççççççççççç	-9.62328
əəəəəəɫɫɫɫɫɫɫɫ	-9.62379
ɪɪɪɪɪɪkkkkkkkk	-9.62448
əəəəənnnnnnnnnnnnn	-9.62555
ppppppppppppppɹɹɹɹ	-9.62558
z̪z̪z̪z̪z̪	-9.62558
ɛɛɛɛɛɛɛɛɛɛɛɛɛɛɛɛɛɛɛɛɛɛ	-9.62566
wwwwwwɐɐɐɐɐɐɐ	-9.62575
ɛɛɛɛɛɹɹɹɹ	-9.62708
iiiiiiiiiiiiiiiii•••	-9.62835
thththththththʊʊʊʊʊ	-9.62858
fjfjfjfjfjfjfjfjɪɪɪ	-9.6288
ɑːɑːɑːɑː	-9.62888
wwwwwwwwɐɐɐɐ	-9.63101
ɲɲɲɲɲɲɪɪɪɪɪɪ	-9.63116
ffffffffffffɹɹɹɹ	-9.6322
hhhhhhhhhhhhhhhhhh	-9.6322
bjbjbjbjbjbjbjɪɪɪɪɪ	-9.63274
sssssssssttt	-9.63359
əəəəəəəənnnnnnnnnnnnnn	-9.63442
pppppppppɹɹɹ	-9.63458
djdjdjdjdjdjdjɪɪɪɪɪɪɪɪ	-9.63484
ɒːɒːɒːɒːɒːɒːɒːɒːɒːɒːɒːɒːɒːɒːɒːɒː	-9.63487
ccccccccɹɹɹɹ	-9.63532
əəəəəəəəəəvvvvvvvv	-9.63568
ddddddddddddddddd	-9.63576
əəəəəəəəəvvvvvvv	-9.63596
sssssttttttt	-9.63625
zzzzzzzzzzzzzz•••	-9.63705
tttttssssss	-9.63754
ɑɑɑɑɑɑɑɹɹɹɹ	-9.63757
ssssstttttt	-9.63832
ʎʎʎʎɪɪɪ	-9.63852
owowowowowowowowowowowowowowowowowowowowowowowowowow	-9.63892
fffffffɹɹɹəəə	-9.63892
ɲɲɲɪɪɪɪɪɪ	-9.64007
θθθθθθθθθθθθθθθθθθθ	-9.64131
ɒɒɒɒɒɒɒɒɒɒɹɹɹɹɹɹɹ	-9.6414
pppppppllll	-9.64165
vvvvvvəəəə	-9.64313
mmmmmməəəəə	-9.64347
æææææææænnnnnnnnn	-9.64445
xxxxxxxxxx	-9.64583
ɹɹɹɹɹiːiːiːiːiːiːiːiː	-9.64719
sssssssssɪɪɪ	-9.64804
sssssssssssɛɛɛɛɛɛɛ	-9.64812
khkhkhkhkhkhkhkhkhkhəəəə	-9.64973
djdjdjɪɪɪɪɪɪɪ	-9.65044
mjmjmjmjmjmjɪɪɪɪɪɪ	-9.65048
ʔʔʔʔʔʔʔʔʔʔʔʔʔʔʔʔ	-9.65054
pppppɹɹɹɹ	-9.65079
djdjdjdjɪɪɪɪɪɪɪɪdd	-9.65086
ʎʎʎʎʎʎɪɪɪ	-9.65168
d̪d̪d̪d̪iːiːiːiːiːiːiːiːiːiː	-9.65202
əəəʎʎʎ	-9.65212
d̪d̪d̪d̪iːiːiːiː	-9.65215
ɑɑɑɑɹɹɹɹɹɹɹɹɹɹ	-9.65301
ɪɪɪɪŋŋŋŋŋŋŋŋŋ	-9.65494
ɹɹɹɹɹɹɹiiiiii	-9.65582
d̪d̪d̪d̪d̪d̪d̪d̪d̪əəəə	-9.65702
pppppppplllll	-9.65706
djdjdjdjiiiiiii	-9.65725
ttttttttɹɹɹəəə	-9.65733
tɕtɕtɕtɕtɕtɕtɕtɕ	-9.65796
ççççɪɪɪɪɪɪ	-9.65834
bjbjbjbjbjiiiiiii	-9.65838
ɑːɑːɑːɑːɑːɑːɑːɑːɑːɑːɑːɑːɑːɑːɑːɑːɑː	-9.66022
æææææææææææænnnnnnn	-9.66063
ɒɒɒɒɒɒɒɒɒɒɒɒɹɹɹɹ	-9.66088
mmmmmmmmmdd	-9.66102
ʎʎʎɪɪɪɪɪ	-9.66193
ɒɒɒɒɒɒɒɒɹɹɹɹɹɹɹɹɹɹ	-9.66247
thththththththththʊʊʊʊ	-9.66319
sssssssssssssɪɪɪɪɪ	-9.66387
əəəəəəəəəənnnnnnnn	-9.66402
ɪɪɪɪɪɪɪɪŋŋŋŋŋŋŋŋŋŋŋŋ	-9.66417
ɒɒɒɒɒɒɒɒɒɒɹɹɹɹɹ	-9.6649
ɪɪɪɪɪɪɪɪzzzzzzzzzzzzz	-9.6653
ɛɛɛɛɛɛɛɛɛnnnnn	-9.66537
ɲɲɲɲɲɲɪɪɪɪɪ	-9.66558
ɪɪɪttt	-9.6675
əəəəəəəəɫɫɫɫ	-9.66821
ɪɪɪɪɪɪɪɪʔʔʔʔʔʔ	-9.6683
jː	-9.66886
æææææææææænnn	-9.66914
vvvvvvdd	-9.66934
ʎʎʎʎʎɪɪɪɪɪɪ	-9.66945
əəənnnnnnnnnnn	-9.66969
lllllllejejejejejejejej	-9.66999
ɹɹɹɹɹɹɹɹɹiiiiiiii	-9.67035
ɛɛɛɛɛɛɛɛɛɛnnnnnnnn	-9.67038
ʉʉʉʉʉʉʉʉʉʉʉʉʉʉʉʉʉ	-9.67141
əəəənnnnnnnnnnnn	-9.67244
ɑɑɑɑɑɑɑɹɹɹ	-9.67281
ɒɒɒɒɒɒɒɒɒɹɹɹɹɹɹ	-9.67422
ɹɹɹɹiiiiiiii	-9.67436
kkkkksssssssss	-9.67498
ɔjɔjɔjɔjɔjɔjɔjɔjɔjɔjɔjɔjɔjɔjɔjɔjɔj	-9.67552
ssssssssssssɛɛɛɛɛɛɛ	-9.67576
ŋŋŋŋŋŋŋŋŋŋŋŋŋŋŋŋŋŋ	-9.67659
hhhhhhhhæææ	-9.6774
wwwwwwwwwwwwwwwwww	-9.67743
ɑɑɑɑɑɑɑɑɑɹɹɹ	-9.67748
ɪɪɪɪɪɪɪɪɪzzzzzzzzz	-9.67773
fjfjfjfjfjfjfjfjfjfjfjfjfjfjfjfjfj	-9.67788
ffffffffɚɚɚɚɚ	-9.67817
ɛɛɛɛnnnnnnnn	-9.6797
thththththththʉːʉːʉːʉː	-9.68026
ɚɚɚɚɚɚɚɚɚɚɚɚɚɚɚɚɚɚɚɚɚɚ•••	-9.6803
ʃʃʃʃʃʃʃʃʃʃʃʃʃʃəəənnn	-9.68163
ssssssssssssɪɪɪɪɪɪɪ	-9.68189
ppppppppplll	-9.68191
n̩n̩n̩n̩n̩n̩n̩n̩	-9.68286
ɔjɔjɔjɔjɔjɔjɔjɔjɔj	-9.68321
ɹɹɹɹɹejejejejejejejej	-9.68346
ɹɹɹɹɹɹɹɹiiiiiiiii	-9.68353
sssssssssssɪɪɪ	-9.68397
ʃʃʃ	-9.68413
mjmjmjmjmjmjmjmjɪɪɪɪɪɪɪɪ	-9.68471
ɐɐɐɐɐɐɐɐmmmmmmmm	-9.68506
tjtjtjiiiiiii	-9.68662
əəəəəəəəvvvvvvvvvv	-9.68733
hhhææææ	-9.68797
ɲɲɲɲɲɲɪ	-9.68799
iiiiiiiiiiiiiiiiiiiiii•••	-9.68825
çççççççɪɪɪɪɪɪɪ	-9.68847
pppppppppppllll	-9.68933
hhhhhæææ	-9.68945
pppppppppplll	-9.68951
æææææææææææænnnnnnnn	-9.68963
əəəəəbbbbbbb	-9.68965
ɛɛɛɛɛɛɛɹɹɹɹɹɹɹɹɹ	-9.69042
wwwwwɐɐɐɐɐ	-9.69054
ɲɲɲɲɲɲɲɲɲɲɲɲɲɲɲ	-9.69077
əəəəɫɫɫɫɫɫɫɫɫɫɫɫɫɫ	-9.69161
cwcwcwcwcwcwcwcwcwcwcw	-9.69294
ttttsssss	-9.69326
ɹɹɹɹɹɪɪɪɪɪɪɪɪ	-9.69342
ɒɒɒɫɫɫɫɫɫɫɫ	-9.6943
bjbjbjbjbjbjbjbjɪɪɪɪɪ	-9.69463
ɲɲɲɪɪɪɪɪɪɪ	-9.69536
ɪɪɪɪɪnnnnnnnnn	-9.69593
ɐɐɐɐɐɐmmmmmmmm	-9.69637
ɪɪɪɪɪɪɪɪɪɪɪɪnnnnnnn	-9.69677
ɲɲɲɲɲɲɪɪɪɪɪɪɪɪ	-9.69761
lllllllləəəəə	-9.69786
ɒɒɒɒɒɒɒɒɒɒɒɹɹɹɹɹɹɹɹ	-9.69846
pppppppəəə	-9.69849
ʊʊʊʊʊʊʊʊʊʊʊʊʊʊʊ	-9.69854
wwwwwwɐɐɐɐ	-9.69867
ɛɛɛɛɹɹɹɹɹɹɹɹɹ	-9.69895
ssssssttt	-9.70038
khkhkhkhkhkhkhkhəəəəə	-9.70153
ajajajajajajajajajajajajajajajajajajajajajajajajajajajaj	-9.70177
bjbjbjbjbjiiiiii	-9.70317
ddbbbbbbbbbb	-9.70356
ççççççççɪɪɪɪɪɪɪɪ	-9.70376
bjbjbjbjbjɪɪɪɪɪɪ	-9.70398
ɾɾɾɾɾɾɾɾɾɾɾɾɾɾ	-9.7049
nnnnnnnnnnnnnndd	-9.70495
fffffffɹɹɹɹ	-9.7053
vvvvvvɚɚɚɚɚɚɚ	-9.7057
bjbjbjbjɪɪɪɪɪɪ	-9.70618
ɛɛɛnnnnn	-9.70628
əəəəəəənnnnnnnnnnnnnn	-9.70778
ʐ	-9.70866
əəəəəəɫɫɫɫɫ	-9.70944
ttttttttsssssss	-9.70964
ttttttɚɚɚɚɚ	-9.71056
llllllejejejejejejejej	-9.71095
••••••••••••••••••••••••••••••••••••••••••••••••••••••••••	-9.71146
mmməəə	-9.71255
ddddəəəəə	-9.71262
ɒɒɒɒɒɒɒɒɫɫɫɫɫɫɫ	-9.71263
s̪s̪s̪s̪s̪s̪s̪s̪s̪s̪s̪s̪s̪s̪	-9.71391
tttttttssssss	-9.71419
ɒɒɒɒɒɹɹɹɹɹɹɹɹɹ	-9.7144
vvvvvvvɚɚɚɚɚɚɚɚ	-9.71469
mjmjmjɪɪɪ	-9.71548
fjfjfj	-9.71654
ɹɹɹɹiiiiiii	-9.71656
nnnnnnnnbbbb	-9.71713
ʎʎʎʎʎʎʎiiiiiiiii	-9.71769
••••••••••••••••••••••••••••••••••••••••••••••••••••••••••••	-9.71824
ɪɪɪɪɪɪŋŋŋŋŋŋŋŋŋŋŋ	-9.71989
ɪɪɪɪŋŋŋŋ	-9.72002
ɪɪɪtjtjtjiiiiiiii	-9.72153
tttttsssss	-9.72348
nnnnnd̪d̪d̪d̪əəəə	-9.72352
əəəəəəɫɫɫɫɫɫɫ	-9.72427
əəəəəəəəəəəəəəəəəəəəəəəə	-9.72558
ɛɛɛɹɹɹɹɹɹɹɹɹ	-9.72585
æææææææækkkkkkkk	-9.72645
kwkwkwkwkwkwkwkwkwkwkwkwkwkw	-9.72705
tjtjtjtjtjɪɪɪɪɪɪɪdd	-9.72731
ɪɪɪɪɪɪɪɪɪɪɪɪzzzzzzzz	-9.72742
ʎʎʎʎʎʎʎʎʎʎɪɪɪɪ	-9.72762
ððððððððððð	-9.72816
əəəɫɫɫɫɫɫɫɫɫɫɫɫ	-9.72955
tttttttttəəəə	-9.73005
ðððəəəə	-9.73079
ɑɑɑɑɑɑɑɑɑɑɹɹɹ	-9.73097
•••••••••••••••••••••••••••••••••••••••••••••••••••••••••••	-9.73131
çççççççççiːiːiːiːiːiːiːiː	-9.73139
ɪɪɪɪɪɪɪɪɹɹɹɹɹɹɹɹ	-9.73202
ɹɹɹɹɹɹɹɹɛɛɛɛɛɛɛ	-9.73202
ththththththththʉːʉːʉːʉːʉːʉː	-9.73218
t̪t̪t̪t̪t̪t̪t̪t̪t̪t̪t̪t̪t̪	-9.73248
ʎʎʎʎʎʎʎʎiiii	-9.73287
llllllləəəə	-9.73411
fjfjfjfjfjfjfjfjfjɪɪɪɪ	-9.73447
ɒɒɒɒɒɒɹɹɹɹɹɹɹɹɹ	-9.73536
oooooooooo	-9.73536
ɪɪɪɪɪɪɪɪŋŋŋŋŋ	-9.73593
tjtjtjtjtjtjtjtjtjɪɪɪɪɪ	-9.73602
pppppppɹɹɹəəə	-9.73827
••••••••••••••••••••••••••••••••••••••••••••••••••••••••••••••	-9.73852
ææææʔʔʔʔ	-9.74042
pjpjpjpjpjpjpjpjɪɪɪɪ	-9.74131
ɔjɔjɔjɔjɔjɔjɔjɔjɔjɔjɔjɔjɔjɔjɔjɔjɔjɔj	-9.74194
ɒɒɒɒɒɒɒɒɒɒɒɒɒɹɹɹɹ	-9.74205
ɑɑɑɑɑɑɑɑɑɑɑɑɑɑɑɑɑɑɑɑɑɑɑ	-9.7421
uuu	-9.74257
vvvvvvvvvvdd	-9.74393
ɪɪɪɪɪɪɪɪɪnnnnnnnnn	-9.74398
ɟɟɟɟɟɟɟɟɹɹɹɹɹ	-9.74403
ʎʎʎʎʎʎʎʎʎɪɪɪɪɪ	-9.74406
ttttttɚɚɚɚɚɚɚɚ	-9.74445
ɐɐɐɐɐɐɐɐɐɐɐɐɐɐɐɐɐɐ	-9.74485
ɛɛɛɛɛɛɹɹɹɹ	-9.74636
ççççççɪɪɪɪɪ	-9.74637
d̪d̪d̪əəəəəəə	-9.74644
ɲɲɲɪɪɪɪ	-9.74656
mmmmmmmmmmmmmmmmmmmmm	-9.74705
ɟɟɟɟɟɟɟɹɹɹɹ	-9.74712
pjpjpj	-9.74749
lllllejejejejejejejej	-9.74804
ɑɑɑɑɑɑɑɑɑɑɑɹɹɹɹ	-9.74838
d̪d̪d̪d̪d̪d̪d̪iːiːiːiːiːiːiːiː	-9.74847
dʒdʒdʒdʒdʒdʒdʒdʒdʒdʒdʒdʒdʒdʒdʒdʒdʒdʒdʒdʒ	-9.74894
ttttttɚɚɚɚ	-9.74935
ɒɒɒɒɒɒɒɒɒɒɒɒɒɒɒɒɒɒɒɒɒɒɒ	-9.74961
ɹɹɹɹɪɪɪɪɪɪɪɪ	-9.75028
əəəəəəəvvvvvvvvvv	-9.75104
tjtjtjtjtjtjɪɪɪɪɪɪɪɪdd	-9.75135
vvvvvvvɚɚɚɚɚɚɚ	-9.75139
nnnnd̪d̪d̪əəə	-9.75206
bjbjbjbjbjiiiii	-9.75246
sssssssssssssɪɪɪɪɪɪ	-9.75247
ççççççççɪɪɪ	-9.7525
ɒɒɒɒɒɒɒɒɒɒɹɹɹɹɹɹ	-9.75251
əəəəəənnnnnnnnnnnnnn	-9.75288
thththththʊʊʊʊ	-9.7533
jjjjjjjjjjjjjjjjjj	-9.75335
ɑɑɑɑɑɑɑɑɹɹɹɹɹɹ	-9.75348
ɚɚɚɚɚɚɚɚɚɚɚɚɚɚɚɚɚɚɚɚɚɚɚɚɚɚ	-9.75363
rjrjrjrjrjrj	-9.75385
ɹɹɹɹɹɹɹiiiiiiiii	-9.75413
çççççɪɪɪɪɪ	-9.75456
ppppppppppppɹɹɹɹɹ	-9.75465
ssssssssssstttt	-9.75477
sssssssssssssɛɛɛɛɛɛɛ	-9.75567
ɟɟɟɟɟɟɟɟɹɹɹɹ	-9.75599
ɪɪɪɪɪɪzzzzzzzzzzz	-9.75663
ɫɫɫɫɫɫɫɫɫɫɫɫɫɫɫdd	-9.75702
ɛɛɛɛɛɫɫɫɫɫɫɫɫ	-9.75726
ççççççççççiːiːiːiːiːiː	-9.75737
ɛɛɛɛɛkkkkkkk	-9.75762
ɪɪɪɪɪɪɪɪɪɪɪɪɪnnnnnnnn	-9.75855
sjsjsjsjsjsjsjsjsjsjsjsjsj	-9.76046
iːiːiːiːiːiːiːiːiːiːiːiːiːiːiːiːiːiːiːiːiːiːiːiːiː	-9.7609
zzzzzzzzzzzzzdd	-9.76149
w	-9.76158
cccccccccccccccc	-9.76221
sssssssssssssɪɪɪɪ	-9.76258
ssssssssttttttttt	-9.76284
vvvvvvɚɚɚɚɚɚɚɚ	-9.76313
hhhhhhææææ	-9.76327
ssssssssssssssttttttt	-9.76338
əəəəəəəəəvvvvvv	-9.76391
cwcwcwcwcwcwcwcwcwcw	-9.7643
əəəəəɫɫɫɫɫɫɫɫɫ	-9.76498
pppppppppppɹɹɹ	-9.76547
sssssssssssssssssssssssssss	-9.76613
ejejejejejejejejejejejejejejejejejejejejejejejejejejej	-9.76651
tttttttttəəə	-9.76676
nnnəəəəəə	-9.76778
ɟɟɟɟɟɟɟɟɹɹɹɹɹɹ	-9.7678
n̩n̩n̩n̩	-9.76796
ttttttɚɚɚɚɚɚɚ	-9.7681
ʎʎʎʎʎʎʎʎʎiiiiiii	-9.76838
tttttɚɚɚ	-9.76857
ttttttttttɹɹɹɹɹ	-9.76921
ɒɒɒɒɒɒɒɫɫɫɫɫɫɫɫ	-9.76991
ɫ̩ɫ̩ɫ̩ɫ̩	-9.77001
bjbjbjbjbjiiiiiiii	-9.77022
ɑɑɑɑɑɹɹɹɹɹɹɹɹɹ	-9.77052
mmmmmmmɛɛɛɛɛɛ	-9.77278
bbbbbbbbbbbbbbbbb	-9.77281
tʃtʃtʃtʃtʃtʃtʃtʃtʃtʃtʃtʃtʃtʃtʃtʃtʃtʃtʃtʃtʃtʃtʃ	-9.77313
ɑɑɑɹɹɹɹɹɹɹɹɹɹɹ	-9.77359
vjvjvjvjvjɪɪɪɪɪ	-9.77378
hhhhhææææ	-9.7745
ɐɐɐɐɐɐɐmmmmmmm	-9.77489
hhhhhhhæææ	-9.77505
ɪɪɪɪɪkkkkkk	-9.77613
ʎʎʎʎʎʎʎɪɪɪɪɪɪɪɪ	-9.77674
ththththththththththththththththththth	-9.77711
tttttttɚɚɚɚɚ	-9.77802
ʎʎʎʎʎʎɪɪɪɪɪɪɪ	-9.77821
ɑɑɑɹɹɹɹɹɹ	-9.77946
xxxxxxx	-9.77976
wwwəəəzzzzzzz	-9.77989
llllllllllllllll	-9.78064
ɪɪɪɪɪɪɪɪɪɪɪɪɪɪɪdd	-9.7808
çççççççɪɪɪ	-9.7813
ɫɫɫɫɫɫɫɫɫɫɫɫɫɫɫɫɫɫɫɫɫɫɫɫɫ	-9.78197
ɪɪɪɪɪɪɪɪɪʔʔʔʔ	-9.78205
ppppppppppɹɹɹ	-9.78273
tjtjtjtjtjtjtjtjtjtjɪɪɪ	-9.7828
tjtjtjtjtjtjtjɪɪɪɪɪɪɪ	-9.78312
dddwwwwwwww	-9.78397
sssssssssssɛɛɛɛɛɛ	-9.78477
ææææææææææææænnnnn	-9.78494
fffffffffɹɹɹəəə	-9.78499
ɟɟɟɟɟɟɟɹɹɹɹɹ	-9.78519
əəəəəəəəvvvvvvvvvvvv	-9.78539
çççççççççiːiːiːiː	-9.7869
ɒɒɒɒɒɹɹɹɹ	-9.78745
d̪d̪d̪d̪d̪iːiːiːiːiːiːiːiːiːiːiː	-9.78788
ɹɹɹɹɹɹiiiiii	-9.78795
ʎʎʎʎʎiii	-9.78858
əəəəəəəəənnnnnn	-9.78862
ɔɔɔɔɔɔɔɔɔɔɔ	-9.79062
vjvjvjvjvjvjvjvjvjvjvj	-9.79073
ejejejejejejejejzzzzzzzz	-9.79182
ssssssssssttt	-9.79235
ççççççççççiːiːiːiːiːiːiː	-9.79372
ɹɹɹɹɹiiiiii	-9.79374
vjvjvjvjvjvjɪɪɪɪɪ	-9.79394
çççɪɪɪɪɪɪɪ	-9.79437
rjrjrjrjrj	-9.79464
fffffffffɚɚɚɚ	-9.79517
tttttttttttɹɹɹ	-9.79542
iiiiiiiiiiiiiiiiiiiiiiiiii	-9.79552
ɹɹɹɹɹɹejejejejejejejej	-9.7957
ɲɲɲɲɪɪɪ	-9.79573
vvvvvvvvvvvvvvvvvv	-9.796
ssssssssspppppppp	-9.7972
ɪɪɪɪɪɪɪɪɪnnn	-9.7976
ççççççççççiːiːiːiːiː	-9.79796
ʎʎʎʎʎʎʎʎiiiiiiiii	-9.7983
ɒɒɒɒɒɒɒɒɫɫɫɫɫɫɫɫ	-9.79832
llllllllɛɛɛɛɛɛɛɛ	-9.79852
ɛɛɛɛɛɛɛɛɛɹɹɹɹɹɹɹɹ	-9.79852
khkhkhkhkhkhkhkhɐɐɐɐɐ	-9.79897
ɛɛɛɛɛɛɛɛɛɛnnnnnnn	-9.79904
ʉʉʉʉʉʉʉʉʉʉʉʉʉʉʉʉʉʉ	-9.79921
bjbjbjbjbjbjɪɪɪɪɪ	-9.79925
ttttttɚɚɚɚɚɚ	-9.80057
ttttttssssss	-9.80178
əəəɫɫɫɫɫɫɫɫɫɫɫɫɫ	-9.80298
cccccccccʎʎʎʎ	-9.80326
d̪d̪d̪d̪d̪d̪əəəəəəəə	-9.80373
tttttttsssss	-9.80465
ɪɪɪɪɪɪɪɪnnnnnnnnnnnn	-9.80466
æææææʔʔʔʔ	-9.80482
bjbjbjbjbjbjɪɪɪ	-9.80498
ɪɪɪɪɪɪɪɪɪɪɪnnnn	-9.80536
mmmmɛɛɛɛɛɛɛ	-9.80545
sssssssssssowowowowowowowow	-9.80579
khkhkhkhkhəəə	-9.80613
ɪɪɪɪɪɪɪɪŋŋŋŋŋŋŋŋŋŋŋŋŋ	-9.80618
ɹɹɹɐɐɐ	-9.80654
wwwwwɐɐɐɐ	-9.80713
ɑɑɑɑɑɑɑɹɹɹɹɹɹɹɹɹ	-9.8073
wwwəəəzzzzzzzz	-9.80731
ttttttttɚɚɚɚ	-9.80846
ttttɚɚɚɚɚɚɚɚ	-9.80852
bbbbbɐɐɐʔʔʔ	-9.80914
tttttɚɚɚɚɚɚɚɚ	-9.80924
fjfjfjfjfjfjfj	-9.8109
ppppppppppplll	-9.81173
əəəəəəəəvvvv	-9.81203
ʎʎʎʎʎʎiii	-9.81209
•••••••••••••••••••••••••••••••••••••••••••••••••••••••••••••••	-9.81254
bbbbajajajajajajajaj	-9.81256
ttttttsssss	-9.81271
ɒɒɒɒɒɒɒɒɒɒɒɹɹɹ	-9.81302
ɒɒɒɒɹɹɹɹɹɹɹɹɹɹ	-9.81345
ɲɲɲɲɲiiiiiiiii	-9.81373
θθθθθθθθθθθθθθθθθθθθθθ	-9.81413
ʒ	-9.81428
ɛɛɛɛɛɛɛɛɹɹɹɹɹɹɹɹɹɹ	-9.81462
vjvjvjvjvjɪɪɪɪ	-9.8148
d̪d̪d̪d̪d̪d̪d̪d̪əəəəəəə	-9.8155
ççççççççççiːiːiːiːiːiːiːiː	-9.8156
d̪d̪d̪d̪d̪d̪d̪d̪d̪əəəəə	-9.81702
ssssssssssssssstttttt	-9.81871
ççççççɪɪɪɪɪɪ	-9.81878
ɒɒɒɒɒɒɒɒɒɒɒɒɹɹɹ	-9.8189
tjtjtjtjtjtjtjtjtjtjɪɪɪɪ	-9.81979
ɒɒɒɹɹɹɹɹɹɹɹɹɹ	-9.8207
•••••••••••••••••••••••••••••••••••••••••••••••••••••••••••••	-9.82079
wwwwwwwwɪɪɪɪɪɪɪ	-9.8208
ɲɲɲɲɲɲiiiiiii	-9.82118
ssssstttttttt	-9.82135
θθθθθθθθθθθθθθθθθθθθ	-9.82136
ɫ̩ɫ̩ɫ̩ɫ̩ɫ̩ɫ̩ɫ̩ɫ̩	-9.82171
djdjdjdjdjdjdjdjɪɪɪɪɪɪɪɪ	-9.82174
ccccccccccʎʎʎʎ	-9.82195
d̪d̪d̪d̪d̪d̪iːiːiːiːiːiːiːiːiː	-9.82201
chchchchch	-9.82308
owowowowowowowowowowowowowowowowowowowowowowowowowowow	-9.82331
çççççɪɪɪɪɪɪ	-9.82333
ʎʎʎʎiii	-9.82466
ʎʎʎʎʎʎʎiii	-9.82481
xxxxxxxxxxx	-9.82516
ɹɹɹɹɹɹɹejejejejejejejej	-9.82565
wwwɪɪɪɪɪ	-9.82688
ttttttttttttttɹɹɹɹ	-9.82733
ʎʎʎʎʎʎʎɪ	-9.82754
kkkttt	-9.82786
mmmmmmmmmmdd	-9.82903
ssssssssssssstttttttt	-9.82904
tʃtʃtʃtʃ	-9.82924
ɾɾɾɾɚɚɚɚɚɚɚɚ	-9.82952
dʒdʒdʒdʒdʒdʒdʒdʒdʒdʒdʒdʒdʒdʒdʒdʒdʒdʒdʒdʒdʒ	-9.82953
tttttttttɹɹɹɹɹ	-9.82986
kkkksssssss	-9.83046
wwwwɪɪɪɪɪɪ	-9.83103
ɹɹɹɹɹɹɹɹɛɛɛɛɛ	-9.8316
ðððððəəə	-9.83173
uuuuuuuuu	-9.83235
ɒɒɒɒɒɒɒɫɫɫɫɫɫɫ	-9.83236
ddbbbbbbbbbbb	-9.83322
tjtjtjtjtjtjɪɪɪɪɪɪɪɪ	-9.83358
ææææææææææææænnnnnnnn	-9.83377
awawawawawawawawawawawawawawawawawawawawawawawaw	-9.8341
nnnnnnd̪d̪d̪əəə	-9.83451
ɒɒɒɒɒɒɒɒɒɒɒɹɹɹɹɹ	-9.83452
ɪɪɪɪɪɪɪʔʔʔ	-9.83481
wwwwwwwwwɐɐɐɐɐɐɐ	-9.8352
fjfjfjfjfjfjfjfjfjfjɪɪɪɪ	-9.83536
mjmjmjmjmjmjmjmjmjmjmjmjmj	-9.83614
vvvvvɚɚɚɚɚɚɚɚ	-9.83624
əəəəəəəəvvvvvvvvvvv	-9.83646
bbbəəə	-9.83666
əəəəəəəənnnnnnnnnnnnnnn	-9.83735
tjtjtjiiiiiiii	-9.83771
ththththththththʉːʉːʉːʉːʉːʉːʉːʉː	-9.83772
bjbjbjbjiiiiiii	-9.8386
ʉːʉːʉːʉːʉːʉːʉːʉːʉːʉːʉːʉːʉːʉːʉːʉːʉːʉːʉːʉːʉːʉːʉːʉː	-9.83871
d̪d̪d̪d̪d̪ejejejejejejejej	-9.83893
ɒːɒːɒːɒːɒːɒːɒːɒːɒːɒːɒːɒːɒːɒːɒːɒːɒː	-9.83896
nnnnnnnnnnnnnnnnn•••	-9.83905
cwcwcwcwcwcwcwcwcwcwcwcw	-9.83977
əəəəənnnnnnnnnnnnnn	-9.83991
əəəəəəəəəəəvvvvvvvv	-9.84051
mjmjmjmjmjɪɪɪɪ	-9.8407
ssssssspppppppp	-9.84108
ɪɪɪɪɪɪɪɪɪɪɪɪnnnnnn	-9.84208
əəəəəəɫɫɫɫɫɫ	-9.84209
hhhhhhhhhææææææææ	-9.84266
pjpjpjpjpjpjpjpjpjpjpjpjpjpj	-9.84292
bbbbbajajajajajajajajaj	-9.84309
ɑɑɑɑɹɹɹɹɹɹɹɹɹɹɹ	-9.84329
ththththththththʉːʉːʉːʉːʉːʉːʉː	-9.8437
ɑɑɑɑɑɑɑɑɑɑɑɹɹɹ	-9.84432
fffffffffffffɹɹɹɹ	-9.84448
ɪɪɪŋŋŋŋ	-9.84451
ɛɛɛnnnnnn	-9.84523
ʎʎʎʎʎʎʎʎiːiːiːiːiːiːiːiː	-9.84553
sssssttt	-9.84605
ɲɲɲɪɪɪɪɪɪɪɪ	-9.84611
tjtjtjtjtjtjtjtjtjtjtjtjtjtjtjtjtj	-9.84678
ɛɛɛɛɛɛɛɛɛɛɛɛɛɛɛɛɛɛɛɛɛ	-9.84812
ææææææææææææænnnnnnn	-9.84847
ɹɹɹɹɹɹɹɹɛɛɛɛɛɛ	-9.84861
ɪɪɪɪɪɪɪɪɪɪɪzzzzzzz	-9.84935
ɑɑɑɑɑɑɑɑɹɹɹɹɹɹɹɹɹ	-9.85022
tttttttɚɚɚɚɚɚɚɚ	-9.85043
bjbjbjɪɪɪ	-9.85091
bjbjbjbjiiiiii	-9.85128
ɪɪɪɪɪŋŋŋŋŋŋŋŋŋŋŋ	-9.85261
ɹɹɹɹiiiiii	-9.85278
••••••••••••••••••••••••••••••••••••••••••••••••••••••••••••••••	-9.85308
tjtjtjtjiiiiiii	-9.85322
jjjjjjjjʉːʉːʉːʉː	-9.85334
ɑɑɑɑɑɑɹɹɹɹɹɹɹɹɹ	-9.85372
çççççççiːiːiː	-9.85374
ɦɦɦɦɦɦɦ	-9.85395
fjfjfjfjfj	-9.85423
mjmjmjmjmjmjmjɪɪɪɪɪɪɪɪ	-9.85467
llllllllɛɛɛɛɛɛɛ	-9.85469
ɪɪɪɪɪɪɪɪzzzzzzzzzzzzzz	-9.85544
ɛɛɛɛɫɫɫɫɫɫɫ	-9.8556
tjtjtjtjtjtjtjtjɪɪɪɪɪɪɪɪ	-9.85567
ɛɛɛɫɫɫɫɫɫɫɫ	-9.85662
ɪɪɪɪɪŋŋŋ	-9.85828
bjbjbjbjbjɪɪɪɪɪɪɪ	-9.85915
ŋŋŋŋŋŋŋŋŋŋŋŋŋŋŋŋŋŋŋŋ	-9.85962
çççççɪɪɪɪ	-9.85988
ææææææææææææænnnnnn	-9.86178
d̪d̪d̪d̪d̪d̪iːiːiːiːiːiː	-9.86187
ɹɹɹɹiːiːiːiːiːiːiː	-9.86223
kkkkkkssssssssss	-9.86255
əəəəəəvvv	-9.86275
ɟɟɟɟɟɟɟɟɟɟɟɟɟ	-9.86292
ɛɛɛɛɛɹɹɹɹɹɹɹɹɹ	-9.86365
djdjdjdjdjiiiiiii	-9.86404
ɛɛɛɛɛɛɛɛɛɛɛnnnnnnnn	-9.8654
nnnd̪d̪d̪əəə	-9.86686
ŋŋŋŋŋŋŋŋŋŋŋŋŋŋŋŋŋŋŋ	-9.86692
eeeeeeeeeee	-9.86722
chchchchchchchchæææ	-9.86819
ʔʔʔʔʔʔʔʔʔʔʔʔʔʔʔʔʔ	-9.86929
ɪɪɪɪɪɪɪɪɪɪɪɪnnnnn	-9.8695
zzzzzzzzzzzzzzzzzzzzzzzzzzzzzz	-9.87005
ðððððððððððð	-9.87063
tjtjtjtjtjtjtjtjiiiiiiii	-9.8713
bjbjbjbjbjiiii	-9.87162
əəəəɫɫɫɫɫɫɫɫɫɫɫɫɫɫɫ	-9.8721
d̪d̪d̪d̪d̪d̪ejejejejejejejej	-9.87269
d̪d̪d̪d̪d̪ɛɛɛɛɛɛɛ	-9.87315
d̪d̪d̪d̪d̪iːiːiː	-9.87456
ççççɪɪɪɪɪɪɪ	-9.8751
ɒɒɒɒɒɒɒɒɒɒɒɒɹɹɹɹɹɹɹɹ	-9.87536
hhhhhhæææææ	-9.87539
ɒɒɒɒɒɒɒɹɹɹɹɹɹɹɹɹɹ	-9.87544
ʋʋʋ	-9.87565
fffffffffɚɚɚ	-9.87593
ɔjɔjɔjɔjɔjɔjɔjɔjɔjɔjɔjɔjɔjɔjɔjɔjɔjɔjɔj	-9.87609
cccccccccɹɹɹɹ	-9.87649
ejejejejejejejejejejejejejejejejejejejejejejejejejejejej	-9.87668
ɟɟɟɟɟɟɟɹɹɹɹɹɹ	-9.87678
ʊʊʊʊʊʊʊʊʊʊʊʊʊʊʊʊ	-9.87703
twtwtwtwtwtwtwtwtwtwtwtw	-9.87706
wwwwwwwwwɐɐɐɐɐɐɐɐ	-9.8771
ccccccccccɹɹɹɹ	-9.87717
aaa	-9.87741
phphphphphphphphɑɑɑ	-9.87765
ɒɒɒɒɹɹɹ	-9.87793
əəəəəəənnnnnnnnnnnnnnn	-9.87896
khkhkhkhkhkhkhkhɐɐɐɐɐɐ	-9.87902
ʎʎʎʎʎʎiiiiiiiii	-9.87923
llllllllejejejejejejejej	-9.88086
ɪɪɪɪɪɪɪŋŋŋŋŋŋŋŋŋŋŋŋ	-9.88109
bbbbbbajajajajajajajaj	-9.88119
ppppppppppppllll	-9.88164
wwwwwwwwwɪɪɪɪɪ	-9.88178
çççççççɪɪɪɪɪɪɪɪ	-9.88211
ɒɒɒɒɒɒɒɒɫɫɫɫ	-9.88267
ʋʋʋʋ	-9.88282
ɑɑɑɑɑɑɑɹɹɹɹɹɹ	-9.88305
wwwwwɐɐɐɐɐɐ	-9.88333
ææææææææææææænnnn	-9.88425
dddddddddddddddddd	-9.88516
ɔjɔjɔjɔjɔjɔjɔjɔjɔjɔjɔjɔjɔjɔjɔjɔjɔjɔjɔjɔjɔjɔj	-9.88583
ɛɛɛɛɛɛɛkkkkkk	-9.8863
ccccccccʎʎʎ	-9.8876
wwwwwwɐɐɐɐɐɐɐɐ	-9.88777
ææææænnnnnn	-9.88796
ɑːɑːɑːɑːɑːɑːɑːɑːɑːɑːɑːɑːɑːɑːɑːɑːɑːɑː	-9.88853
ɒɒɒɒɒɒɒɒɒɒɒɹɹɹɹɹɹɹ	-9.88887
ɫɫɫɫɫɫɫɫɫɫɫɫɫɫɫɫɫɫɫɫɫɫɫɫɫɫ	-9.89065
ssssssssssssssttttt	-9.89084
əəəəəəəəəəəəəəəəəəəəəəəəə	-9.89084
ʎʎʎʎɪɪɪɪɪɪ	-9.89144
əəəəəəəəəəvvvvvvv	-9.89144
ææææænnnnn	-9.89156
n̪n̪n̪n̪n̪n̪n̪n̪n̪n̪	-9.89249
ffffffffffɚɚɚɚ	-9.89292
vjvjvjvjvjɪɪɪɪɪɪ	-9.89305
ɑɑɑɑɑɑɑɑɑɑɑɑɹɹɹɹ	-9.8936
əəəəəəəɫɫɫɫɫɫɫɫ	-9.89411
mmmmmmmejejejejejejejej	-9.89429
sssttt	-9.89449
ɪɪɪɪɪɪɪɪɪɪɪɪɪɪɪɪɪɪɪɪɪ	-9.89456
ɹɹɹɹɹɹɹɹejejejejejejejej	-9.89558
tttttttɚɚɚɚɚɚɚ	-9.89674
əəəəəəəɫɫɫɫɫ	-9.89744
ʎʎʎʎʎʎʎʎʎʎʎʎʎʎʎʎ	-9.89745
ɛɛɛɹɹɹɹɹɹɹɹɹɹ	-9.89753
tjtjtjɪɪɪɪɪɪɪdd	-9.89774
djdjdjdjiiiiiiiii	-9.89827
tjtjtjiiiiiiiii	-9.89981
jjjjjjjjʉːʉːʉː	-9.89989
ɒɒɒɒɒɒɹɹɹ	-9.90071
mjmjmjmjmjmjmjmjɪ	-9.90096
thththththththʉːʉːʉːʉːʉː	-9.90164
ttttsss	-9.90296
pppɹɹɹ	-9.90327
mjmjmjmjmjɪɪɪɪɪ	-9.90382
ɑɑɑɑɑɹɹɹɹɹɹɹɹɹɹ	-9.90435
ɹɹɹɹɹɹɹɹiiiii	-9.90518
hhhhhhæææææææ	-9.90677
ɒɒɒɒɒɒɒɫɫɫɫ	-9.90728
mmmmɛɛɛɛɛɛ	-9.90747
ɡɡɡɡɡɡɡɡɡɡɡɡɡɡɡ	-9.90841
ɹɹɹɹiiiii	-9.90845
ccccccccccʎʎʎ	-9.9087
jjjjɪ	-9.90872
ðððððəəəə	-9.90945
pppppppppppppppppp	-9.91054
əəəɫɫɫɫɫɫɫɫɫɫɫɫɫɫ	-9.91074
ppppppppppəəə	-9.91126
ɫɫɫɫɫɫɫddd	-9.91228
ɟɟɟɟɟɟɟɟɹɹɹɹɹɹɹ	-9.91323
ʎʎʎʎʎʎʎʎʎʎiiiiiiii	-9.91364
sssssssssssowowowowowowow	-9.914
khkhkhkhkhkhkhkhɐɐɐɐ	-9.91414
bbbbbajajajajajajaj	-9.91497
əəəəəəəvvvvvvvvvvv	-9.91585
ɛɛɛɛkkkkkkkk	-9.91606
əəəəəəəəənnnnn	-9.91649
djdjdjdjdjdjdjdjdjdjdjdjdj	-9.91658
əəəvvvvvvvvv	-9.91824
ssssssssssssowowowowowowowow	-9.91826
ɫɫɫɫɫɫɫɫɫɫɫɫɫɫɫɫdd	-9.91858
aaaaaaaaaaaa	-9.91983
ʉʉʉəəə	-9.91992
hhhhææææ	-9.92007
əəəənnnttt	-9.92131
bjbjbjbjbjbjbjbjɪɪɪɪɪɪ	-9.92157
əəəəəəvvvvvvvvvv	-9.92184
vjvjvjvjvjvjɪɪɪɪ	-9.92265
ɲɲɲɲɲiiiiii	-9.92286
əəəəphphphphphphphphphphph	-9.92309
hhhhhhhhhæææææææ	-9.92323
fjfjfjfjfjfjfjfjɪɪɪɪɪɪ	-9.92328
əəəəəvvvvvvvvvv	-9.92332
chchchchchchchchchchejejejejejejejej	-9.92384
ææææææææææænnn	-9.92395
əəəəphphphphphphphphphphphph	-9.92416
ɛɛɛɛɛɛɛɛɛnnnn	-9.92586
wwwwwɐɐɐɐɐɐɐ	-9.92607
awawawawaw	-9.92625
ððððððəəə	-9.92777
æææææææææææææænnnnnnnn	-9.92795
ɛɛɛɛɹɹɹɹɹɹɹɹɹɹ	-9.9281
ɛɛɛɛɛɛɛkkkkkkkkk	-9.92869
vvvvvvɚɚɚɚɚɚ	-9.92932
tɕtɕtɕtɕtɕtɕtɕtɕtɕtɕ	-9.9302
ɹɹɹɹɹɹɹɹɹɹɪɪɪɪ	-9.93072
ææææænnnnnnn	-9.93118
cccccccccccɹɹɹɹ	-9.93125
əəəəɫɫɫɫɫɫɫɫɫɫɫɫɫɫɫɫ	-9.93157
ɹɹɹɹɹɹɹɹɹɹɪɪɪɪɪ	-9.93205
çççççɪɪɪ	-9.9322
vvvvvvvvvvvvvvvvvvv	-9.93257
ɒɒɒɫɫɫɫɫɫɫ	-9.93371
ɲɲɲɲɲɲɪɪɪɪ	-9.93393
ɪɪɪɪɪɪɪʔʔʔʔ	-9.9348
əəəəəɫɫɫɫɫɫɫɫɫɫ	-9.93483
vvvvvɚɚɚɚɚɚɚ	-9.9352
æææææænnn	-9.93666
ɑɑɑɑɑɑɑɑɑɑɑɑɹɹɹ	-9.93679
ɹɹɹɹɹɹɹɹiiiiiiiiii	-9.93684
ʎʎʎʎʎʎʎʎiii	-9.93693
ʎʎʎʎʎʎʎʎʎɪɪɪ	-9.93766
ɹɹɹɹɹɹɹɹɹɹiiiiiiii	-9.93785
twtwtwtwtwtwtwtwtwtwtw	-9.93825
vjvjvjvjvjvjɪɪɪɪɪɪ	-9.93832
ʎʎʎʎʎɪɪɪɪɪɪɪ	-9.94028
d̪d̪d̪d̪d̪d̪d̪d̪d̪d̪d̪d̪d̪d̪d̪d̪d̪d̪	-9.94038
fjfjfjfjfjfjfjfjfjɪɪɪɪɪ	-9.94125
ɕ	-9.94288
tttttttɚɚɚɚɚɚ	-9.94294
pjpjpjpjpjpjpjɪɪɪ	-9.94347
ttttssss	-9.94364
ɫɫɫɫɫɫɫɫdddd	-9.94377
ɪɪɪɪɪɪɪɪɪʔʔʔ	-9.9445
ffffffffffɹɹɹəəə	-9.94497
ɑɑɑɑɑɑɹɹɹ	-9.94522
bjbjbjbjiiiii	-9.94564
ʃʃʃʃʃʃʃʃʃʃʃʃʃʃʃəəənnn	-9.94651
mmmmmbbbb	-9.94671
ɒɒɒɒɒɒɒɒɒɒɒɒɒɒɹɹɹɹ	-9.94689
sssssssstjtjtjtjtj	-9.9471
ɹɹɹɹɹɹɹɹɹiiiiiii	-9.94718
hhhhhhæææ	-9.94768
ɪɪɪɪɪɪŋŋŋ	-9.94827
tttttttttttttttttttttttt	-9.94928
bjbjbjbjɪɪɪɪɪɪɪ	-9.94934
ɾɾɾɾɾɾɾɾɾɾɾɾɾɾɾ	-9.9505
khkhkhkhkhkhkhkhkhkhkhkhkhkhkhkhkhkhkh	-9.95186
hhhhhhææææææ	-9.9519
ɪɪɪɪɪɪɪɪɪɪɪɪɪnnnnnnn	-9.9522
ææææʔʔʔ	-9.95232
ssssssssstjtjtjtjtjtj	-9.95259
dʒdʒdʒdʒdʒdʒdʒdʒdʒdʒdʒdʒdʒdʒdʒdʒdʒdʒdʒdʒdʒdʒ	-9.9526
ɪɪɪɪɪɪŋŋŋŋŋŋŋŋŋŋŋŋ	-9.95317
ʉʉʉʉʉʉʉʉʉʉʉʉʉʉʉʉʉʉʉʉʉʉ	-9.95329
mmmmmmmmmmmmmmmmmmmmmmm	-9.9539
hhhhhæææææ	-9.95473
khkhkhkhkhkhkhkhkhkhkhəəə	-9.95659
djdjdjdjɪɪɪɪɪɪɪdd	-9.95689
ɪɪɪɪɪɪkkkkkk	-9.9569
ɪɪɪɪɪɪɪɪŋŋŋŋŋŋŋŋŋŋŋŋŋŋ	-9.95711
ççççççɪɪɪɪ	-9.95728
ççççççççççiːiːiːiː	-9.95735
wwwwwwwwwwɐɐɐɐɐɐɐ	-9.9579
ɒɒɒɒɒɒɒɒɒɒɒɒɒɹɹɹ	-9.95833
cwcwcwcwcwcwcwcwcwcwcwcwcw	-9.95843
djdjdjiiiiiiii	-9.95861
phphphphphphphphphphphphphphphphphphph	-9.95935
ɑɑɑɑɑɑɑɹɹɹɹɹɹɹɹɹɹ	-9.95949
ççççççɪɪɪɪɪɪɪ	-9.95974
cccccccccʎʎʎ	-9.96032
mjmjmjmjmjɪɪɪ	-9.96092
d̪d̪d̪d̪d̪d̪iːiːiːiːiː	-9.96111
d̪d̪d̪d̪iːiːiːiːiːiːiːiːiːiːiː	-9.96163
ʉʉʉʉʉʉʉʉʉʉʉʉʉʉʉʉʉʉʉ	-9.96178
ththththththththʉʉʉ	-9.96179
sssssssssspppppppp	-9.96191
hhhhhhhhhhhhhhhhhhh	-9.96202
wwwwwwɪɪɪ	-9.96204
fffffffffffffffffffffff	-9.96243
chchchchchchchchejejejejejejejej	-9.96261
ɪɪɪɪɪɪɪɪɪɪɪɪɪɪɪɪɪɪɪɪɪɪɪ	-9.96277
ŋŋŋŋŋŋŋŋŋŋŋŋŋŋŋŋŋŋŋŋŋŋ	-9.96384
çççççççççiːiːiː	-9.96392
əəəəəəəənnnnnnnnnnnnnnnn	-9.96451
kkkkkssssss	-9.96457
tttttssss	-9.96462
z̪z̪z̪z̪z̪z̪z̪z̪z̪z̪	-9.96482
ɪɪɪzzz	-9.965
ɹɹɹɹiiii	-9.96514
æææææææææææææænnnnn	-9.96587
iːiːiːiːiːiːiːiːiːiːiːiːiːiːiːiːiːiːiːiːiːiːiːiːiːiː	-9.96595
əəəəəəəəənnnnnnnnn	-9.96605
bjbjbjbjbjbjbjɪɪɪɪɪɪ	-9.96614
ajajajajajajajajajajajajajajajajajajajajajajajajajajajajaj	-9.96621
bjbjbjbjbjbjiiiiiii	-9.96624
tttttttttttɹɹɹɹɹ	-9.96659
zzzzzzzzzzzzzzdd	-9.96768
d̪d̪d̪d̪iːiːiː	-9.96856
tjtjtjtjɪɪɪɪɪɪɪɪɪdd	-9.96857
cccccccccccʎʎʎ	-9.96903
ɲɲɲɲɲɲɲɲɲɲɪ	-9.96904
chchchchchchchchchchchchchchchchchch	-9.96909
ɑɑɑɑɑɑɑɑɹɹɹɹɹɹɹɹɹɹ	-9.9691
d̪d̪d̪d̪d̪d̪d̪d̪d̪d̪əəəə	-9.96936
bjbjbjbjbjbjbjbjbjbjbjbjbj	-9.9694
ɔjɔjɔjɔjɔjɔjɔjɔjɔjɔjɔjɔjɔjɔjɔjɔjɔjɔjɔjɔj	-9.96952
kkkkkkssssss	-9.97072
ɟɟɟɟɟɟɹɹɹɹ	-9.97094
mjmjmjmjmjmjɪɪɪɪɪɪɪ	-9.97117
ʎʎʎʎʎʎʎʎiiiiiiiiii	-9.972
ççççççççççççççççç	-9.97226
bjbjbjbjiiiiiiii	-9.97249
əəəəəənnnnnnnnnnnnnnn	-9.97316
wwwwwwwwɝɝɝɝɝɝɝɝ	-9.97334
jjjjjjjjʉːʉːʉːʉːʉː	-9.97384
ɲɲɲɲiiiiiiiii	-9.97459
ʎʎʎʎʎʎʎiiiiiiiiii	-9.97459
vjvjvjvjvjvjvjɪɪɪɪɪ	-9.97651
əəəəəəəəəəvvvvvv	-9.97651
thththththththththththʊʊʊ	-9.97701
fjfjfjfjfjfjfjfjfjfjɪɪɪɪɪ	-9.97758
bjbjbjbjbjbjbjbjɪɪɪɪɪɪɪ	-9.97801
ssssssssssowowowowowowow	-9.97898
ɛɛɛɛɛɛɛɛkkkkkk	-9.98018
cccccccccccʎʎʎʎ	-9.98034
əəəəəəəəəvvvvv	-9.98146
əəəɫɫɫɫɫɫɫɫɫɫɫɫɫɫɫ	-9.98155
khkhkhkhkhkhkhkhɑɑɑ	-9.98213
ʒʒʒʒʒʒʒʒʒʒʒʒʒ	-9.9827
ɚɚɚɚɚɚɚɚɚɚɚɚɚɚɚɚɚɚɚɚɚɚɚɚɚɚɚ	-9.98343
ɪɪɪɪɪɪɪɪɪɪnnn	-9.98387
ææææænnnnnnnn	-9.98621
ʉːʉːʉːʉːʉːʉːʉːʉːʉːʉːʉːʉːʉːʉːʉːʉːʉːʉːʉːʉːʉːʉːʉːʉːʉː	-9.98626
ddddddddddddddddddd	-9.98675
djdjdjɪɪɪɪɪɪɪɪ	-9.98677
fffffffffɚɚɚɚɚ	-9.98694
owowowowowowowowowowowowowowowowowowowowowowowowowowowow	-9.98785
hhhhhhhhhhææææææææ	-9.98798
iiiiiiiiiiiiiiiiiiiiiiiiiii	-9.98838
vvvɚɚɚ	-9.98927
fjfjfjfjfjfjfjɪɪɪɪ	-9.98961
d̪d̪d̪d̪d̪ɛɛɛɛɛɛɛɛ	-9.98985
chchchchchchchchchchchejejejejejejejej	-9.99072
ppppppppppppɹɹɹ	-9.99141
ʂʂʂʂʂʂʂʂʂ	-9.99168
twtwtwtwtwtwtwtwtwtwtwtwtw	-9.9921
æææææʔʔʔ	-9.99289
ʐʐʐʐʐ	-9.99299
vjvjvjvjɪɪɪɪɪ	-9.99399
tjtjtjtjtjɪɪɪɪɪɪdd	-9.99441
pppppppppppplll	-9.99442
khkhkhkhkhkhkhkhɑɑɑɑɑɑɑɑ	-9.99511
ɛɛɛɛɛɛɛɛkkkkkkkkk	-9.99535
khkhkhkhkhkhkhkhɐɐɐɐɐɐɐ	-9.99585
ʃʃʃʃʃʃʃʃʃʃʃəəənnnn	-9.99723
ʔʔʔʔʔʔʔʔʔʔʔʔʔʔʔʔʔʔ	-9.99808
bbbbbajajajajajajajajajaj	-9.9982
ʋʋʋʋʋʋʋʋʋ	-9.99838
wwwwwwwwɛɛɛɛɛɛ	-9.9985
chchch	-9.99871
kwkwkwkwkwkwkwkwkwkwkwkwkwkwkw	-9.99957
vvvvvvvvvvvdd	-9.9999
bbbbbbɐɐɐɐ	-10.0003
nnnnnd̪d̪d̪əəəə	-10.0005
ʎʎʎʎʎʎʎʎʎʎɪɪɪɪɪ	-10.0005
kkkkkssssssssss	-10.0006
vjvjvjvjvjvjvjɪɪɪɪɪɪɪ	-10.0007
pppppppppppppɹɹɹɹɹ	-10.0012
khkhkhkhkhəəəə	-10.0012
wwwwwwɪɪɪɪɪɪɪ	-10.0015
ɒɒɒɒɒɒɒɒɒɒɒɒɹɹɹɹɹ	-10.0019
sjsjsjsjsjsj	-10.0024
vjvjvjvjvjvjɪɪɪɪɪɪɪ	-10.0026
owowowɫɫɫɫɫɫɫɫ	-10.0038
ʎʎʎʎʎiiiiiiiii	-10.0039
ttttttttssssss	-10.0047
d̪d̪d̪d̪d̪d̪iːiːiːiːiːiːiːiːiːiː	-10.0049
tjtjtjtjtjtjtjtjtjɪɪɪɪɪɪ	-10.0054
d̪d̪d̪d̪d̪iːiːiːiːiːiːiːiːiːiːiːiː	-10.0055
bjbjbjbjbjbjbjiiiiiiii	-10.0057
ththththththʊʊʊʊʊ	-10.0058
æææʔʔʔʔʔ	-10.006
ththththththththejejejejejejejej	-10.0066
fjfjfjfj	-10.0075
wwwwwwwɪɪɪɪɪɪɪ	-10.0082
ffffffffffɚɚɚ	-10.0085
ɹɹɹɹɹɹɹiiiii	-10.0085
chchchchchchchchchejejejejejejejej	-10.0086
tttttttssss	-10.0088
tjtjtjtjtjtjtjɪɪɪɪɪɪɪɪ	-10.009
rjrjrjrjrjɪ	-10.0107
tjtjtjtjtjtjtjtjiiiiiii	-10.0111
jjjjjjjʉ	-10.0114
ppppppplll	-10.0125
ɪɪɪɪɪŋŋŋŋŋŋŋŋŋŋŋŋ	-10.0133
d̪d̪d̪d̪d̪d̪d̪əəəəəəəə	-10.0134
d̪d̪d̪d̪d̪d̪iːiːiːiː	-10.0134
æææææææænnnnnnnnnn	-10.0134
vvvdd	-10.0155
vvvvvvvɚɚɚɚɚɚ	-10.0158
rjrjrjrjrjrjrj	-10.0167
sssssssssppppppp	-10.0167
tttttttɹɹɹəəə	-10.0169
jjjjjjjjʉ	-10.0171
tɕtɕtɕtɕtɕtɕtɕtɕtɕ	-10.0173
ejejejejzzzzzzzz	-10.0174
ɑɑɑɑɹɹɹɹɹɹ	-10.0182
ʃʃʃʃʃ	-10.0184
ɒɒɒɒɒɒɒɒɒɒɒɹɹɹɹɹɹ	-10.0185
awawawawawawawawawawawawawawawawawawawawawawawawaw	-10.0186
fjfjfjfjfjfjfjfjfjɪɪɪ	-10.0188
jjjʊʊʊ	-10.0191
ffffffffɒɒɒɹɹɹ	-10.0191
jjjjjjjjjjjjjjjjjjj	-10.0196
vjvjvjɪɪɪ	-10.0205
d̪d̪d̪d̪d̪d̪d̪d̪d̪d̪əəəəə	-10.0205
ɛɛɛɛɛɛkkkkkkkkk	-10.0211
ɪɪɪɫɫɫ	-10.0221
ɫ̩ɫ̩ɫ̩ɫ̩ɫ̩ɫ̩	-10.0222
bjbjbjbjbjbjiiiiiiii	-10.0223
pppppppppppppppɹɹɹɹ	-10.0225
cwcwcwcwcwcwcwcwcw	-10.0228
ejejejejejejejzzzzzzzz	-10.0228
ʎʎʎʎʎʎʎʎʎʎʎɪɪɪɪ	-10.0235
ʂʂʂʂʂʂʂʂʂʂ	-10.0235
ʎʎʎʎʎʎʎʎʎiiiiii	-10.0238
çççççɪɪɪɪɪɪɪ	-10.0238
ɒɒɒɒɒɒɒɫɫɫɫɫ	-10.0247
ɪɪɪɪɪɪɪɪŋŋŋŋ	-10.0249
ɪɪɪɪɪɪɪɪɪɪɪɪɪɪnnnnnnnn	-10.0251
t̪t̪t̪t̪t̪t̪t̪t̪t̪t̪t̪t̪t̪t̪	-10.0257
ʎʎʎʎʎʎʎʎʎɪɪɪɪɪɪ	-10.026
sssssssppppppp	-10.026
ɒɒɒɒɒɹɹɹ	-10.026
vjvjvjvjvjvjvjɪɪɪɪɪɪ	-10.0272
ʎʎʎʎʎʎɪɪɪɪɪɪɪɪ	-10.0276
vvvvvvvvəəəɹɹɹ	-10.0281
ɒɒɒɒɒɒɒɒɹɹɹɹɹɹɹɹɹɹɹ	-10.0293
ɪɪɪɪɪɪɪʔʔʔʔʔʔʔʔ	-10.0294
θθθθθθθθθθθθθθθθθθθθθ	-10.0303
kkkkkkkkkkllll	-10.0304
ɪɪɪɪɪɪɪŋŋŋ	-10.0304
bjbjbjbjbjbjbjiiiiiii	-10.0313
ɪɪɪɪɪɪɪɪɪɪʔʔʔʔ	-10.032
əəəəəəəəəənnnnnnn	-10.0325
thththʊʊʊʊ	-10.033
tjtjtjtjtjtjtjɪɪɪɪɪɪɪɪdd	-10.0333
hhhhhhææææææææ	-10.0338
wwwwwwwwwɐɐɐɐɐɐ	-10.0339
sssssttttt	-10.0342
llllllllowowowowowowowow	-10.0347
ɛɛɛɛɛɛkkkkkk	-10.0373
əəəəəəəəəəəəəəəəəəəəəəəəəə	-10.0383
ʃʃʃʃʃʃʃʃʃʃʃʃəəəəənnnnnnnn	-10.0403
ɹɹɹɹɹiːiːiːiːiːiːiː	-10.0408
əəəəəəəɫɫɫɫɫɫɫ	-10.0408
ææættt	-10.0413
ɪɪɪɪɪɪɪŋŋŋŋŋŋŋŋŋŋŋŋŋ	-10.0419
n̩n̩n̩n̩n̩n̩n̩	-10.0423
ɟɟɟɟɟɟɹɹɹɹɹ	-10.0425
ʎʎʎɪɪɪɪɪɪ	-10.0426
ffffffffɚɚɚɚɚɚ	-10.0428
wwwwwwɝɝɝɝɝɝɝɝ	-10.0433
ææææææææʔʔʔʔ	-10.044
khkhkhkhkhkhkhəəəəə	-10.0441
xxxxxxxxxxxx	-10.0444
wwwwwwwwwwɐɐɐɐɐɐɐɐ	-10.0446
ɹɹɹɹɹɹɹiiiiiiiiii	-10.0454
ɲɲɲɲɲɲɲɲɲɲɲɲɲɲɲɲ	-10.0455
ɛɛɛɫɫɫɫɫɫɫ	-10.0455
ɲɲɲɲiiiiii	-10.046
tɕtɕtɕtɕtɕtɕtɕtɕtɕtɕtɕ	-10.0462
ɪɪɪɪɪɪɪɪɪʔʔʔʔʔ	-10.0464
ɲɲɲɲɲiiiiiiiiii	-10.0473
ɟɟɟɟɟɟɟɹɹɹɹɹɹɹ	-10.0475
uuuuuuuuuu	-10.0488
ɑɑɑɑɑɑɹɹɹɹɹɹɹɹɹɹ	-10.0489
ɒɒɒɒɒɒɒɒɫɫɫɫɫɫ	-10.0507
ttttttssss	-10.0508
ʃʃʃʃʃʃʃʃʃʃʃəəəəənnnnnnnn	-10.0512
zzzzzzzzzzzzzzzzzzzzzzzzzzzzzzz	-10.0516
bjbjbjbjbjbjiiiiii	-10.0521
ɛɛɛɛɛɹɹɹɹɹɹɹɹɹɹ	-10.0522
ɪɪɪɪɪɪɪɪŋŋŋŋŋŋŋŋŋŋŋŋŋŋŋ	-10.0541
ssssssssssssssssssssssssssss	-10.0543
ɒɒɒɒɒɒɒɫɫɫɫɫɫ	-10.0545
ʊʊʊʊʊʊʊʊʊʊʊʊʊʊʊʊʊ	-10.0548
ɑɑɑɹɹɹɹɹ	-10.055
ejejejejejejejejejejejejejejejejejejejejejejejejejejejejej	-10.0557
fjfjfjfjfjfjfjfjfjfjfjɪɪɪɪ	-10.0567
æææææææʔʔʔʔ	-10.0576
ææææænnnn	-10.0597
tjtjtjtjtjtjtjtjɪɪɪɪɪɪɪɪdd	-10.0604
ɒɒɒɒɒɹɹɹɹɹɹɹɹɹɹ	-10.0605
ɐɐɐɐɐɐɐɐɐɐɐɐɐɐɐɐɐɐɐ	-10.0606
d̪d̪d̪d̪d̪d̪d̪d̪d̪əəə	-10.0611
ssssssssssowowowowowowowow	-10.0618
wwwwwwwwwwwwwwwwwww	-10.0618
ooooooooooo	-10.0635
ððððəəəəə	-10.0641
əəəəəəəəɫɫɫɫɫ	-10.0645
ɪɪɪɪɪɪɪɪɪɪɪɪɪɪɪɪdd	-10.0646
wwwwɐɐɐɐ	-10.065
ʃʃʃʃʃʃʃʃʃʃʃʃʃʃʃʃʃʃʃʃʃʃʃ	-10.0657
pppɹɹɹɹ	-10.0662
tjtjtjtjɪɪɪɪɪɪdd	-10.0674
s̪s̪s̪s̪	-10.0675
fjfjfjfjfjfjfjfjfjfjfjfjfjfjfjfjfjfj	-10.068
ɒːɒːɒːɒːɒːɒːɒːɒːɒːɒːɒːɒːɒːɒːɒːɒːɒːɒː	-10.0717
wwwwwɐɐɐ	-10.0738
iːiːiːiːiːiːiːiːiːiːiːiːiːiːiːiːiːiːiːiːiːiːiːiːiːiːiː	-10.0739
ththththʊʊʊʊ	-10.0746
ɒɒɒɒɫɫɫɫɫɫɫɫ	-10.0747
əəəəvvvvvvvvvv	-10.0748
hhhhhhhhhææææææ	-10.075
hhhhhhhhæææææææææ	-10.0762
zjzjzjzjzjzjzjzj	-10.0772
tjtjtjiiiiiiiiii	-10.0773
ŋŋŋŋŋŋŋŋŋŋŋŋŋŋŋŋŋŋŋŋŋ	-10.0783
djdjdjdjdjdjiiiiiiii	-10.0788
bjbjbjbjbjbjbjbjiiiiiiii	-10.0797
djdjdjdjdjɪɪɪɪɪɪɪɪdd	-10.08
vjvjvjvjvjɪɪɪɪɪɪɪ	-10.0802
sssssssskkkkkk	-10.0809
khkhkhkhkhkhkhkhkhkhɑɑɑɑɑɑɑɑ	-10.0812
ççççççɪɪɪ	-10.0813
ejejejejejzzzzzzzz	-10.0828
mmmmmmmmmbbbb	-10.0829
jjjjjɪ	-10.0838
ɒɒɒɒɒɒɹɹɹɹɹɹɹɹɹɹ	-10.0843
ɔɔɔɔɔɔɔɔɔɔɔɔ	-10.0846
əəəəəɫɫɫɫɫɫɫɫɫɫɫ	-10.0852
ɪɪɪɪŋŋŋ	-10.0856
əəəəəəəɫɫɫɫɫɫ	-10.0892
ɫɫɫɫɫɫɫɫɫɫɫɫɫɫɫɫɫɫɫɫɫɫɫɫɫɫɫ	-10.0893
ppppppɹɹɹəəə	-10.0895
ttttttttttttttttttttttttt	-10.0903
tʃtʃtʃtʃtʃ	-10.0904
ccccccʃʃʃʃʃʃʃʃ	-10.0909
ʎʎʎʎʎʎʎiiiiiiiiiii	-10.0923
ʒʒʒʒʒʒ	-10.0929
hhhhhhhhhæææææ	-10.093
bbbbbbbbbbbbbbbbbb	-10.0949
wwwwwwwɝɝɝɝɝɝɝɝ	-10.0955
tjtjtjtjtjtjtjtjtjtjɪɪɪɪɪ	-10.1
nnnnd̪d̪d̪əəəə	-10.1003
tttttsss	-10.1003
ʃʃʃʃʃʃʃʃʃʃʃʃəəəənnnnnnnn	-10.1008
ʂ	-10.1014
n̩n̩n̩n̩n̩	-10.1014
cwcwcwcwcwcwcwcwcwcwcwcwcwcw	-10.1018
lllllllowowowowowowowow	-10.1035
vjvjvjvjɪɪɪɪɪɪ	-10.1044
lllllllllllllllll	-10.1045
vjvjvjvjɪɪɪɪ	-10.1046
ththththththththɛɛɛɛɛ	-10.1046
tjtjtjtjtjtjɪɪɪɪɪɪɪdd	-10.1054
θθθθθθθθθθθθθθθθθθθθθθθ	-10.1066
ððððððððððððð	-10.1073
ppppppɹɹɹɹɹ	-10.1076
ɹɹɹɹɹɹɹɹiiiiiiiiiii	-10.1084
cwcwcwcwcwcwcwcw	-10.1085
ɒɒɒɒɒɒɒɒɫɫɫɫɫ	-10.1091
wwwwwɝɝɝɝɝɝɝɝ	-10.1093
tjtjtjtjiiiiiiiii	-10.1094
bjbjbjbjbjbjɪɪɪɪɪɪ	-10.1094
ccccccccɪɪɪ	-10.1097
çççççççççççiːiːiːiːiːiːiːiː	-10.1102
pjpjpjpjpjpjpjpjɪɪɪɪɪ	-10.1105
mjmjmjmjmjmjmjmjmjɪ	-10.1115
ɪɪɪɪɪɪɪɪɪɪɪɪnnnn	-10.1116
ɑːɑːɑːɑːɑːɑːɑːɑːɑːɑːɑːɑːɑːɑːɑːɑːɑːɑːɑː	-10.1121
ææææʔʔʔʔʔ	-10.1128
khkhkhkhkhkhkhkhkhɑɑɑɑɑɑɑɑ	-10.114
bjbjbjbjbjbjbjiiiiii	-10.1151
kkkkkkkkkkkkkkkkkkkkkkkk	-10.1154
ʎʎʎʎʎɪɪɪɪɪɪɪɪ	-10.1154
sssssstttt	-10.1156
ææææææææʔʔʔʔʔ	-10.1172
hhhhhhhhhhæææææææ	-10.1172
əəəəəəəəvvvvvvvvvvvvv	-10.1172
pjpjpjpjpjpjpjɪɪɪɪ	-10.1179
jjjjjjjjɪ	-10.1181
ɑɑɑɑɑɑɑɑpppppppp	-10.1186
ɾɾɾɾɾɾɾɾɾɾɾɾɾɾɾɾ	-10.1189
əəəəəəəəɫɫɫɫɫɫɫɫ	-10.1197
ʎʎʎʎɪɪɪɪɪɪɪ	-10.12
əəəəɫɫɫɫɫɫɫɫɫɫɫɫɫɫɫɫɫ	-10.1202
ɑɑɑɹɹɹɹɹɹɹɹɹɹɹɹ	-10.1203
d̪d̪d̪d̪d̪d̪d̪iːiːiːiːiːiːiː	-10.1208
khkhkhkhkhkhkhkhkhkhkhɑɑɑɑɑɑɑɑ	-10.121
ʉʉʉʉʉʉʉʉʉʉʉʉʉʉʉʉʉʉʉʉ	-10.1215
wwwwwɪɪɪɪɪɪɪ	-10.1222
ejejejejejejzzzzzzzz	-10.1223
khkhkhkhkhkhkhkhkhkhkhəəəə	-10.1233
wwwwwwwwwwwɐɐɐɐɐɐɐɐ	-10.1235
ɛɛɛɛɛɫɫɫɫɫɫɫ	-10.1238
vvvvvvɚɚɚɚɚ	-10.1241
wwwwɐɐɐɐɐ	-10.1242
æææææʔʔʔʔʔ	-10.1246
ɲɲɲɲɲɪ	-10.1252
bjbjbjbjbjbjiiiii	-10.1256
ʃʃʃʃʃʃʃʃʃʃʃʃʃəəəənnnnnnnn	-10.1256
ɪɪɪɪɪɪŋŋŋŋŋŋŋŋŋŋŋŋŋŋ	-10.1263
ththththththththɛɛɛɛ	-10.1268
ʉːʉːʉːʉːʉːʉːʉːʉːʉːʉːʉːʉːʉːʉːʉːʉːʉːʉːʉːʉːʉːʉːʉːʉːʉːʉː	-10.1268
bjbjbjbjiiii	-10.129
ɪɪɪɪɪɪɪɪɪŋŋŋŋŋŋŋŋ	-10.1292
twtwtwtwtwtwtwtwtwtw	-10.1316
ççççççiːiːiːiːiːiː	-10.1335
ɟɟɟɟɟɟɟɟɹɹɹɹɹɹɹɹ	-10.1337
ççççiːiːiːiːiːiːiː	-10.134
tjtjtjtjtjɪɪɪɪɪɪɪɪɪdd	-10.1343
ɛɛɛɛɛɛɫɫɫɫɫɫɫɫ	-10.1343
owowowowowowowowowowowowowowowowowowowowowowowowowowowowow	-10.1351
ːp	-10.1353
çççiːiːiː	-10.1353
tjtjtjtjtjtjtjtjtjɪɪɪɪɪɪɪ	-10.1382
əəəəəəəəəəənnnnnnnn	-10.1391
ɒɒɒɒɒɒɫɫɫɫɫɫɫ	-10.14
chchchchchchchchææææææææ	-10.1402
ttttttttsssss	-10.1408
ththththththththththʊʊʊʊ	-10.141
əəəəəəəəəəəvvvvvvv	-10.1411
mjmjmjmjmjɪɪɪɪɪɪ	-10.1416
çççççççççççiːiːiːiːiːiː	-10.1427
ççççiːiːiːiːiːiː	-10.1433
pppppppppppppllll	-10.1437
ɑɑɑɑɑɹɹɹɹɹɹɹɹɹɹɹ	-10.1444
d̪d̪d̪d̪d̪d̪iːiːiː	-10.1446
wwwəəəzzzzzz	-10.1456
vvvvvɚɚɚɚɚɚ	-10.1457
ththththththththʊʊʊʊʊʊ	-10.1483
ɝɝɝɝɝɝɝɝɝɝɝɝɝɝɝɝɝɝɝɝɝɝɝɝ	-10.1488
hhhhhææææææ	-10.1504
thththththththʉːʉːʉː	-10.1522
əəəəəəəənnnnnnnnnnnnnnnnn	-10.153
əəəəəəəəəəəəvvvvvvvv	-10.1531
çççççççççççiːiːiːiːiːiːiː	-10.1534
kkkkkkkssssss	-10.1536
ɒɒɒɒɒɒɒɒɒɹɹɹɹɹɹɹɹɹ	-10.1537
fjfjfjfjfjfjfjfjfjfjɪɪɪɪɪɪ	-10.1538
fffffffɚɚɚɚ	-10.1549
jjjjjjjʉːʉːʉː	-10.1551
nnnnnnnnnnnnnnnnnnnnnnnn	-10.1563
hhhhhæææææææ	-10.1564
ttttttttttttɹɹɹɹɹ	-10.157
awawawaw	-10.1572
ʂʂʂʂʂʂʂʂʂʂʂ	-10.1576
djdjdjdjiiiiiiiiii	-10.1583
vvvvvvvvvvvvvvvvvvvv	-10.1584
tjtjtjtjɪɪɪɪɪɪɪɪɪɪdd	-10.1585
ffffffffffffffɹɹɹɹ	-10.1594
əəəəənnnttt	-10.1599
ɑɑɑɑɹɹɹɹɹɹɹɹɹɹɹɹ	-10.1607
ppppɹɹɹɹ	-10.1611
ççççççççççiːiːiː	-10.1621
rjrjrjrj	-10.1631
sjsjsjsjsjsjsjsjsjsjsjsjsjsj	-10.1639
ajajajajajajajajajajajajajajajajajajajajajajajajajajajajajaj	-10.164
jjjjjjjjʉːʉːʉːʉːʉːʉːʉː	-10.1641
nnnd̪d̪d̪əəəə	-10.1641
dʒdʒdʒdʒdʒdʒdʒdʒdʒdʒdʒdʒdʒdʒdʒdʒdʒdʒdʒdʒdʒdʒdʒ	-10.1644
ɹɹɹɹɹɹɹɹɹɹɹɹɹɹɹɹɹɹɹɹɹɹɹɹ	-10.1662
thththththththʉːʉːʉːʉːʉːʉː	-10.1664
ɑɑɑɑɑɑɑɑɹɹɹɹɹɹɹɹɹɹɹ	-10.1664
ɪɪɪɪɪɪŋŋŋŋŋŋŋŋŋŋŋŋŋ	-10.1664
ɫɫɫɫɫɫɫɫɫɫɫɫɫɫɫɫɫdd	-10.1673
fffffffffɒɒɒɹɹɹ	-10.1676
d̪d̪d̪d̪d̪d̪d̪d̪d̪d̪d̪d̪d̪d̪d̪d̪d̪d̪d̪	-10.1678
khkhkhkhkhkhkhkhkhɐɐɐɐɐɐ	-10.1688
ɒɒɒɒɒɒɒɒnnnnn	-10.1688
ɟɟɟɟɟɟɹɹɹɹɹɹ	-10.17
ththththththththʉʉʉʉʉʉʉʉ	-10.17
t̪s̪t̪s̪t̪s̪t̪s̪t̪s̪t̪s̪t̪s̪t̪s̪	-10.1707
wwwwwwwwwɐɐɐɐɐ	-10.1712
ççççççiːiːiːiːiːiːiː	-10.1712
vjvjvjvjvjvjvjɪɪɪɪ	-10.1717
ʎʎʎʎʎʎʎʎiiiiiiiiiii	-10.1728
nnnnnnnnnnnnnnndd	-10.1728
ppppppppplllll	-10.1731
pjpjpjpjpjpjpjpjpjpjpjpjpjpjpj	-10.1738
dddddddddddddddddddddd	-10.1751
ɪɪɪɪɪɪŋŋŋŋŋŋŋŋŋŋŋŋŋŋŋ	-10.1777
s̪s̪s̪s̪s̪s̪s̪s̪s̪s̪s̪s̪s̪s̪s̪	-10.1782
əəəɫɫɫɫɫɫɫɫɫɫɫɫɫɫɫɫ	-10.1782
d̪d̪d̪d̪d̪d̪ejejejejejejej	-10.1783
tɕtɕtɕtɕtɕtɕtɕtɕtɕtɕtɕtɕ	-10.1789
d̪d̪d̪d̪d̪ɚɚɚɚɚɚɚ	-10.1789
ɒɒɒɒɹɹɹɹɹɹɹɹɹɹɹ	-10.1794
ʎʎʎʎʎʎiiiiiiiiii	-10.1806
khkhkhkhkhkhkhkhkhɐɐɐɐɐ	-10.1808
vvvvvvvvvvvvvvvvvvvvvv	-10.181
mjmjmjɪɪɪɪ	-10.1813
vjvjvjvjvjvjvjvjvjvjvjvj	-10.1828
ɫ̩ɫ̩ɫ̩ɫ̩ɫ̩	-10.1839
s̪s̪s̪s̪s̪s̪s̪s̪t̪t̪t̪t̪t̪	-10.1843
ʔʔʔʔʔʔʔʔʔʔʔʔʔʔʔʔʔʔʔ	-10.185
ççççççiːiːiːiːiː	-10.1857
fjfjfjfjfjfjfjfjfjfjfjɪɪɪɪɪ	-10.1859
ɪɪɪɪɪŋŋŋŋŋŋŋŋŋŋŋŋŋ	-10.1865
ɔjɔjɔjɔjɔjɔjɔjɔjɔjɔjɔjɔjɔjɔjɔjɔjɔjɔjɔjɔjɔj	-10.1887
bjbjbjbjbjɪɪɪɪɪɪɪɪ	-10.1891
djdjdjdjdjiiiiiiiii	-10.1895
ɪɪɪɪɪɪɪɪɪɪʔʔʔ	-10.1901
ʃʃʃʃʃʃʃʃəəəənnn	-10.1903
ccccccccccccʎʎʎ	-10.1904
ççççɪɪɪɪɪɪɪɪ	-10.192
fjfjfjfjfjfjfjfjfjɪɪɪɪɪɪ	-10.1922
jjjjjjjjʉːʉːʉːʉːʉːʉːʉːʉː	-10.1942
ffffffffffɚɚɚɚɚ	-10.1947
ææææææææʔʔʔʔʔʔ	-10.1951
d̪d̪d̪d̪d̪iːiːiːiːiːiːiːiːiːiːiːiːiː	-10.1952
əəəəəəəəəəəəəəəəəəəəəəəəəəə	-10.1952
d̪d̪d̪d̪d̪d̪iːiːiːiːiːiːiːiːiːiːiː	-10.1953
ɪɪɪɪɪɪɪɪɪʔʔʔʔʔʔʔʔ	-10.1954
d̪d̪d̪d̪d̪ejejejejejejej	-10.1958
jjjjjjjjjʉ	-10.1962
wɟ	-10.1971
bjbjbjbjbjbjbjbjiiiiiii	-10.1974
ææææææʔʔʔ	-10.1986
ɛɛɛɛɛɛɛɛɛɛɛɛɛɛɛɛɛɛɛɛɛɛɛ	-10.1986
thththththththththʉːʉːʉːʉː	-10.1988
fjfjfjfjfjfjfjfjɪɪɪɪɪɪɪ	-10.1992
bjbjbjɪɪɪɪ	-10.1997
ppppppppppppppppppp	-10.1999
ttttttsss	-10.2003
ʉʉʉʉʉʉʉʉʉʉʉʉʉʉʉʉʉʉʉʉʉ	-10.2034
çççççççççççiːiːiːiːiː	-10.2036
d̪d̪d̪d̪d̪d̪d̪d̪d̪d̪d̪d̪d̪d̪d̪d̪d̪d̪d̪d̪	-10.205
bjbjbjbjbjbjbjbjɪɪɪɪɪɪɪɪ	-10.2051
nnnnnnnnnnnnnnnnnnnnnn•••	-10.206
æææææææʔʔʔʔʔ	-10.2065
bjbjbjbjbjbjbjɪɪɪɪɪɪɪ	-10.2068
d̪d̪d̪iːiːiːiːiːiːiːiː	-10.2071
vjvjvjvjvjɪɪɪ	-10.2084
iːiːiːiːiːiːiːiːiːiːiːiːiːiːiːiːiːiːiːiːiːiːiːiːiːiːiːiː	-10.2088
jjjjjjjʉːʉːʉːʉː	-10.2094
ɔjɔjɔjɔjɔjɔjɔjɔjɔjɔjɔjɔjɔjɔjɔjɔjɔjɔjɔjɔjɔjɔjɔj	-10.2097
ɛɛɛɹɹɹɹɹɹɹɹɹɹɹ	-10.2098
ʉʉʉʉʉʉʉʉʉʉʉʉʉʉʉʉʉʉʉʉʉʉʉ	-10.2107
khkhkhkhkhkhkhkhɑɑɑɑɑɑɑ	-10.2112
fffffffffffɚɚɚɚ	-10.2117
d̪d̪d̪d̪ææææææææ	-10.2132
ɪɪɪɪɪɪɪɪʔʔʔʔʔʔʔʔʔ	-10.214
jjjjjjjjjjʉ	-10.2143
tjtjtjtjiiiiiiiiii	-10.2154
ejejejzzzzzzzz	-10.216
ɒɒɒɒɒɒɫɫɫɫɫɫɫɫ	-10.2161
ɛɛɛɛɹɹɹɹɹɹɹɹɹɹɹ	-10.2165
fffffffɚɚɚ	-10.2169
ʔʔʔʔʔʔʔʔʔʔʔʔʔʔʔʔʔʔʔʔʔʔ	-10.2172
hhhhhhhhhhhææææææææ	-10.2182
fjfjfjfjfjfjfjfjfjfjɪɪɪ	-10.2182
ææææææææʔʔʔʔʔʔʔʔ	-10.2188
thththththththththththththththththththth	-10.219
ffffffffɚɚɚɚɚɚɚ	-10.2194
ɡɡɡɡɡɡɡɡɡɡɡɡɡɡɡɡ	-10.2194
thththththththʉʉʉ	-10.2208
fffɹɹɹ	-10.2211
ʎʎʎʎʎʎʎʎʎɪɪɪɪɪɪɪ	-10.2231
vjvjvjvjvjvjvjvjɪɪɪɪɪɪɪ	-10.2232
æææææææænnnnnndd	-10.2234
əəəəəəəəɫɫɫɫɫɫɫ	-10.2243
jjjjjjjɪ	-10.2246
ccccccccccccccccc	-10.2248
ææææææʔʔʔʔʔ	-10.2249
ɚɚɚɚɚɚɚɚɚɚɚɚɚɚɚɚɚɚɚɚɚɚɚɚɚɚɚɚ	-10.225
thththththththʉːʉːʉːʉːʉːʉːʉːʉː	-10.2254
kkkkkkkkkkkllll	-10.2262
iiiiiiiiiiiiiiiiiiiiiiiiiiii	-10.2267
ŋŋŋŋŋŋŋŋŋŋŋŋŋŋŋŋŋŋŋŋŋŋŋ	-10.2269
ææææææææææææææææææææææææ	-10.227
khkhkhkhkhkhkhkhkhkhɐɐɐɐɐ	-10.227
fjfjfjfjfjfjfjɪɪɪ	-10.2272
ççççiːiːiːiːiː	-10.2273
ʋjʋjʋj	-10.2282
tjtjtjiiiiii	-10.2291
ɒːɒːɒːɒːɒːɒːɒːɒːɒːɒːɒːɒːɒːɒːɒːɒːɒːɒːɒː	-10.2294
bjbjbjbjbjbjbjiiiii	-10.2313
ɑɑɑɑɑɑɑɑɑɑɑɑɑɑɹɹɹ	-10.2314
çççɪɪɪzzzzzzzz	-10.2328
ppppppppppppplll	-10.2328
jjjʉ	-10.2356
əəəəəəəəəəvvvvv	-10.2358
ʃʃʃʃʃʃʃʃʃʃʃəəəənnnnnnnn	-10.236
ççççççɪɪɪɪɪɪɪɪ	-10.236
ccccccccccccɹɹɹɹ	-10.2363
dddddddddddddddddddddddddddd	-10.2379
vjvjvjvjvjvjvjvjɪ	-10.2381
awawawawawawawawawawawawawawawawawawawawawawawawawaw	-10.2381
vjvjvjvjvjvjvjɪɪɪɪɪɪɪɪ	-10.2415
vjvjvjvjvjvjɪɪɪ	-10.2419
ʔʔʔʔʔʔʔʔʔʔʔʔʔʔʔʔʔʔʔʔ	-10.2423
hhhhhhhhhææææ	-10.2431
vjvjvjvjvjvjvjvjɪɪɪɪɪɪ	-10.2433
wwwwwəəəəzzzzzzz	-10.2445
çççççççççççççççççç	-10.2445
cccccʃʃʃʃʃʃʃʃ	-10.2447
ɪɪɪɪɪɪɪɪɪɪʔʔʔʔʔ	-10.2476
khkhkhkhkhkhkhkhkhɐɐɐɐ	-10.2476
ccccccccʎʎʎʎʎ	-10.2477
ʃʃʃʃʃʃʃʃʃʃəəənnnn	-10.2482
ɲɲɲɲɲɲɲɲɲɲɲɲɲɲɲɲɲ	-10.2483
pppppppppplllll	-10.2486
wwwwwwwɐɐɐ	-10.249
əəəəəəəəəəəəəəəəəəəəəəəəəəəə	-10.2492
çççççɪɪɪɪɪɪɪɪ	-10.2497
ththththththʉːʉːʉːʉː	-10.2503
ççççiːiːiːiːiːiːiːiː	-10.251
owowowowowowowowowowowowowowowowowowowowowowowowowowowowowow	-10.2515
djdjdjdjdjɪɪɪɪɪɪɪdd	-10.2525
ʃʃʃʃʃʃʃʃʃʃəəəənnnnn	-10.2525
n̪ːn̪ːn̪ːn̪ːn̪ːn̪ːn̪ːn̪ː	-10.2526
khkhkhkhkhkhkhkhkhkhɐɐɐɐɐɐ	-10.253
kwkwkwkwkwkwkwkwkwkwkwkwkwkwkwkw	-10.2537
djdjdjdjɪɪɪɪɪɪɪɪɪdd	-10.2548
i	-10.2554
djdjdjiiiiiii	-10.2554
ʊʊʊʊʊʊʊʊʊʊʊʊʊʊʊʊʊʊ	-10.2564
ccccccccccccʎʎʎʎ	-10.2574
ɪɪɪɪɪɪɪɪŋŋŋŋŋŋŋŋŋŋŋŋŋŋŋŋ	-10.2577
çççççççççɪɪɪɪɪ	-10.258
wwwwwwɐɐɐ	-10.2584
ɒɒɒɹɹɹɹɹɹɹɹɹɹɹ	-10.2588
djdjdjdjdjdjdjdjdjdjdjdjdjdj	-10.2589
khkhkhkhkhkhkhkhkhkhɐɐɐɐ	-10.2593
chchchchchchchchchchchchejejejejejejejej	-10.2607
ʊ	-10.2607
tttttttttttttttttttttttttt	-10.2613
vvvvvvvvvvvvdd	-10.2621
ʎʎʎʎʎʎʎʎiiiiiiiiiiii	-10.2622
s̪s̪s̪	-10.2625
ɪɪɪɪɪɪɪŋŋŋŋŋŋŋŋŋŋŋŋŋŋ	-10.2631
hhhhæææææ	-10.2635
ejejejejejejejejejejejejejejejejejejejejejejejejejejejejejej	-10.2641
zzzzzzzzzzzzzzzzzzzzzzzzzzzzzzzz	-10.2653
əəəəəəəəəɫɫɫ	-10.2657
tjtjtjtjtjtjtjtjtjtjtjtjtjtjtjtjtjtj	-10.2663
ʃʃʃʃʃʃʃʃʃʃʃʃʃʃəəəənnnnnnnn	-10.2682
eeeeeeeeeeee	-10.2684
əəəəəəəəvvvvvvvvvvvvvv	-10.269
mmmmmmmmbbb	-10.2693
khkhkhkhkhkhkhkhɐɐɐɐɐɐɐɐ	-10.27
tjtjtjtjiiiiiiiiiii	-10.2701
ʃʃʃʃʃʃʃʃʃʃʃəəəənnnn	-10.2728
ɪɪɪɪɪɪɪɪɪɪɪɪɪɪɪnnnnnnnn	-10.273
d̪d̪d̪d̪iːiːiːiːiːiːiːiːiːiːiːiː	-10.2733
mjmjmjmjmjmjmjmjmjmjmjmjmjmj	-10.2734
ɲɲɲɲɲɲiiiiiiiii	-10.2734
tttttttttttttttɹɹɹɹ	-10.2735
çççççççççɪɪɪɪɪɪ	-10.2739
thththththththʉːʉːʉːʉːʉːʉːʉː	-10.2746
ɒɒɒɒɒɒɒɹɹɹɹɹɹɹɹɹɹɹ	-10.276
fffffffffɚɚɚɚɚɚ	-10.2769
tjtjtjtjtjtjɪɪɪɪɪɪdd	-10.277
ɒɒɒɒɒɒɒɒɫɫɫ	-10.2776
jjjjjjjjʉːʉːʉːʉːʉːʉː	-10.2785
hhhhhææææææææ	-10.2787
wwwwwɝɝɝɝɝɝɝ	-10.2809
ffffffffɹɹɹəəəmmm	-10.281
fjfjfjfjfjfjfjɪɪɪɪɪ	-10.2812
ɛɛɛɛɫɫɫɫɫɫ	-10.2814
çççɪɪɪɪɪɪɪɪ	-10.2823
ççççççiːiːiːiːiːiːiːiː	-10.2839
ʎʎʎʎʎʎʎiiiiiiiiiiii	-10.2841
əəəɫɫɫɫɫɫɫɫɫɫɫɫɫɫɫɫɫ	-10.2846
ːm	-10.2851
ɦɦɦɦɦɦɦɦɦ	-10.2852
ɒɒɒɒɒɒɒɒnnnn	-10.2866
khkhkhkhkhkhkhkhkhkhkhkhɑɑɑɑɑɑɑɑ	-10.2867
awawawawawawawawawawawnnnnn	-10.2867
jjjjee	-10.2877
ɒɒɒɒɒɫɫɫɫɫɫɫ	-10.288
tjtjtjɪɪɪdd	-10.2885
twtwtwtwtwtwtwtwtwtwtwtwtwtw	-10.2889
ʎʎʎʎʎʎʎʎiiiiiiiiiiiii	-10.2908
wwwwɐɐɐ	-10.2917
ɦɦɦɦɦɦ	-10.2917
hhhhhhhhhhæææææ	-10.2918
mjmjmjɪɪɪɪɪ	-10.2922
ʎʎʎʎiiiiiiiii	-10.2927
fjfjfjfjfjfjfjfjfjfjɪɪɪɪɪɪɪ	-10.2932
əəəəəəəəɫɫɫɫɫɫ	-10.2937
əəəəəəəəəvvvvvvvvvv	-10.2938
mjmjmjmjɪɪɪɪɪ	-10.2945
bjbjbjbjbjiii	-10.2953
æææææææʔʔʔ	-10.2958
jjjjjjɪ	-10.2966
uuuuuuuuuuu	-10.2966
ɒːɒːɒːɒːɒːɒːɒːɒːɹɹɹɹɹɹɹɹ	-10.2966
ʋ	-10.2968
fffffffffffɹɹɹəəə	-10.2973
vjvjvjvjvjvjɪɪɪɪɪɪɪɪ	-10.2975
ppppppppɹɹɹɪɪɪ	-10.2975
ðððððððððððððð	-10.2975
khkhkhkhkhkhkhkhkhkhɑɑɑ	-10.2993
t̪t̪t̪t̪t̪t̪t̪t̪t̪t̪t̪t̪t̪t̪t̪	-10.3005
ɲɲɲiiiiiiii	-10.3008
bjbjbjbjbjbjiiii	-10.3026
hhhhhhhhɝɝɝɝɝɝɝɝ	-10.303
jjjjjjjjjjjjjjjjjjjj	-10.308
djdjdjdjiiiiii	-10.3081
khkhkhkhkhkhkhkhkhkhɑɑɑɑɑɑɑ	-10.3089
awawawawawawawawawawnnnnn	-10.3103
tjtjtjtjtjɪɪɪɪɪɪɪɪɪɪdd	-10.3104
jjjjjjjjjʉːʉːʉːʉː	-10.3104
mmmmmpppp	-10.3106
ɟɟɟɟɟɟɹɹɹɹɹɹɹ	-10.3107
fjfjfjfjfjfjfjfjfjfjfjfjɪɪɪɪɪ	-10.3113
ɔjɔjɔjɔjɔjɔjɔj	-10.3125
ʎʎʎʎʎiiiiiiiiii	-10.3129
tjtjtjtjtjɪɪɪɪɪdd	-10.3135
z̪z̪z̪z̪	-10.3141
iːiːiːiːiːiːiːiːiːiːiːiːiːiːiːiːiːiːiːiːiːiːiːiːiːiːiːiːiː	-10.3153
ʃʃʃʃʃʃʃʃʃʃʃʃʃəəəəənnnnnnnn	-10.3169
ɟɟɟɟɟɟɟɟɟɟɟɟɟɟ	-10.3173
khkhkhkhkhkhkhkhɐɐɐ	-10.3176
fjfjfjfjfjfjfjfjfjfjfjɪɪɪɪɪɪ	-10.3182
ççççççççiːiːiːiːiːiːiːiːiː	-10.3205
kwkwkwkwkwkwkw	-10.3206
ɫɫɫɫɫɫɫɫɫɫɫɫɫɫɫɫɫɫdd	-10.321
jjjjjjjʉːʉːʉːʉːʉː	-10.3211
d̪d̪d̪d̪d̪d̪d̪d̪d̪d̪d̪əəəəə	-10.3215
ːd	-10.3216
ʃʃʃʃʃʃʃʃʃʃʃəəəənnnnnn	-10.3219
vjvjvjvjvjvjvjvjɪɪɪɪɪ	-10.3228
ɟɟɟɟɟɟɟɹɹɹɹɹɹɹɹ	-10.3236
s̪s̪s̪s̪s̪s̪s̪s̪t̪t̪t̪t̪t̪t̪	-10.3238
pppppɹɹɹəəə	-10.3244
tjtjtjiiiiiiiiiii	-10.3245
ɒɒɒɒɒɒɒɒɹɹɹɹɹɹɹɹɹɹɹɹ	-10.325
hhhhhhhhhhhhhhhhhhhh	-10.3255
vjvjvjvjɪɪɪɪɪɪɪ	-10.3258
ɑːɑːɑːɑːɑːɑːɑːɑːɑːɑːɑːɑːɑːɑːɑːɑːɑːɑːɑːɑː	-10.3271
ɒɒɒɒɒɒɒɒnnnnnn	-10.3278
bjbjbjbjbjbjbjbjiiiii	-10.3278
ɒɒɒɒɒɒɒɒnnnnnnn	-10.3287
ʂʂʂʂʂʂʂ	-10.3288
n̪n̪n̪n̪n̪n̪n̪n̪n̪n̪n̪	-10.3305
n̩n̩n̩n̩n̩n̩	-10.3309
oooooooooooo	-10.331
ʉːʉːʉːʉːʉːʉːʉːʉːʉːʉːʉːʉːʉːʉːʉːʉːʉːʉːʉːʉːʉːʉːʉːʉːʉːʉːʉː	-10.3317
ɫ̩ɫ̩ɫ̩ɫ̩ɫ̩ɫ̩ɫ̩	-10.3324
əəəəɫɫɫɫɫɫɫɫɫɫɫɫɫɫɫɫɫɫ	-10.333
khkhkhkhkhkhkhkhkhɑɑɑ	-10.333
ççççççççççɪɪɪɪɪɪ	-10.3336
vjvjvjvjvjvjvjvjɪɪɪɪɪɪɪɪ	-10.3342
kkkkkkkkkkkkkkkkkkkkkkkkk	-10.3342
ʎʎʎʎʎʎʎʎʎʎʎʎʎʎʎʎʎ	-10.3351
ʎʎʎʎʎʎʎʎiiiiiiiiiiiiii	-10.3356
bjbjbjbjbjbjbjbjiiiiii	-10.337
ɪɪɪɪɪɪŋŋŋŋŋŋŋŋŋŋŋŋŋŋŋŋ	-10.3382
wwwwwwɝɝɝɝɝɝɝ	-10.3384
bbbbɐɐɐʔʔʔ	-10.3388
æææææææʔʔʔʔʔʔ	-10.3394
xxxxxx	-10.3395
n̪ːn̪ːn̪ːn̪ːn̪ːn̪ːn̪ː	-10.3399
ffffffɹɹɹəəə	-10.3401
ɒɒɒɒɒɫɫɫɫɫɫɫɫ	-10.3414
khkhkhkhkhkhkhkhkhkhkhɐɐɐɐɐ	-10.3415
jjjjjjʉ	-10.344
tjtjtjtjtjtjtjɪɪɪɪɪɪɪdd	-10.3441
tjtjtjɪɪɪɪɪɪɪɪɪdd	-10.3445
cccccccʎʎʎʎ	-10.3454
t̪s̪t̪s̪t̪s̪t̪s̪t̪s̪t̪s̪t̪s̪t̪s̪t̪s̪t̪s̪t̪s̪	-10.3458
cwcwcwcwcwcwcwcwcwcwcwcwcwcwcw	-10.3462
awawawawawawawawawawawawawnnnnn	-10.347
ajajajajajajajajajajajajajajajajajajajajajajajajajajajajajajaj	-10.3475
bbbbajajajajajajaj	-10.3482
chchchchchchchchæææææææ	-10.3486
khkhkhkhkhkhkhkhɑɑɑɑ	-10.3501
çççççççççççiːiːiːiː	-10.3503
pppppppppɹɹɹəəə	-10.351
wwwwəəəzzzzzzz	-10.3519
ææææææææʔʔʔ	-10.3519
ɐɐɐɐɐɐɐɐɐɐɐɐɐɐɐɐɐɐɐɐ	-10.3528
pppppppppppppɹɹɹ	-10.355
çççççççççɪɪɪɪɪɪɪ	-10.3552
əəəɹɹɹəəəɫɫɫ	-10.3559
tjtjtjtjiiiiiiiiiiii	-10.3562
chchchch	-10.3562
wwwəəəəzzzzzz	-10.3568
hhhhhhhhhhææææææ	-10.3568
hhhæææææ	-10.3573
ʃʃʃʃʃʃʃʃʃʃʃəəəənnnnn	-10.3575
ɒːɒːɒːɒːɒːɒːɒːɹɹɹɹɹɹɹɹ	-10.3581
tʃtʃtʃtʃtʃtʃtʃtʃtʃtʃtʃtʃtʃtʃtʃtʃtʃtʃtʃtʃtʃtʃtʃtʃ	-10.3582
n̩n̩n̩n̩n̩n̩n̩n̩n̩	-10.3589
wwwɐɐɐ	-10.359
ççççççççççççiːiːiːiːiːiːiːiː	-10.3593
ɫɫɫɫɫɫɫɫɫɫɫɫɫɫɫɫɫɫɫɫɫɫɫɫɫɫɫɫ	-10.3596
djdjdjdjdjiiiiii	-10.3598
ʋʋʋʋʋʋʋʋʋʋ	-10.3605
sssssssssssssssssssssssssssss	-10.3608
wwwwwwwwwwwwwwwwwwww	-10.3612
thththththththʊʊʊʊʊʊ	-10.3615
nnnnnnnnnnnnnnnnnnnnnnnnn	-10.3617
djdjdjdjdjdjdjdjdjɪɪɪɪɪ	-10.3631
tjtjtjtjtjtjtjtjɪɪɪɪɪɪɪdd	-10.3656
bjbjbjbjɪɪɪɪɪɪɪɪ	-10.3657
ʃʃʃʃʃʃʃʃʃʃʃʃəəəənnnn	-10.3657
ɒɒɒɒɒɒɒɫɫɫ	-10.3669
əəəəəəəəəəəəvvvvvvv	-10.367
fjfjfjfjfjfjfjfjfjfjfjɪɪɪ	-10.3671
əəəɹɹɹiii	-10.3672
ːa	-10.3676
wwwɑɑɑzzz	-10.3677
ɫ	-10.3694
əəəəəəəəəəəəəəəəəəəəəəəəəəəəə	-10.371
ɔɔɔɔɔɔɔɔɔɔɔɔɔ	-10.371
ɹɹɹɹɹɹɹɹɹɹɹiiiiiiii	-10.3721
owowowɫɫɫɫɫɫɫɫɫɫɫɫɫ	-10.3723
d̪d̪d̪d̪d̪ɪɪɪɪɪɪssssssss	-10.3736
jjjjjjjjjʉːʉːʉː	-10.375
vvvəəəɹɹɹ	-10.375
djdjdjdjiiiiiiiiiii	-10.3758
vvvvvvvvvvvvvvvvvvvvv	-10.376
ʎʎʎʎʎʎʎʎiiiiiiiiiiiiiii	-10.3761
wwwwwəəəəzzzzzzzz	-10.3778
ththththththththʉʉʉʉ	-10.3787
ɹɹɹɹɹɹɹɹɹɹɹɹɹɹɹɹɹɹɹɹɹɹɹɹɹ	-10.3791
ddddddddddddddddddddddd	-10.3796
n̪n̪n̪əəə	-10.3797
ççççiːiːiːiː	-10.3801
bbbbbɐɐɐɐʔʔʔ	-10.3801
ththththththʉːʉːʉːʉːʉː	-10.3801
ɪɪɪɪɪɪɪɪŋŋŋŋŋŋŋŋŋŋŋŋŋŋŋŋŋ	-10.3813
jjjjjjjjjjjʉ	-10.3818
aaaaaaaaaaaaa	-10.3824
tjtjtjtjtjtjɪɪɪɪɪdd	-10.3825
ɒːɒːɒːɒːɒːɒːɒːɒːɒːɒːɒːɒːɒːɒːɒːɒːɒːɒːɒːɒː	-10.3825
ʃʃʃʃʃʃʃʃʃʃəəəənnnnnnn	-10.3844
tjtjtjtjiiiiiiiiiiiiii	-10.3849
khkhkhkhkhkhkhkhkhkhɐɐɐɐɐɐɐ	-10.3853
tjtjtjtjiiiiiiiiiiiii	-10.3857
jjjjjjjjjjʉːʉːʉːʉː	-10.386
ʃʃʃʃʃʃʃʃʃʃʃəəəəəənnnnnnnn	-10.3861
ððððððððððððððð	-10.3872
ffffffffffɒɒɒɹɹɹɹɹ	-10.3895
vjvjvjvjvjɪɪɪɪɪɪɪɪ	-10.3899
ɛɛɛɹɹɹɹɹɹɹɹɹɹɹɹ	-10.3902
wp	-10.3903
djdjdjdjdjiiiiiiiiii	-10.3906
llllllllllllllllll	-10.3922
fffffffffffɒɒɒɹɹɹɹɹ	-10.3928
tjtjtjtjtjtjtjtjɹɹɹɪɪɪ	-10.393
xxxxxxxxxxxxx	-10.3943
khkhkhkhkhkhkhkhkhkhkhɑɑɑ	-10.395
ʂʂʂʂʂʂʂʂʂʂʂʂ	-10.3953
wwwwəəəəzzzzzzz	-10.396
d̪d̪d̪d̪æææʔʔʔ	-10.3962
ddbbbbbbbbajajajajajajajaj	-10.3969
wwwwəəəzzzzzzzz	-10.3973
khkhkhkhkhkhkhkhkhɐɐɐɐɐɐɐ	-10.3974
chchchchchchchchchchchchchchchchchchch	-10.3974
tjtjtjtjɪɪɪɪɪɪɪɪɪɪɪdd	-10.3975
chchchchchchchchchchææææææææ	-10.3979
iiiiiiiiiiiiiiiiiiiiiiiiiiiii	-10.3988
ʃʃʃʃʃʃʃʃʃʃʃʃəəəəəənnnnnnnn	-10.3992
bjbjbjbjbjbjbjbjbjbjbjbjbjbj	-10.3997
t̪s̪t̪s̪t̪s̪t̪s̪t̪s̪t̪s̪t̪s̪t̪s̪t̪s̪	-10.4003
çççççççççɪɪɪɪ	-10.4019
ppppppppppppppppɹɹɹɹ	-10.4027
n̩n̩n̩n̩n̩n̩n̩n̩n̩n̩	-10.4028
ɾɾɾɾɾɾɾɾɾɾɾɾɾɾɾɾɾ	-10.4035
wwwwəəəəzzzzzzzz	-10.404
ɑɑɑɹɹɹɹɹɹɹɹɹɹɹɹɹ	-10.4042
ɲɲɲɲɲɲɲɲɲɲɲɪ	-10.4043
t̪s̪t̪s̪t̪s̪t̪s̪t̪s̪t̪s̪t̪s̪t̪s̪t̪s̪t̪s̪	-10.4059
çççççiːiːiːiːiːiːiː	-10.406
ɒɒɒɒɒɒɒɒɒɹɹɹɹɹɹɹɹɹɹ	-10.4067
bjbjbjbjbjbjbjiiii	-10.4079
bjbjbjbjbjbjɪɪɪɪɪɪɪ	-10.4088
ɑːɑːɑːɑːɑːɑːɑːɑːɑːɑːɑːɑːɑːɑːɑːɑːɑːɑːɑːɑːɑːɑː	-10.4088
wwwwəəəəzzzzzz	-10.409
ʃʃʃʃʃʃʃʃʃʃəəəənnnnnnnn	-10.4092
t̪s̪t̪s̪t̪s̪t̪s̪t̪s̪t̪s̪t̪s̪t̪s̪t̪s̪t̪s̪t̪s̪t̪s̪	-10.4105
dddddddddddddddddddd	-10.4117
ppppppppppppppɹɹɹɹɹ	-10.4123
phphphphphphphphphphphphphphphphphphphph	-10.4126
djdjdjɪɪɪɪɪɪɪɪdd	-10.4135
ɒːɒːɒːɒːɒːɒːɒːɒːɒːɒːɒːɒːɒːɒːɒːɒːɒːɒːɒːɒːɒːɒː	-10.4144
tɕtɕtɕtɕtɕtɕtɕ	-10.4155
çççççççççɪɪɪɪɪɪɪɪ	-10.4161
khkhkhkhkhkhkhkhkhkhkhɑɑɑɑɑɑɑ	-10.4163
owowowowɫɫɫɫɫɫɫɫɫɫɫ	-10.4165
əəəəəəəənnnnnnnnnnnnnnnnnn	-10.4179
ʃʃʃʃʃʃʃʃʃəəəənnnnn	-10.4196
z̪z̪z̪z̪z̪z̪z̪z̪z̪z̪z̪	-10.4202
bbbbbbɐɐɐʔʔʔ	-10.4212
çççççiːiːiːiːiːiː	-10.4222
ɒɒɒɒɒɒɫɫɫɫ	-10.4245
thththththththththʉːʉːʉːʉːʉː	-10.425
wwwɪɪɪθθθ	-10.425
bjbjbjbjiii	-10.426
æææʔʔʔʔʔʔ	-10.4261
ɐɐɐɐɐɐɐɐɐɐɐɐɐɐɐɐɐɐɐɐɐɐ	-10.4262
tɕtɕtɕ	-10.4273
fjfjfjfjfjfjfjfjfjfjfjfjfjfjfjfjfjfjfj	-10.4289
fjfjfjfjfjfjfjfjfjɪɪɪɪɪɪɪ	-10.4289
chchchchchchchchejejejejejejejejej	-10.4291
wwwwwwəəəəzzzzzzzz	-10.4321
ejejejejejejejejejejejejejejejejejejejejejejejejejejejejejejej	-10.4324
ææææʔʔʔʔʔʔ	-10.433
khkhkhkhkhkhəəəəə	-10.4353
wwwwəəəəəzzzzzz	-10.4355
vvvvvvvvvvvvvvvvvvvvvvv	-10.4355
ççççiːiːiː	-10.4357
djdjdjdjdjdjdjdjdjɪɪɪɪɪɪ	-10.4367
nnndjdjdjɪɪɪ	-10.4373
ʃʃʃʃʃʃʃəəənnn	-10.4378
jjjjʉːʉːʉː	-10.4387
ɪɪɪɪɪɪɪɪŋŋŋ	-10.4391
jjjjjee	-10.4399
cccccccɹɹɹɹ	-10.4405
æææææʔʔʔʔʔʔ	-10.4407
djdjdjdjdjdjdjdjdjɪɪɪɪɪɪɪ	-10.4408
bbbbbbbbbbbbbbbbbbb	-10.4474
s̪s̪s̪s̪s̪s̪s̪t̪t̪t̪t̪t̪	-10.4475
ʋjʋjʋjʋj	-10.448
tjtjtjtjiiiiii	-10.4496
jjjjjjjjjjjjʉ	-10.4499
ʃʃʃʃʃʃʃʃʃʃʃʃʃəəəənnnn	-10.4525
n̩n̩n̩n̩n̩n̩n̩n̩n̩n̩n̩	-10.4529
ððððððððððððððððððððððð	-10.4531
ʃʃʃʃʃʃʃʃʃʃʃʃʃəəənnnnnnnn	-10.4532
ɒɒɒɒɒɒɫɫɫɫɫɫ	-10.4534
tjtjtjtjtjtjɪɪɪɪɪɪɪɪɪdd	-10.4544
zzzzzzzzzzzzzzzzzzzzzzzzzzzzzzzzz	-10.4556
ththththththththththththʊʊʊ	-10.4558
ttttttttttttttttttttttttttt	-10.4562
awawawawawawawawawawawawawawawawawawawawawawawawawawaw	-10.4586
fjfjfjfjfjfjfjfjfjfjfjɪɪɪɪɪɪɪ	-10.4595
tʃtʃtʃtʃtʃtʃtʃtʃtʃtʃtʃtʃtʃtʃtʃtʃtʃtʃtʃtʃtʃtʃtʃtʃtʃ	-10.4613
chchchchchchchchchææææææææ	-10.4628
tjtjtjtjiiiiiiiiiiiiiii	-10.4635
n̩n̩n̩n̩n̩n̩n̩n̩n̩n̩n̩n̩n̩	-10.4648
fffffɹɹɹ	-10.4649
ɒɒɒɒɒɒɒɒɒɒɒɒɒɒɒɒɒɒɒɒɒɒɒɒ	-10.4652
ɫɫɫɫɫɫɫɫɫɫɫɫɫɫɫɫɫɫɫɫɫɫɫɫɫɫɫɫɫ	-10.4669
djdjdjdjɪɪɪɪɪɪɪɪɪɪdd	-10.4673
ççççççççççççiːiːiːiːiːiːiː	-10.4678
pppppppppppppppppppp	-10.4688
ʃʃʃʃʃʃʃʃʃʃəəəəənnnnnnnn	-10.4713
khkhkhkhkhkhkhkhkhkhkhkhkhkhkhkhkhkhkhkh	-10.4716
ɝɝɝɝɝɝɝɝɝɝɝɝɝɝɝɝɝɝɝɝɝɝɝɝɝ	-10.4716
twtwtwtwtwtwtwtw	-10.4718
cccccccccccccɹɹɹɹ	-10.4719
hhhhæææææææ	-10.473
ejejejejejejejejejejejejejejejejejejejejejejejejejejejejejejejej	-10.4738
ɒɒɒɒɒɒɹɹɹɹɹɹɹɹɹɹɹ	-10.474
ɚɚɚɚɚɚɚɚɚɚɚɚɚɚɚɚɚɚɚɚɚɚɚɚɚɚɚɚɚ	-10.4756
khkhkhkhkhkhkhkhəəənnnnn	-10.4768
wwwwwəəəəəzzzzzzz	-10.479
chchchchchchchchchchchææææææææ	-10.4825
əəəəəəəəəəəəəəəəəəəəəəəəəəəəəəə	-10.4832
ʊʊʊʊʊʊʊʊʊʊʊʊʊʊʊʊʊʊʊ	-10.4838
n̩n̩n̩n̩n̩n̩n̩n̩n̩n̩n̩n̩n̩n̩n̩n̩n̩n̩n̩n̩n̩n̩n̩	-10.4847
ʎʎʎʎʎʎʎʎiiiiiiiiiiiiiiii	-10.4861
uuuuuuuuuuuu	-10.4877
ɦɦɦɦɦɦɦɦɦɦ	-10.4879
n̩n̩n̩n̩n̩n̩n̩n̩n̩n̩n̩n̩	-10.4902
çççççççiːiːiːiːiːiːiːiːiː	-10.4917
ʉːʉːʉːʉːʉːʉːʉːʉːʉːʉːʉːʉːʉːʉːʉːʉːʉːʉːʉːʉːʉːʉːʉːʉːʉːʉːʉːʉː	-10.4934
əəəɹ	-10.4936
tjtjtjtjiiiiiiiiiiiiiiii	-10.4961
ʒʒʒʒʒʒʒʒʒʒʒʒʒʒ	-10.4966
ʒʒʒ	-10.4991
wwwwwwwwwwwwwwwwwwwwww	-10.4997
ʔʔʔʔʔʔʔʔʔʔʔʔʔʔʔʔʔʔʔʔʔ	-10.5012
vjvjvjvjvjvjvjvjvjvjvjvjvj	-10.5024
kkkkkkkkkkkkkkkkkkkkkkkkkk	-10.5024
ʐʐʐʐʐʐʐʐʐ	-10.5041
çççççiːiːiːiːiːiːiːiː	-10.5051
ddddddddddddddddddddddddddddddddddddd	-10.5064
æææææææææææææææææææææææææ	-10.5067
t̪s̪t̪s̪t̪s̪t̪s̪t̪s̪t̪s̪t̪s̪t̪s̪t̪s̪t̪s̪t̪s̪t̪s̪t̪s̪	-10.5079
ʎʎʎʎʎʎʎʎʎɪ	-10.5097
ɡɡɡɡɡɡɡɡɡɡɡɡɡɡɡɡɡ	-10.5112
pjpjpjpjpjpjpjpjʎʎʎ	-10.5147
ʋjʋjʋjʋjʋjʋjʋjʋjiiii	-10.5157
ççççççççççççiːiːiːiːiː	-10.5164
ççççççiːiːiːiː	-10.517
wwwwwwəəəəzzzzzzz	-10.5201
çççççççççççiːiːiː	-10.5206
wwwwwəəəəəzzzzzzzz	-10.5214
t̪t̪t̪t̪t̪t̪t̪t̪t̪t̪t̪t̪t̪t̪t̪t̪	-10.5215
sjsjsjsjsj	-10.5237
ɪɪɪɪɪɪɪɪŋŋŋŋŋŋŋŋŋŋŋŋŋŋŋŋŋŋ	-10.5237
khkhkhkhkhkhkhkhkhkhɑɑɑɑ	-10.5239
nnnnnnnnnnnnnnnnnnnnnnnnnn	-10.5252
ccccʃʃʃʃʃʃʃʃ	-10.5269
owowowowowowowowowowowowowowowowowowowowowowowowowowowowowowow	-10.5271
twtwtwtwtwtwtwtwtw	-10.5275
bbbbbɐɐɐʔʔʔʔ	-10.5297
hhhhææææææ	-10.5298
ððððððððððððððððððððððððð	-10.5305
ɒɒɒɒɒɹɹɹɹɹɹɹɹɹɹɹ	-10.5324
sjsjsjsjsjsjsjsjsjsjsjsjsjsjsj	-10.5325
jjjjjjjjjjjjjjjjjjjjjj	-10.5336
ʃʃʃʃʃʃʃʃʃʃʃʃəəəəəəənnnnnnnn	-10.5355
djdjdjɪɪɪɪɪɪɪdd	-10.5372
n̩n̩n̩n̩n̩n̩n̩n̩n̩n̩n̩n̩n̩n̩	-10.5378
ʒʒʒʒʒ	-10.5385
ɒɒɒɒɒɒɒɒɫɫɫɫɫɫɫɫɫ	-10.5389
ɔɔɔɔɔɔɔɔɔɔɔɔɔɔ	-10.5397
tjtjtjɪɪɪɪɪɪɪɪɪɪdd	-10.5415
ɲɲɲɲɲɲɲɲɲɲɲɲɲɲɲɲɲɲ	-10.5445
ʃʃʃʃʃʃʃʃʃʃʃʃʃʃʃʃəəənnn	-10.5452
ðððððððððððððððððððððððð	-10.5452
jjjjjʉ	-10.5453
kwkwkwkwkwkwkwkwkwkwkwkwkwkwkwkwkw	-10.5469
hhhhhhhhhhhhhhhhhhhhhh	-10.5478
ɒɒɒɒɹɹɹɹɹɹɹɹɹɹɹɹ	-10.5481
ɒːɒːɒːɒːɒːɒːɹɹɹɹɹɹɹɹ	-10.5496
djdjdjdjdjdjdjdjdjdjdjdjdjdjdj	-10.5502
ʎʎʎʎʎʎʎʎiiiiiiiiiiiiiiiii	-10.5523
çççççiːiːiːiːiː	-10.5533
ççççççççççççççççççç	-10.5541
ddʊʊʊʊɹɹɹ	-10.5547
twtwtwtwtwtwtwtwtwtwtwtwtwtwtw	-10.557
eeeeeeeeeeeee	-10.5576
wwwwwəəəəzzzzzz	-10.5589
pjpjpjpjpjpjpjpjpjpjpjpjpjpjpjpj	-10.5594
wwwəəəzzzzz	-10.5603
ʔʔʔʔʔʔʔʔʔʔʔʔʔʔʔʔʔʔʔʔʔʔʔ	-10.5609
ŋŋŋŋŋŋŋŋɡɡɡɡɡ	-10.5609
n̩n̩n̩n̩n̩n̩n̩n̩n̩n̩n̩n̩n̩n̩n̩n̩n̩	-10.561
wwwwwwwəəəəzzzzzzz	-10.5617
s	-10.5619
ppppppppppppppllll	-10.5623
ɕːɕːɕːɕːɕːɕːɕːɕː	-10.5658
jjjjjjjjjjjjjjjjjjjjj	-10.569
ɛɛɛɛɛɛɛvvvvvvvɚɚɚɚɚɚɚɚ	-10.5701
ɨɨɨɨɨɨɨɨɨ	-10.5703
pppppppppppppppppppppp	-10.5714
iːiːiːiːiːiːiːiːiːiːiːiːiːiːiːiːiːiːiːiːiːiːiːiːiːiːiːiːiːiː	-10.5714
cwcwcwcwcwcwcwcwcwcwcwcwcwcwcwcw	-10.5733
ʃʃʃʃ	-10.5735
ɹɹɹɹɹɹɹɹɹɹɹɹɹɹɹɹɹɹɹɹɹɹɹɹɹɹ	-10.5745
d̪d̪d̪d̪d̪ɪɪɪɪɪɪɪssssssss	-10.5755
iiiiiiiiiiiiiiiiiiiiiiiiiiiiii	-10.5759
hhhhhhhhhhhhhhhhhhhhh	-10.576
ɑːɑːɑːɑːɑːɑːɑːɑːɑːɑːɑːɑːɑːɑːɑːɑːɑːɑːɑːɑːɑː	-10.5772
tjtjtjtjtjɪɪɪɪɪɪɪɪɪɪɪdd	-10.5788
cccccccccccccʎʎʎ	-10.5798
ɚɚɚəəəəəəəəəəəəəəəəəəəəəə	-10.58
wwwwwwwəəəəzzzzzzzz	-10.5819
tttttttttttttttttttttttttttt	-10.583
fjfjfjfjfjfjfjɪɪɪɪɪɪ	-10.5847
aaaaaaaaaaaaaa	-10.5848
vjvjvjvjvjvjvjɪ	-10.585
ʃʃʃʃʃʃʃʃʃʃʃʃʃəəəəəənnnnnnnn	-10.5859
ʃʃʃʃʃʃʃʃʃʃəəəəənnnnn	-10.5887
s̪s̪s̪s̪s̪s̪s̪t̪t̪t̪t̪t̪t̪	-10.5889
jjjjjjjjjjjjjʉ	-10.5892
thththththththʉʉʉʉ	-10.5906
ɕːɕːɕːɕːɕːɕːɕːɕːɕːɕːɕː	-10.5961
wwwwwwəəəəəzzzzzzz	-10.5968
ɾ̃ɾ̃ɾ̃ɾ̃	-10.598
mmmɛɛɛnnn	-10.5981
d̪d̪d̪d̪ɪɪɪɪɪɪɪssssssss	-10.5983
zzzzzzzzzzzzzzzzzzzzzzzzzzzzzzzzzz	-10.5987
ɾɾɾɾɾɾɾɾɾɾɾɾɾɾɾɾɾɾ	-10.6013
s̪ːs̪ːs̪ː	-10.6028
ʉːʉːʉːʉːʉːʉːʉːʉːʉːʉːʉːʉːʉːʉːʉːʉːʉːʉːʉːʉːʉːʉːʉːʉːʉːʉːʉːʉːʉː	-10.6032
tjtjtjtjiiiiiiiiiiiiiiiii	-10.6057
ajajajajajajajajajajajajajajajajajajajajajajajajajajajajajajajaj	-10.6058
s̪s̪s̪s̪s̪s̪s̪s̪s̪s̪s̪s̪s̪s̪s̪s̪	-10.6061
fffffffffɹɹɹəəəə	-10.6066
tɕtɕtɕtɕtɕtɕtɕtɕtɕtɕtɕtɕtɕ	-10.6074
ʊʊʊʊʊʊʊʊʊʊʊʊʊʊʊʊʊʊʊʊʊʊ	-10.6083
ɦɦɦ	-10.611
ʃʃʃʃʃʃʃʃʃʃʃəəəəəəənnnnnnnn	-10.6121
ddʊʊʊʊʊɹɹɹɹɹ	-10.6128
ɑɑɑɑɑɑɑɑɑɑɑɑɑɑɑɑɑɑɑɑɑɑɑɑ	-10.6143
awawawawawawawawawawawawawawawawawawawawawawawawawawawaw	-10.6168
ʎʎʎʎʎʎʎʎʎʎʎʎʎʎʎʎʎʎ	-10.6178
r	-10.6196
ɒːɒːɒːɒːɒːɒːɒːɒːɒːɒːɒːɒːɒːɒːɒːɒːɒːɒːɒːɒːɒː	-10.6201
wwwwwwəəəəəzzzzzzzz	-10.6209
nnnnndjdjdjdjɪɪɪ	-10.6216
d̪d̪d̪d̪ɪɪɪɪɪɪssssssss	-10.6243
pppppppppppppplll	-10.6248
wwwəəəəzzzzzzz	-10.6258
əəəəəəəəvvvvvvvvvvvvvvv	-10.626
n̩n̩n̩n̩n̩n̩n̩n̩n̩n̩n̩n̩n̩n̩n̩n̩n̩n̩n̩n̩n̩n̩	-10.6285
ʃʃʃʃʃʃʃʃʃʃəəəəəənnnnnnnn	-10.6295
çççççççççiːiːiːiːiːiːiːiːiː	-10.6303
xxxxx	-10.6304
nnnnnnnnnnnnnnnnnnnnnnnnnnn	-10.6313
ɒːɒːɒːɒːɒːɹɹɹɹɹɹɹɹ	-10.6328
ɲɲɲɲɲɲɟwɪɪɪɪ	-10.6335
tjtjtjtjɪɪɪɪɪɪɪɪɪɪɪɪdd	-10.6345
ŋŋŋŋŋŋŋɡɡɡɡ	-10.6359
ððððððððððððððððð	-10.6362
ɦɦɦɦɦ	-10.6367
wwwwwʊʊʊʊdd	-10.6373
mmmmbbbbɚɚɚ	-10.6397
djdjdjdjdjɪɪɪɪɪɪɪɪɪdd	-10.6465
ppppppppppɹɹɹəəə	-10.6478
ʊʊʊʊʊʊʊʊʊʊʊʊʊʊʊʊʊʊʊʊ	-10.6488
rjrjrjrjɪ	-10.6523
zjzjzjzjzjzjzj	-10.6528
n̩n̩n̩n̩n̩n̩n̩n̩n̩n̩n̩n̩n̩n̩n̩n̩n̩n̩	-10.6549
wwwwwwwwwwwwwwwwwwwww	-10.658
tjtjtjtjtjtjɪɪɪɪɪɪɪɪɪɪdd	-10.6583
əəəəəəəəəəəəəəəəəəəəəəəəəəəəəəəə	-10.6593
wwwwwwwəəəəəzzzzzzzz	-10.6597
ɒɒɒɒɒɒɒɒɒɒɒɒɒɒɒɒɒɒɒɒɒɒɒɒɒ	-10.6601
n̩n̩n̩n̩n̩n̩n̩n̩n̩n̩n̩n̩n̩n̩n̩n̩	-10.6606
d̪d̪d̪d̪d̪ææææææʔʔʔʔ	-10.6612
cccccccccccccʎʎʎʎ	-10.6636
tjtjtjtjtjtjtjtjtjtjtjtjtjtjtjtjtjtjtj	-10.665
n	-10.7067
d	-10.7098
m	-10.9111
ɹ	-10.9701
h	-10.9863
v	-11.088
ʉ	-11.1149
z	-11.1441
ɲ	-11.1713
ʃ	-11.2222
k	-11.3058
p	-11.3488
æ	-11.4201
b	-11.4894
ɟ	-11.6703
ɚ	-11.7053
c	-11.8571
ɐ	-11.8658
ʎ	-11.9368
o	-11.9623
a	-12.1786
f	-12.204
l	-12.2055
ɡ	-12.2089
ɑ	-12.2607
ɵ	-12.3596
e	-12.3863
ʑ	-12.4518
ɾ	-12.5337
ɒ	-12.8335
ɝ	-13.0845
ʔ	-13.3144
θ	-13.5428
ɔ	-13.9695
ɣ	-14.3912
ɨ	-14.4257
ɦ	-14.5668
ð	-14.7497
u	-15.4819
̃	-15.7738
̩	-15.7739
ç	-15.774
ŋ	-15.7741
̪	-15.7742
x	-15.7743
•	-15.7743
